e r
e n</w>
i n
e r</w>
t h
a n
c h
e n
s t
u n
r e
a r
th e</w>
i t
i n</w>
o n
o r
a t
a l
o n</w>
d i
e s</w>
c h</w>
e d</w>
e l
i s
r o
in g</w>
a u
l i
d er</w>
e s
an d</w>
t o</w>
a s</w>
i l
o f</w>
u r
s i
e i
e in
a n</w>
a t</w>
a s
t i
o l
o m
di e</w>
b e
g e
o r</w>
o u
i s</w>
s ch
r i
d e
d en</w>
t e</w>
a m
un d</w>
a g
a l</w>
a b
v er
l e
s e
i t</w>
h e</w>
en t</w>
a c
at i
t en</w>
u s
r a
i c
i r
n e
g en</w>
en t
i e</w>
v e</w>
s a
w h
i ch
l o
t er
d e</w>
un g</w>
i e
l e</w>
a r</w>
t e
' s</w>
s p
n o
h a
d er
th at</w>
h r
i g
w e
f or</w>
l y</w>
t er</w>
f f
s t</w>
i d</w>
u t
p ro
e m
c on
o p
f ü
e t
S t
a y</w>
w er
ch en</w>
T he</w>
c e</w>
w as</w>
s u
a d
s e</w>
v on</w>
c om
is t</w>
z u</w>
sa id</w>
b er
it h</w>
0 0
i m</w>
i m
t s</w>
e c
u m</w>
m it</w>
f or
w ith</w>
e h
c o
ein e</w>
u l
ati on</w>
p o
au f</w>
d as</w>
a k
a h
ich t</w>
g e</w>
u t</w>
e m</w>
a p
ar e</w>
an d
it i
e in</w>
a ch
er s</w>
A n
s h
al s</w>
de m</w>
b er</w>
fü r</w>
g en
a f
b e</w>
e x
r u
S ch
si ch</w>
d es</w>
p l
il l</w>
i st
h e
a ch</w>
i er
D ie</w>
n icht</w>
I n
in g
p er
u m
b y</w>
e st
s o</w>
l d</w>
a m</w>
c k
w or
t r
el l
ch e</w>
on s</w>
at e</w>
ou t</w>
ro m</w>
V er
er e</w>
al l
h is</w>
ei t</w>
p re
o o
q u
R e
U n
f rom</w>
v i
m o
2 00
o w
h t</w>
ha ve</w>
al l</w>
u r</w>
it y</w>
li ch</w>
t h</w>
i ch</w>
p or
g es
A u
d ay</w>
ä n
m en</w>
h as</w>
th er</w>
ou ld</w>
w ill</w>
m ent</w>
a y
t ed</w>
d u
e y</w>
y e
c i
s en</w>
au s</w>
as s</w>
r an
e b
P ro
p ar
m e</w>
ti on</w>
il li
h o
p e
it s</w>
ag e</w>
h at</w>
l u
on e</w>
d en
ol l
t z
m an
as t</w>
m e
d s</w>
au ch</w>
t o
v er</w>
no t</w>
m a
un g
h ab
g i
a hr
be i</w>
C h
w ar
er n</w>
ein en</w>
or e</w>
in d</w>
ein er</w>
e l</w>
is chen</w>
t a
d ing</w>
i el
o ff
ü r
i r</w>
in e</w>
l a
g o
w ir
d ass</w>
au s
d o
A l
un gen</w>
s o
d es
m an</w>
u p</w>
b o
m in
D er</w>
ä r
o h
B e
st en</w>
n ach</w>
n en</w>
wh o</w>
ati on
ou r</w>
r it
f t</w>
e t</w>
z u
k e</w>
en d</w>
si e</w>
g an
s er
E n
ein em</w>
ent s</w>
t w
v or</w>
h er</w>
ha d</w>
s ag
re c
I n</w>
ei r</w>
g er
es t</w>
m er</w>
ü n
w ar</w>
th is</w>
k l
th ey</w>
an n</w>
wer e</w>
f in
th eir</w>
g er</w>
b ut</w>
es s</w>
D e
g el
t en
g r
c k</w>
sch af
ar k
S p
b en</w>
N e
s en
ch t</w>
a d</w>
T h
u b
g ro
e it
com p
m er
E r
m ore</w>
p p
A r
ut sch
au f
wer den</w>
d ed</w>
an n
g t</w>
no ch</w>
s el
be en</w>
h al
al ly</w>
D as</w>
w ie</w>
re d</w>
r is
u s</w>
t ing</w>
ur e</w>
k s</w>
l ei
m on
y o
ung s
in c
s ol
l and</w>
t ra
f i
at ed</w>
k om
r ä
om e</w>
wh ich</w>
1 9
f ir
l in
e p
ü ber</w>
ö n
f e
di es
h at
h en</w>
li e
h r</w>
in ter
G e
re s
ab out</w>
g ht</w>
B er
ar y</w>
d ur
s ind</w>
ac k</w>
g h
ar s</w>
m it
p ri
v o
an t</w>
w ould</w>
il l
d ent</w>
w e</w>
us t</w>
st r
n e</w>
el l</w>
' t</w>
wir d</w>
v or
an s</w>
w i
hab en</w>
am e</w>
t s
we it
al i
eh r</w>
ing s</w>
A b
f o
an y</w>
g h</w>
ol d</w>
c an</w>
ö r
l an
b r
n er</w>
es s
al so</w>
t ri
il e</w>
e v
- -
po s
is che</w>
u e</w>
st ell
ab er</w>
I t</w>
si on</w>
ar d</w>
d a
i c</w>
am p
o ther</w>
w en
w ei
2 0
b t</w>
ab le</w>
re s</w>
it e</w>
i hr
st e</w>
w ur
k ing</w>
e u
th an</w>
t ro
e d
yo u</w>
E in
m p
V or
ch er</w>
o b
ati ons</w>
D i
ge gen</w>
00 0</w>
P ar
ye ar</w>
t y</w>
t re
P o
ak e</w>
er t</w>
M ar
ä h
illi on</w>
m is
af ter</w>
or s</w>
co un
n ur</w>
ic e</w>
ow n</w>
z um</w>
m ehr</w>
on g</w>
G es
r ü
as e</w>
J ahr
op le</w>
i on</w>
f ol
a v
a in
an ce</w>
s c
f f</w>
t ur
et z
at es</w>
b u
i h
k ön
m en
f e</w>
ie l</w>
R o
g u
du c
s on</w>
k en</w>
Pro z
N o
i es</w>
M on
a st
0 0</w>
ac e</w>
- -</w>
hat te</w>
H e</w>
an der
pe ople</w>
ti me</w>
wh en</w>
el y</w>
A us
si dent</w>
in v
ü ber
M e
ge b
i d
M it
ac k
te t</w>
is e</w>
sag te</w>
v ed</w>
as s
un d
an z
h er
f er
re i
j e
iti on</w>
e -
l er</w>
o ver</w>
K on
b es
d r
a g</w>
ver n
B ut</w>
m ark
t el
no w</w>
es e</w>
i g</w>
b ur
be t
s he</w>
h el
ex p
ag en</w>
en ce</w>
schaf t</w>
t on</w>
se in</w>
c ent</w>
ne w</w>
tw o</w>
be it
c es</w>
B un
ge w
o der</w>
ä l
Proz ent</w>
S ie</w>
f en</w>
De utsch
for m
fir st</w>
ou s</w>
k t</w>
au se</w>
ges ch
re e</w>
at en</w>
v es</w>
in to</w>
ic i
li chen</w>
i k
M o
ur o</w>
lo s
at t
k on
l ast</w>
t t
w ay</w>
m u
p ol
oo d</w>
ne h
min ist
se i</w>
us s</w>
y s</w>
p ub
d ar
t u
th ere</w>
pre s
i a</w>
u ro
E uro</w>
a in</w>
M in
or t</w>
s k
b ei
l at
re por
T o
lo w
on en</w>
b el
it z
i l</w>
l ä
ig ht</w>
al e</w>
in s</w>
A mer
en s</w>
ver y</w>
st ar
b is</w>
n ation
am a</w>
u d
C o
er n
ac c
g n
ü ck
f r
L e
P re
C om
der n</w>
In ter
G r
w ie
ri e
E uro
i z
der s</w>
c re
ro u
ah l
O b
p h
o g
in n
li che</w>
c ould</w>
el t</w>
s y
ü s
ye ars</w>
b an
ah r</w>
v en</w>
W e</w>
1 0</w>
e ar
B o
we e
F ran
li ch
ach t</w>
200 8</w>
v ing</w>
hab e</w>
lo o
inc lu
s ur
or d
E s</w>
re g
ter s</w>
ä ch
U S
iti es</w>
d re
go vern
st ri
s ome</w>
com e</w>
f u
z ur</w>
M illi
y ing</w>
r e</w>
l au
d o</w>
Z u
s on
un ter</w>
be c
m illion</w>
ay s</w>
l as
n o</w>
a ff
pub li
mo st</w>
wur de</w>
Au f
th em</w>
v is
st eh
z ei
wh at</w>
w w
ti m
ge t</w>
C on
st er</w>
sch en</w>
f a
Bun des
Un ter
c ur
k ti
i f</w>
Amer ic
or y</w>
fü hr
m y</w>
ier t</w>
a b</w>
un ter
ne t</w>
i li
H o
h ig
d am
an g
E x
u te</w>
U .
m il
a re
ß en</w>
p er</w>
t or</w>
i er</w>
c y</w>
li ke</w>
m al</w>
ti ons</w>
o se</w>
en s
th ing</w>
en n
f ac
j ust</w>
o k
T e
at ing</w>
A f
w ir</w>
F r
di c
z w
er en</w>
en de</w>
F or
al le
po li
le tz
ge st
Ne w</w>
en d
ri ch
is h</w>
g ra
v ic
eb en</w>
etz t</w>
m t</w>
ch n
k e
as ed</w>
w s</w>
S .</w>
dur ch</w>
d on</w>
u n</w>
k ann</w>
u p
Ob ama</w>
an t
F in
v el
ci al</w>
h im</w>
k ed</w>
o ff</w>
for e</w>
per cent</w>
o c
sch on</w>
N ach
ou gh</w>
, 000</w>
S te
in a</w>
k er</w>
wie der</w>
b le
ver s
de c
St a
on ly</w>
u st
M a
ig e</w>
sh o
m ar
kom men</w>
t ak
it ed</w>
em ent</w>
de utsch
h and
ä hr
f re
oll en</w>
K o
ge m
B an
om e
we i</w>
wh ere</w>
in ce</w>
W e
F re
l t</w>
inv est
j o
v en
si ch
po in
ec t</w>
ti ve</w>
g re
l ed</w>
bec ause</w>
h in
em ber</w>
st s</w>
Re g
U. S.</w>
te il
s eine</w>
con t
b re
r y</w>
govern ment</w>
S e
H er
im mer</w>
m at
is ch</w>
200 9</w>
ier ung</w>
sh i
h ol
z i
ti g</w>
M en
er g
f ahr
con om
m s</w>
ur t</w>
ic al</w>
T he
t ung</w>
un der
G er
be g
v ie
pol it
b ack</w>
f all
st at
il y</w>
d own</w>
b le</w>
man y</w>
be fore</w>
an c
S P
e g
a u</w>
st ru
ou s
en g
e ff
I ch</w>
m üs
as h
2 0</w>
d el
n ed</w>
E r</w>
ein es</w>
h ei
wen n</w>
op er
Jahr en</w>
m un
en den</w>
ihr e</w>
wor den</w>
n te</w>
vo m</w>
w al
h ar
de t</w>
wor k</w>
f l
por t
sol l</w>
J ahr</w>
th rou
L i
3 0</w>
le g
t ei
st e
ati ve</w>
st o
w el
z wei</w>
r .</w>
do ch</w>
re l
d ann</w>
it ä
k eit</w>
di g
sa ys</w>
l ine</w>
Un d</w>
neh men</w>
sp iel
N or
w ür
th ree</w>
Q u
es day</w>
Po li
z e</w>
I s
z en</w>
or t
e conom
tr y</w>
o s</w>
ch ar
n ah
ec ted</w>
D a
is h
w er</w>
a th
por t</w>
on n
1 ,
5 0</w>
F ü
g ab
M an
c le
l es</w>
nation al</w>
ne u
D em
ta g</w>
pro duc
se tz
st er
d y</w>
h ä
w n</w>
gi bt</w>
st ag</w>
n ing</w>
g lei
pl ay
st and</w>
ma de</w>
gen en</w>
f un
ain st</w>
sag t</w>
re ch
us ed</w>
o ch</w>
ho w</w>
200 7</w>
at er</w>
res s</w>
W o
B ar
an g</w>
be ing</w>
di s
m ö
em p
sp ec
f er</w>
kön nen</w>
g o</w>
wh ile</w>
a ir
f am
b us
W ir</w>
l er
ol og
su ch</w>
l än
b en
oo k</w>
ic k
-- --
t old</w>
P ol
ge ben</w>
I m</w>
m ak
E in</w>
l ar
ag ainst</w>
p r
1 1</w>
it u
k eine</w>
p rä
si de</w>
M c
le a
off ici
vi el
J o
Ges ch
1 .
et s</w>
ig n</w>
it al</w>
h eit</w>
1 0
d ro
ß e</w>
re ich
comp any</w>
ar beit
k o
- S
in k</w>
throu gh</w>
r at
T his</w>
en n</w>
m ake</w>
s at
U m
ou se</w>
Deutsch land</w>
Au ch</w>
i en</w>
ri st
b ar
qu ar
s einer</w>
ti c
di d
G ro
su p
B il
a z
on al</w>
i an</w>
par t
un k
ti g
c ap
wee k</w>
P e
ou t
J u
wor ld</w>
G en
L and
il ity</w>
Euro p
d a</w>
ier en</w>
e f
t al
ri ght</w>
sa y</w>
O r
S o</w>
kl är
s eit</w>
b l
z ur
p en
go ing</w>
I N
w om
B r
zw ischen</w>
se con
te m
an s
äh ri
and s</w>
d ri
m ay</w>
wi th
th ose</w>
un der</w>
ch an
sp e
te l</w>
si ve</w>
ch il
N ach</w>
S o
C ar
m uss</w>
d ung</w>
c all
U hr</w>
T ra
es en</w>
ch en
inc re
c ar
K in
th en</w>
bei m</w>
p s</w>
G el
An d</w>
ol le
J oh
lo w</w>
M r</w>
The y</w>
h ome</w>
z e
s ince</w>
t -
ev en</w>
S u
m ents</w>
un s</w>
al le</w>
W h
pro f
m ei
ö l
w ell</w>
si gn
b ro
ris e</w>
ig er</w>
Y or
B es
l en</w>
c ent
bus in
war en</w>
x t</w>
ber e
er k
sy st
Z eit
b st</w>
c ed</w>
b ar</w>
ser v
W ir
K ar
s s</w>
z eit</w>
inclu ding</w>
h ö
l in</w>
B rit
t es</w>
w in
Men schen</w>
at ur
di ff
Jahr e</w>
F o
he it
an ge
19 9
st re
1 2</w>
ä u
er i
st ill</w>
fu l</w>
p a
h ör
al en</w>
st ra
sh ould</w>
bur g</w>
mu ch</w>
at s
ac t</w>
per i
se t</w>
st ate</w>
d ings</w>
se e</w>
c c
su b
man n</w>
d -
i gen</w>
hal ten</w>
t ake</w>
ap p
w oh
v ol
f te</w>
Sp iel
re sp
H am
b is
1 5</w>
se c
k ur
s ei
dre i</w>
ta in
di d</w>
bel ie
as on</w>
st im
un den</w>
i vers
we en</w>
l it
K om
f il
pro vi
au p
o ver
cont in
N ation
n ach
P rä
v e
B et
con c
g ed</w>
n un</w>
Ü ber
or d</w>
S en
P er
th s</w>
M r.</w>
c al</w>
dur ing</w>
ar t</w>
ah l</w>
i f
el ec
ä tz
n um
ge ht</w>
am m
O p
re su
w är
t or
st and
g ar</w>
A ut
M ich
shi p</w>
g s</w>
ter n</w>
sch n
el le</w>
M u
c t</w>
am es</w>
stell t</w>
er te</w>
di rec
ü ck</w>
an cial</w>
ar -
de m
oll te</w>
Milli onen</w>
coun try</w>
. .
ig h
us e</w>
ent ly</w>
ad t</w>
F ri
a de</w>
d iti
Fin anz
P h
bet ween</w>
me di
Un ited</w>
US -
al th</w>
Min ist
Ar beit
' re</w>
us s
hä t
au m</w>
al es</w>
us am
er sten</w>
dies e</w>
bere its</w>
g l
sch ei
M it</w>
dam it</w>
Yor k</w>
k ün
ff en</w>
ur n
s ome
th ink</w>
l ess</w>
G o
li g
b or
iti k</w>
gen er
W el
lo b
p le
an ts</w>
in form
st ed</w>
re ad
B ro
ti v
Ch ina</w>
is su
minist er</w>
au en</w>
a il
z ie
2 .
H ar
ti gen</w>
Th ere</w>
ne xt</w>
j etzt</w>
wur den</w>
se hr</w>
W or
ar o
en e</w>
S ep
L u
st än
we gen</w>
op p
f ten</w>
ar ly</w>
publi c</w>
poli ce</w>
a si
su m
T u
0 .
w .
s ha
ber s</w>
th ese</w>
k re
Americ an</w>
c ri
O N
ell en</w>
h ere</w>
M ark
y our</w>
ww w.
ur s
be k
ch te</w>
bu il
m ent
A s
s einen</w>
de f
C he
B u
B us
las sen</w>
f ri
ist an</w>
li k
an no
l am
t schaf
par t</w>
f el
K re
en ti
bes ch
mil it
ap pe
a k</w>
co m</w>
m em
J un
d ru
I ra
mark et</w>
dies er</w>
E l
Ber lin</w>
U S</w>
A d
de vel
ü tz
secon d</w>
di en
ou th</w>
z ahl
ag o</w>
in gen</w>
ö ff
mö g
c tion</w>
s m
i hr</w>
ne ue</w>
ag er</w>
F u
weit er</w>
for m</w>
ich ts</w>
ö ß
am s</w>
S er
n is</w>
y p
wei l</w>
w a</w>
g ood</w>
1 8
in du
A ber</w>
H e
g ut</w>
steh t</w>
En t
2 ,
P ri
ic s</w>
müs sen</w>
v iel</w>
D och</w>
S a
vie w</w>
f t
oo l</w>
En de</w>
f ul
aro und</w>
on s
sch ie
sel bst</w>
ban k</w>
er st</w>
s ame</w>
St ra
fo und</w>
F ra
S h
T hat</w>
ing ton</w>
c an
Fü r</w>
hat ten</w>
er in</w>
dr en</w>
itä t</w>
o m</w>
n or
F l
ow n
te chn
ge t
t om
sei en</w>
th ough</w>
hal b</w>
a -
. com</w>
al y
ti al</w>
hel p</w>
r en
ut z
de st
am er
resp on
St re
r und</w>
gab en</w>
R es
Be i</w>
ber g</w>
c or
st u
b illion</w>
busin ess</w>
b il
J an
ge f
.. .</w>
for mer</w>
k no
ver gan
wer de</w>
ges t</w>
ag es</w>
. de</w>
se ar
ch es</w>
is ion</w>
te am</w>
ge hen</w>
c amp
I f</w>
z eu
at h</w>
we ise</w>
f our</w>
ic k</w>
ap pro
y -
or gan
f all</w>
dies em</w>
1 5
or ding</w>
Pre sident</w>
sch l
re le
ru pp
a ge
No v
c er
s ed</w>
chan ge</w>
t schaft</w>
mon th</w>
k ill
mon ths</w>
li c
er klär
L on
a red</w>
qu i
2 5</w>
en -
c as
er ed</w>
li m
w a
s einem</w>
k now</w>
w ant</w>
Z eit</w>
gro up</w>
se hen</w>
Sch ul
pro ble
l ing</w>
E ine</w>
as si
pl ace</w>
ei l</w>
T r
on -
W est
c r
lo se</w>
Com p
ihr en</w>
bo th</w>
so ci
pre sident</w>
ihr er</w>
Y o
neu en</w>
offici als</w>
t ors</w>
alle m</w>
gr öß
an other</w>
for der
t al</w>
ist en</w>
ie der
g ame</w>
ur s</w>
b lei
oll ar</w>
quar ter</w>
th e
ma chen</w>
U -
i de
3 .
n ten</w>
e p</w>
kom mt</w>
Ch rist
F or</w>
ir e</w>
i ons</w>
S y
4 0</w>
li fe</w>
mis sion</w>
chil dren</w>
Milli ar
devel op
v al
ti ge</w>
syst em</w>
vic es</w>
S he</w>
ye ar-
u res</w>
Ban k</w>
in f
e f</w>
I r
R ück
off en
et wa</w>
A P</w>
n t</w>
ent r
co ur
Un ivers
di es</w>
ander en</w>
eit en</w>
pro te
sel f</w>
gan g</w>
s w
R ich
L ei
ie f</w>
g ing</w>
g es</w>
ne t
i b
an y
viel e</w>
read y</w>
oh ne</w>
sch ein
ur y</w>
th re
call ed</w>
re ma
repor t</w>
tem ber</w>
w is
sch w
st a
d an
w ollen</w>
L in
A s</w>
un de</w>
vergan genen</w>
b all</w>
fin ancial</w>
St u
d ays</w>
m or
ne ed</w>
anno un
L IN
Af gh
at or</w>
s itz
f ur
b ased</w>
M or
steh en</w>
ti es</w>
l ong</w>
ish ed</w>
tur n</w>
1 3</w>
z eh
us si
Sep tember</w>
In di
er r
ih n</w>
ex c
C or
to o</w>
th ir
sh ow
ver b
st ud
cle ar</w>
k en
ä f
in er</w>
de ut
t le</w>
W er
a el</w>
mon ey</w>
ier te</w>
t lich</w>
glei ch</w>
si den
el n</w>
ha pp
ta in</w>
C D
O ff
m us
W ash
1 4</w>
deutsch en</w>
w o</w>
lan g</w>
p ut</w>
s or
f le
war d</w>
w ays</w>
S ie
v est
h op
dur ch
T im
se l</w>
au th
do c
ag t</w>
com mun
n ight</w>
ad d
ne y</w>
inform ation</w>
h än
all er
et ing</w>
or en</w>
Au g
gan z</w>
hig h
B l
ver k
er ung</w>
pri v
pos ition</w>
1 7
c ity</w>
la g</w>
br au
fam ily</w>
Gen er
1 00</w>
qu est
1 8</w>
eb en
A m</w>
ou ght</w>
ma j
fi ve</w>
Tu esday</w>
fü n
S un
1 6
W ie</w>
v el</w>
ih m</w>
G u
l and
sho w</w>
ö s
c la
r ation</w>
ON LIN
con si
se cur
se ason</w>
ist s</w>
on g
le ft</w>
ar ds</w>
W ed
s ollen</w>
g ent
num ber</w>
to p</w>
is cher</w>
A kti
em s</w>
ONLIN E</w>
vi er</w>
si ble</w>
Wash ington</w>
Mon day</w>
lie ß
son dern</w>
Is ra
P l
se ver
Joh n</w>
1 6</w>
O l
s ow
g ri
W enn</w>
Kon z
u al</w>
h ist
ähri ge</w>
v ir
B ay
t ure</w>
con tro
am en</w>
D ar
f ast</w>
' ve</w>
comp an
1 4
om in
Fri day</w>
k te</w>
f est
repor ted</w>
f rü
En g
pro c
n is
it t</w>
G re
year- old</w>
ec u
o s
200 6</w>
Dem oc
cur r
G E
wh e
Di en
o b</w>
d at
he ute</w>
camp a
c ase</w>
Wed n
exp ected</w>
n ung</w>
fall s</w>
w on</w>
ber ich
kön nte</w>
P al
sat z</w>
3 ,
im p
d ra
Th urs
Wedn esday</w>
at ely</w>
go t</w>
in st
al is
ation en</w>
an ti
gro w
Thurs day</w>
M ün
au er</w>
t a</w>
K l
p a</w>
h in</w>
D av
US A</w>
F lu
W elt</w>
au t</w>
st ei
n er
ti l</w>
Ge or
I E
- J
sp ä
U r
te te</w>
et was</w>
Mich ael</w>
Ne u
as ch
F ir
s ite</w>
pl an
rec ei
w in</w>
hig h</w>
d ür
ver y
i o</w>
am t</w>
I m
fahr en</w>
Fran k
emp lo
Reg ierung</w>
ch s</w>
t t</w>
1 7</w>
ati c</w>
h äl
Lon don</w>
age ment</w>
f li
th ers</w>
sup port</w>
W ar
- year-old</w>
H ei
il s</w>
P lat
m ach
20 10</w>
Co un
Unter nehmen</w>
al -
stell en</w>
diff er
An gel
tim es</w>
ag en
w rit
k n
he alth</w>
lo t</w>
b est</w>
ad ded</w>
St ates</w>
to day</w>
de l</w>
w ich
pl ay</w>
ber t</w>
z o
in ing</w>
ch ten</w>
z weit
sp ok
di sc
W i
olog y</w>
c l
ne e
on es</w>
gh ts</w>
spok es
F am
i al</w>
f iel
fol low
ul ar</w>
- K
su cc
ck en</w>
usam men
sp ar
C ol
em ents</w>
' m</w>
T re
b all
ec ts</w>
j a</w>
k ein</w>
es si
Mc C
A pri
pos iti
er st
gen d
t ru
ge l</w>
gr am
B ei
ro ss</w>
is p
en ing</w>
Al s</w>
ein mal</w>
Sch l
Apri l</w>
om men</w>
b eit</w>
c are</w>
ü h
woh l</w>
in ed</w>
in nen</w>
c ame</w>
comp le
L o
b ri
D ru
H and
f äl
Yo u</w>
fe w</w>
i ous</w>
h ier</w>
B ür
In vest
m ight</w>
Sta ats
ag re
et t
ne ver</w>
ander e</w>
D ur
a way</w>
S ec
ad ing</w>
en z
M i
Milliar den</w>
a w
ru n</w>
le y</w>
den ce</w>
la w
t ook</w>
h tt
hal f</w>
al t</w>
resu l
we ver</w>
ab ility</w>
in de
V ol
lo s</w>
S onn
htt p</w>
p ast</w>
C lin
st an
m i
S ich
S am
b al
en ed</w>
L and</w>
n s</w>
econom ic</w>
g ab</w>
compan ies</w>
g lob
i p
m id
th er
b ra
acc ording</w>
Poli ze
c ust
Re publi
F ahr
ear ly</w>
v al</w>
pl an</w>
ann t</w>
S ol
t ar
to ber</w>
b oo
milit ary</w>
M il
al ity</w>
a di
J e
M ann</w>
den en</w>
l l</w>
A m
thir d</w>
der al</w>
Au f</w>
me hr
s es</w>
with out</w>
ut es</w>
k a</w>
poin t</w>
Nov ember</w>
D es
ähr end</w>
h om
zur ück
lat er</w>
ac ks</w>
er ing</w>
ch ed</w>
ep t</w>
le ast</w>
o un
F il
e ach</w>
re ally</w>
t ly</w>
letz t</w>
in j
H ouse</w>
tr ä
G eb
o -
p op
k ers</w>
lä s
all es</w>
Afgh an
d pa</w>
i k</w>
2 5
f ut
P ak
erg y</w>
str y</w>
Bus h</w>
ß er
ro p
whe ther</w>
B ra
invest ig
b ig</w>
Wel t
z eit
Fu ß
L än
i on
co ver
sch e</w>
D ollar</w>
contin u
in s
co urt</w>
w at
da bei</w>
D is
di t</w>
19 8
en en</w>
J ap
fi ed</w>
n äch
Sun day</w>
A n</w>
at s</w>
poin ts</w>
de al</w>
ou l
ier ten</w>
n ichts</w>
Jan u
lik ely</w>
fo re
off ic
sp re
gi on</w>
so ur
Ne w
ch ang
bet ter</w>
m ir</w>
1 3
h um
lit tle</w>
r ate</w>
bei den</w>
se e
al ready</w>
O n</w>
si x</w>
loo king</w>
Americ a</w>
D -
p ay
um ent</w>
t z</w>
m ich</w>
y mp
S outh</w>
an ischen</w>
F eb
g ar
b lo
6 0</w>
z un
star t</w>
s ure</w>
en ding</w>
secur ity</w>
ah n
pp ed</w>
1 .</w>
tra g</w>
sch ool</w>
4 .
st ie
e very</w>
s ales</w>
W hen</w>
A t</w>
Che f</w>
m a</w>
as sen</w>
K r
wär e</w>
ous ly</w>
je doch</w>
b ab
ß t</w>
hät ten</w>
H aup
O n
p ur
e ver</w>
Fam ili
wom en</w>
sp o
SP IE
auf en</w>
op s</w>
öff ent
un til</w>
SPIE GE
Ber lin
Nach rich
po wer</w>
M is
ing er</w>
loo k</w>
ag ue</w>
campa ign</w>
polit ical</w>
st ä
l age</w>
ci p
e very
k un
sh are</w>
n ess</w>
st -
c olle
t ag
am ong</w>
J ah
com ing</w>
ti c</w>
1 2
d au
ar ing</w>
aller dings</w>
ex ecu
Polize i</w>
k tion</w>
s us
Gro ß
a h</w>
econom y</w>
is en</w>
H ol
re sear
ad v
k s
w an
it ing</w>
Ste u
wür de</w>
in ten
h ouse</w>
g ung</w>
da für</w>
p ris
f ar</w>
mem bers</w>
ver sch
f oo
Brit ish</w>
ti on
Pro ble
lu b</w>
SPIEGE L</w>
P au
ck t</w>
b i
be h
part ment</w>
aus ge
z ed</w>
M at
li er</w>
fer ence</w>
g te</w>
lich keit</w>
h ard</w>
H il
tr ans
fün f</w>
D am
ge hör
W ahl
c ul
ü l
inv ol
te i</w>
el s</w>
gem ein
S atur
heit s
Clin ton</w>
he ad</w>
Me di
li cher</w>
m ed</w>
ac tion</w>
F e
Fra u</w>
wom an</w>
ne ws</w>
on der
im pro
sever al</w>
rec ent</w>
Aug ust</w>
B el
ag ed</w>
es sion</w>
V on</w>
mak ing</w>
An gaben</w>
con tr
al ten</w>
er war
er -
B C</w>
b ed</w>
ch ief</w>
on t</w>
W as</w>
im port
los s</w>
la w</w>
Gel d</w>
gra m</w>
le ad</w>
weit er
D ec
b in</w>
c ro
is m</w>
re m</w>
bo dy</w>
Ira q</w>
z äh
par ty</w>
sow ie</w>
be l</w>
Th om
or ity</w>
on y</w>
R ussi
e ch
is ed</w>
n ei
Prä sident</w>
P r
Sich er
Nation al</w>
c rit
Af ri
gen ommen</w>
m acht</w>
h it</w>
indu stry</w>
eh t</w>
en ds</w>
oll ten</w>
le it
ä mp
ser vices</w>
wor king</w>
ah n</w>
1 -
SP D</w>
Dav id</w>
serv ice</w>
Afghan istan</w>
B au
m el
1 9</w>
Nor th</w>
mit tel
j ect</w>
f eh
com mit
w ent</w>
T or
en k
ö h
r un
l ung</w>
y n
2 4</w>
O ne</w>
D an
i or</w>
lo cal</w>
g ress</w>
p un
Satur day</w>
stat ement</w>
O c
Ol ymp
W al
0 -
W ol
b an</w>
in n</w>
2 1</w>
sch ließ
L eben</w>
mit t
gr ün
Eng land</w>
letz ten</w>
il ed</w>
inn ing</w>
do es</w>
er ten</w>
kill ed</w>
kom men
S el
so gar</w>
ant wor
s ollte</w>
ac y</w>
Ch ar
inter national</w>
zeh n</w>
if ic
tei l</w>
hel d</w>
it ag</w>
tschaf ts
pl ac
f -
tri es</w>
4 ,
g a
zur ück</w>
des sen</w>
R ei
al low
at ors</w>
f ig
M ann
fol ge</w>
or ts</w>
As soci
fut ure</w>
se en</w>
F D
cust om
gro ßen</w>
Univers ity</w>
p ay</w>
di g</w>
vi ol
pri ces</w>
announ ced</w>
an aly
B re
deutsch e</w>
5 00</w>
b and</w>
Jun e</w>
s ing</w>
Sch w
d ort</w>
f ach</w>
s co
C ity</w>
p ed</w>
t in</w>
gi ve</w>
M an</w>
st adt</w>
s ch</w>
s -
setz en</w>
maj or</w>
ich te</w>
f ace</w>
ing t</w>
si eht</w>
stim m
wir k
cla im
ic kl
mo ve</w>
L eb
D onn
us ing</w>
C ali
W ei
T el
some thing</w>
li ck</w>
resul ts</w>
pl at
um s</w>
mu si
peri o
k t
S k
did n</w>
are a</w>
l agen</w>
d ge</w>
sp ra
be come</w>
zi al
Wor ld</w>
ent er</w>
ag ain</w>
r ul
r a</w>
Ir an</w>
ru p
sp r
en z</w>
T ex
ih rem</w>
ol le</w>
fall en</w>
Comp any</w>
ge stellt</w>
ge gen
In st
Haup t
a i
Zeit ung</w>
äch st</w>
o l</w>
gew esen</w>
2 2</w>
R u
an der</w>
per son
is ch
ra ft</w>
ar re
b s</w>
führ t</w>
S co
K ur
ac ross</w>
H al
McC ain</w>
b st
glob al</w>
ad minist
en se</w>
tak en</w>
3 1</w>
ver su
ne w
W ith</w>
L ie
a ir</w>
lan ge</w>
ter n
St adt</w>
Kin der</w>
ver l
Un ion</w>
z war</w>
c ar</w>
R i
Plat z</w>
u tion</w>
ac tiv
m ust</w>
F all</w>
en der</w>
fin al</w>
Reg ier
Wo che</w>
ke hr
k am</w>
sa m</w>
ck s</w>
sa ying</w>
er ste</w>
W in
f ind</w>
gre at</w>
pres ent
T V</w>
p as
k ey</w>
An ge
p ic
lie gt</w>
T ri
a den</w>
Bil d
av ail
Flu g
Inter net</w>
ta x</w>
nah men</w>
A S
sag en</w>
S pe
d ou
W oh
D enn</w>
str at
U R
ha m</w>
20 11</w>
Mar ch</w>
ß en
rupp e</w>
tur ned</w>
c all</w>
da von</w>
b ie
te e</w>
Feb ru
S om
S ü
ver sion</w>
de ath</w>
c el
di vi
W il
ut ed</w>
y er</w>
pl ans</w>
an a</w>
c los
ex peri
gro ße</w>
o il</w>
in come</w>
gem acht</w>
st är
si d
B y</w>
Mu si
direc tor</w>
da zu</w>
he ad
for man
pos ed</w>
Mit tw
D a</w>
weit ere</w>
E d
6 .
th ings</w>
b ig
p ati
n ie</w>
itu ation</w>
i ed</w>
sch ul
der ung</w>
Ch in
spokes man</w>
se x
nah me</w>
c o</w>
t est</w>
p ut
F ern
kno wn</w>
H el
w ater</w>
ex per
pro gram</w>
off ice</w>
B eh
reg ul
st or
th ern</w>
u ten</w>
F ol
su g
inter est</w>
kon nte</w>
5 .
G ol
wel t
Euro pe
lo st</w>
d or
amp f</w>
jo b</w>
en ough</w>
di sp
G em
pos sible</w>
---- ----
b ack
c a</w>
re co
wür den</w>
Al l</w>
del i
T ro
b in
f an
fin den</w>
M erk
as ked</w>
te st
con su
incre ase</w>
zei ch
H a
re al</w>
P unk
G ar
st ütz
import ant</w>
CD U</w>
Gr ün
rec ord</w>
curr ent</w>
all er</w>
n ie
B ec
sm all</w>
teil te</w>
V or</w>
belie ve</w>
M ag
Sp itz
tak ing</w>
l ate</w>
coun tries</w>
ke ep</w>
v ice</w>
fiel d</w>
th em
dic al</w>
gab e</w>
wee ks</w>
fo ur
ch ter</w>
le t
G ra
W est</w>
eh en</w>
Tra iner</w>
den n</w>
ell ing</w>
il t</w>
7 .
di ed</w>
re -
ter m</w>
com es</w>
f ree</w>
p f
a ver
zei gt</w>
T ag</w>
ess es</w>
deut lich</w>
as h</w>
Wo chen</w>
ob s</w>
ne c
wen iger</w>
lä u
offici al</w>
co st</w>
P or
ap er</w>
M är
Arbeit s
elec tion</w>
r at</w>
Deutsch en</w>
f ang</w>
us h
ä d
le ading</w>
ri ch</w>
c ol
m us</w>
S tim
c are
gi ven</w>
er sch
ier e</w>
M ay</w>
or ities</w>
dec ision</w>
200 5</w>
iel t</w>
ti gt</w>
Af ter</w>
lea der</w>
ein z
ro w</w>
in sur
sup por
for n
Minist er</w>
s ci
leg al</w>
F C</w>
wi de</w>
der zeit</w>
po ten
los sen</w>
ess er</w>
as se
at ten
avail able</w>
Europe an</w>
Ent schei
o w</w>
H is</w>
M us
c lose</w>
Tim es</w>
dies es</w>
W er</w>
Isra el</w>
Wir tschafts
19 7
9 .
W hat</w>
s ing
Pro f
z er</w>
2 3</w>
cap ital</w>
fam ili
is on</w>
hät te</w>
fü h
c ut</w>
D u
Fre itag</w>
ch t
Fr age</w>
2 -
al ways</w>
stru c
g s
A N
tr an
am ed</w>
En tw
diti onal</w>
ri cht</w>
du e</w>
t ali
k an
de mo
3 0
kon z
h u
ac coun
B i
ha ving</w>
H in
8 0</w>
ol s</w>
n at
fur ther</w>
ge geben</w>
ck e</w>
yo ung</w>
issu e</w>
T o</w>
me as
en ded</w>
K ap
ei genen</w>
Fü hr
8 .
ben ef
Sp iel</w>
li ve</w>
str ong</w>
ges etzt</w>
l ungen</w>
priv ate</w>
G l
t ory</w>
Au str
tr ying</w>
läs st</w>
Berlin er</w>
spä ter</w>
pri ce</w>
der t</w>
E U-
a i</w>
c ris
k eiten</w>
Pol itik</w>
v ar
g st</w>
fo c
w eit</w>
ris k</w>
Di ese</w>
sch ri
c ou
A t
si g
hei ßt</w>
wer s</w>
s it
ho sp
fe deral</w>
Mon tag</w>
St ate</w>
en nen</w>
ru ch</w>
tr itt</w>
si ons</w>
es sen</w>
un ds</w>
Bes ch
te mp
w ollte</w>
differ ent</w>
ei gen
bo t</w>
inclu de</w>
ch o
ch ing</w>
In form
de b
di gt</w>
W illi
häl t</w>
b y
u es</w>
ger ade</w>
ig n
Pe ter</w>
t ä
b om
P at
A R
tr ag
ear lier</w>
me eting</w>
N ieder
dar auf</w>
G i
un s
si cht</w>
P ub
T it
for t
grow th</w>
la un
M al</w>
d i</w>
wen ig</w>
w ach
S pre
T ran
p ass
m ut
20 0</w>
f ar
ne arly</w>
2 7</w>
O ber
s li
k ten</w>
H ö
t yp
p le</w>
ne ar</w>
per forman
m ember</w>
Land es
pre vi
Gr und
g res
g lie
on ders</w>
pro mis
vir on
re t
sich er
su ff
l ished</w>
execu tive</w>
tro l
B ri
ch all
3 -
I tali
af f</w>
w ing</w>
m als</w>
eu te</w>
Austr ali
sch le
Sonn tag</w>
Ex per
reich en</w>
P res
in t</w>
der ed</w>
d ly</w>
Mittw och</w>
d own
o thers</w>
Inter national</w>
S ach
with in</w>
gen d</w>
G oo
li ed</w>
K ran
ges amt</w>
Fr auen</w>
O N</w>
up s</w>
en ergy</w>
B en
sch rei
Ju ly</w>
M än
perio d</w>
C an
il le</w>
ar t
cre dit</w>
äf ts
comp et
New s
Thom as</w>
g ames</w>
produc ts</w>
E le
vis ion</w>
co sts</w>
kun ft</w>
op en</w>
j ud
an z</w>
in e
f lo
l ands</w>
mark ets</w>
kl ar</w>
ol e</w>
iti ker</w>
ent schei
6 ,
ci es</w>
on ds</w>
pl ain
' ll</w>
Stre et</w>
p ite</w>
stell ung</w>
bur ger</w>
contin ue</w>
ul t</w>
on ce</w>
De partment</w>
br ingen</w>
lau t</w>
ol o
dies en</w>
g lich</w>
beg an</w>
m ag
m .</w>
E U</w>
4 5</w>
Merk el</w>
g ern</w>
ci l</w>
wh ose</w>
Donn er
re turn</w>
amer ik
2 8</w>
Nachrich ten</w>
all en</w>
f ood</w>
5 ,
P ap
et z</w>
R om
m ul
n ation</w>
den ti
de ci
be w
n u
in es</w>
st on</w>
C ap
beh ind</w>
D ie
Steu er
Ges prä
medi a</w>
le ben</w>
est im
sch o
f igh
gel e
Donner stag</w>
d n</w>
fin anz
Bro wn</w>
v öl
Mit arbeit
är e</w>
ho urs</w>
Dien stag</w>
Jap an</w>
We g</w>
is ing</w>
mo b
provi de</w>
se h
ab il
th ought</w>
ih nen</w>
0 ,
o ften</w>
Deutsch e</w>
j ust
re ven
A T
fir e</w>
z wei
tri b
Te chn
g ers</w>
t own</w>
7 ,
y ers</w>
U K</w>
T ur
gen cy</w>
com m
7 0</w>
ell er</w>
k aum</w>
tre ten</w>
lea ders</w>
Ho ch
conc ern
ap p</w>
in iti
vis it</w>
Er fol
Pro du
Ko re
lin es</w>
k einen</w>
Th em
-J ährige</w>
ge ther</w>
ye t</w>
as es</w>
f tig</w>
pl ant</w>
m b
se chs</w>
le t</w>
Al l
K il
b rit
e vi
m om
on d</w>
ri ed</w>
An dre
fil m</w>
Fuß ball
d one</w>
id a</w>
al ong</w>
sho t</w>
Er geb
ra cht</w>
S ome</w>
O k
A c
de te</w>
dar f</w>
K ir
stie g</w>
stud y</w>
f ran
al most</w>
Pak istan</w>
est er</w>
contro l</w>
2 6</w>
St and
K an
v oll
Me hr
W is
H u
Wh ite</w>
Bay ern</w>
Mit tel
e e</w>
u le</w>
ein fach</w>
e qu
kön nten</w>
A le
ur ch</w>
z t</w>
cas h</w>
off er</w>
or der</w>
d on
su pp
N at
3 5</w>
A si
ti ert</w>
le vel</w>
organ iz
et ro
vi de
do ing</w>
ann te</w>
ver s</w>
nis se</w>
am ent</w>
lo c
ser ies</w>
g lau
f urt</w>
des t</w>
att ack</w>
k rise</w>
cris is</w>
w ährend</w>
t lichen</w>
ro om</w>
Inst it
w it
fü r
aff en</w>
be wer
man agement</w>
Par tei
can did
sign ific
A ir
ful l</w>
u ally</w>
Cali forn
Brit ain</w>
Poli ce</w>
play ers</w>
en er</w>
erklär te</w>
6 -
M er
follow ing</w>
an ische</w>
get ting</w>
fel d</w>
en ten</w>
K at
f al
ati ves</w>
par tic
C op
bis her</w>
l s</w>
te ten</w>
200 4</w>
le ar
pro du
d it
Da bei</w>
h or
Nation al
Z usammen
on line</w>
pro per
y ed</w>
t ow
K op
r ates</w>
sch lag</w>
wh y</w>
diff ic
S al
t ou
S eit
ei cht</w>
Par tei</w>
h aus</w>
qu e</w>
li ght</w>
zu folge</w>
li g</w>
. m.</w>
est er
proble m</w>
techn ology</w>
u red</w>
develop ment</w>
M ad
poli cy</w>
mat eri
ein ig
gram m</w>
lar ge</w>
mei ster</w>
gener al</w>
administ ration</w>
di re
n ame</w>
e as
zun ächst</w>
c anc
iel e</w>
A tom
g ilt</w>
bo ard</w>
to gether</w>
s ent
di sa
dat a</w>
des cri
Europ e</w>
blei bt</w>
ban ks</w>
f rei
kön ne</w>
Bar ack</w>
Ham burg</w>
buil ding</w>
ill s</w>
M r
al th
J ust
t m
v ent
P R
c at
t it
Mün chen</w>
g ir
fr age</w>
for ce</w>
O R
resear ch</w>
g le</w>
ran t</w>
C hr
j ahr</w>
Ko al
we ch
di stri
pl ann
proble ms</w>
lie gen</w>
Entw ickl
c lo
lar gest</w>
D re
k rit
sch lä
sto ck</w>
gro und</w>
ak ing</w>
le b
Di es
comp ared</w>
schaf ten</w>
Gesch äfts
ent w
B I
zweit en</w>
0 s</w>
gro ß
C S
ell s</w>
vo te</w>
ess or</w>
M ut
u f
mus ste</w>
pres s</w>
Europ a</w>
Be isp
ähri gen</w>
p h</w>
In c</w>
ad s</w>
b asi
m ig
2 9</w>
u ters</w>
out side</w>
si b
G eh
ta x
st ar</w>
sk i</w>
N o</w>
B or
l on
ter r
ein ge
T eil</w>
blei ben</w>
s ent</w>
ne te</w>
p at
Par t
ac tu
Californ ia</w>
re st
usam men</w>
port un
C ha
sug gest
ch e
f ell</w>
D en</w>
mo v
b au</w>
forder t</w>
s .</w>
se ven</w>
sp iel</w>
per son</w>
ür lich</w>
sus p
de ta
siden tial</w>
Gener al</w>
t liche</w>
8 ,
rele ase</w>
rele ased</w>
zu g</w>
aver age</w>
Ne ws</w>
kti on
Te am</w>
näch sten</w>
h and</w>
ung sp
rit ten</w>
er fol
star ted</w>
9 0</w>
ran ge</w>
tu n</w>
ing ly</w>
St o
organ is
to tal</w>
b ul
B ur
performan ce</w>
h ung</w>
L os</w>
ic ally</w>
L ast</w>
commun ity</w>
tr agen</w>
M ex
proc ess</w>
a il</w>
man ager</w>
cour se</w>
t ungen</w>
zie hen</w>
Le ague</w>
c li
L a
Ho wever</w>
mög lich</w>
Leb ens
oper ations</w>
en te</w>
ri ghts</w>
ag ing</w>
on nen</w>
x im
Gro up</w>
hig her</w>
Dam it</w>
wor kers</w>
Fl or
k ind</w>
N E
es n</w>
D ok
re li
se qu
T er
J er
D el
ah e
g as</w>
for ces</w>
Ge gen
H au
L ab
Democ r
custom ers</w>
min utes</w>
reg ierung</w>
con ference</w>
eu rop
en ces</w>
4 -
b ir
fe el</w>
v eh
pr ac
re qui
St ad
d ah
spiel en</w>
b esser</w>
geb racht</w>
inter nation
mo ther</w>
pun kt</w>
d ition</w>
lie ßen</w>
En erg
ie ty</w>
hist ory</w>
c ut
s ou
wan ted</w>
fi c</w>
C enter</w>
in dic
glei ch
th ous
fir m</w>
fore ign</w>
Ar beit</w>
ful ly</w>
K un
re st</w>
un ser
An fang</w>
h im
Dec ember</w>
U P
Sp an
oul dn</w>
Ro bert</w>
op portun
fr ont</w>
ad a</w>
ei ght</w>
M as
a de
ic ro
ma in
re gion</w>
9 ,
führ er</w>
Gem ein
i denti
b ook</w>
we st
char ges</w>
ul ation</w>
im mt</w>
ck er</w>
f tw
ell schaft</w>
ra di
ro le</w>
t an
s qu
stat ements</w>
sp ort</w>
Wol f
en viron
H an
al te</w>
ti onal</w>
s l
m ort
k -
da gegen</w>
kn app</w>
tre at
invest ment</w>
n en
do esn</w>
en sive</w>
zahl en</w>
B ör
resu lt</w>
es se</w>
Sec ur
wor ks</w>
recei ved</w>
St ein
t on
f est</w>
Be g
c aus
spec i
Wir tschaft</w>
in ci
K ul
le gen</w>
sch er</w>
rat s</w>
arbeit en</w>
S eit</w>
d aten</w>
wi fe</w>
ci vi
sch t</w>
h ous
p an
si mp
s ollten</w>
di gen</w>
rec ently</w>
play ed</w>
europ ä
Mar tin</w>
stud ents</w>
p ack
F est
ga ve</w>
Frank furt</w>
hr en</w>
indu stri
zo gen</w>
S an</w>
be kommen</w>
i ds</w>
D en
w ahr
auf ge
stand ing</w>
g än
am oun
ahe ad</w>
h aup
low er</w>
Geor ge</w>
h y
K en
ex tre
Te il
Ab out</w>
Pau l</w>
e duc
schn ell</w>
- B
issu es</w>
ßer dem</w>
ab end</w>
repor ts</w>
le vel
z usammen</w>
ut z</w>
l ong
J ack
führ en</w>
ell eicht</w>
urn al
A k
Pri v
anz ler
tro ops</w>
b as
re duc
Bundes lig
d ate</w>
D r.</w>
hist or
w ood</w>
Z ahl
In du
Bür ger
Beisp iel</w>
o t</w>
19 6
f ra
d le</w>
war ds</w>
Ge f
Angel es</w>
Wh ile</w>
de ter
st aff</w>
m ing</w>
M ö
pa id</w>
on al
bek annt</w>
Au ßen
gro ups</w>
P ress</w>
Sp r
sen ior</w>
der en</w>
Ch amp
sha res</w>
g an</w>
Ok tober</w>
Or gan
ch i
ar ti
j ährige</w>
D ass</w>
sch ef</w>
v an
Minist er
di st
ro und</w>
wei ß</w>
mar k</w>
wal t</w>
ach ed</w>
A pp
auth orities</w>
ge ts</w>
Mon aten</w>
j un
T ag
ar ri
li es</w>
at temp
Ban ken</w>
ei gent
müs se</w>
en a</w>
for ward</w>
t in
as n</w>
sch wer
Democr atic</w>
B est
gr und</w>
experi ence</w>
Americ ans</w>
Th ese</w>
L it
2 7
k ra
S m
stell er</w>
ro ad</w>
D o
c al
st eu
eh em
Dru ck
terr or
ün st
fa ther</w>
T age</w>
c au
Republi can</w>
fac t</w>
wer k
st ates</w>
F ar
Sam stag</w>
sp rech
b ad</w>
ein ige</w>
o ft</w>
k ämp
st en
h i
sa w</w>
L eit
E ig
H or
h on
Ver k
S an
' d</w>
y le</w>
f et
- T
Mit glie
p ho
c oll
Min uten</w>
F el
r ace</w>
z en
veh ic
p rü
val ue</w>
ü t
j obs</w>
an er</w>
Co urt</w>
him self</w>
Fr en
V ir
S ha
on a</w>
N ur</w>
ev ision</w>
sel ves</w>
y right</w>
p ul
f lu
e y
v ely</w>
agen cy</w>
ge kommen</w>
nee ded</w>
si cher</w>
sat z
Entschei dung</w>
strat eg
ber eit
um b
divi du
it en</w>
in dividu
chil d</w>
re cht</w>
Fran ce</w>
des halb</w>
se cre
w o
iti g</w>
gef ähr
for d</w>
ation s
nee ds</w>
R is
Go vern
ch amp
im medi
sp richt</w>
ach er</w>
bec ame</w>
y si
ab o
ord in
de mon
. 000</w>
enn t</w>
st al
ste ad</w>
sp ending</w>
P an
mo ved</w>
vic tory</w>
B rü
ment al</w>
ph one</w>
spiel er</w>
D ann</w>
hand elt</w>
tr au
en zen</w>
v an</w>
zu vor</w>
star k</w>
par ents</w>
k rä
pro gr
erklär t</w>
c ing</w>
ut t
con fi
run ning</w>
Qu ar
incre ased</w>
z um
Con gress</w>
viel en</w>
V i
S V</w>
0 ,000</w>
hin ter</w>
ass er</w>
We b</w>
Chin ese</w>
sto p</w>
big gest</w>
K rise</w>
h ie
diti ons</w>
stat t</w>
me t</w>
are as</w>
hop e</w>
f ei
evi dence</w>
pati ents</w>
n ings</w>
200 3</w>
Is lam
ra ther</w>
UP I</w>
Janu ary</w>
en e
ä m
mor ning</w>
st age</w>
e qui
att acks</w>
st ory</w>
G rü
l ö
c ru
st ein</w>
us es</w>
st ing</w>
zu letzt</w>
Sch wei
produc tion</w>
asse ts</w>
M al
oll ars</w>
an i</w>
s n
oper ation</w>
kommen den</w>
ro te</w>
gh ter</w>
inter est
Mär z</w>
pr o</w>
b it</w>
invol ved</w>
wee k
m al
ges agt</w>
minist eri
ch air
schaf ts
B al
emplo ye
nu clear</w>
setz t</w>
lan g
Oc tober</w>
mil es</w>
we g</w>
D eb
pe l</w>
es p
C N
bes onders</w>
c lub</w>
F ac
Russi a</w>
w r
eben falls</w>
exp lo
Cop yright</w>
siden ten</w>
si s</w>
fin det</w>
Joh n
ch ec
J ames</w>
hr e</w>
m ein
r al</w>
Bes u
H af
Zu kunft</w>
sch wer</w>
S ti
erwar tet</w>
cer tain
b it
ab ge
d lich</w>
c lim
st ers</w>
Au s</w>
f as
p ra
er hö
Pre m
gehör t</w>
N ord
teil t</w>
musi c</w>
des ig
Z u</w>
re icht</w>
mak es</w>
for t</w>
Mitarbeit er</w>
ic o</w>
mark t</w>
h au
Gesch ichte</w>
thous ands</w>
Ju gend
ro l
J etzt</w>
cas es</w>
Gesch ä
poten tial</w>
Minister prä
ander em</w>
eh er</w>
tal ks</w>
rel ated</w>
an -
ff t</w>
g in
c e
cover ed</w>
dam als</w>
chang es</w>
No w</w>
go al</w>
Ar t</w>
Staats an
bu d
foo t
F eu
je der</w>
s il
Z entr
invest ors</w>
Famili e</w>
par ti
si mil
bis lang</w>
ann ten</w>
p ing</w>
rit t</w>
f ass
diffic ult</w>
fi z
oper ating</w>
T agen</w>
m et
man u
n omin
3 2</w>
gu te</w>
An aly
M ei
ge worden</w>
T ali
R uss
it z</w>
ev ent</w>
E L
lie ß</w>
ho wever</w>
FD P</w>
ä ß
ur en</w>
s eines</w>
schließ lich</w>
ck ed</w>
nei gh
hum an</w>
dem and</w>
mort g
pl om
Par lam
t able</w>
e k
R el
gan gen</w>
T i
u li
b ill</w>
am p</w>
u ter</w>
sc re
ak tu
v a</w>
st ung</w>
Sy st
Sta aten</w>
sol di
pre sidential</w>
Coun ty</w>
four th</w>
ne l</w>
ch ance</w>
3 00</w>
z usammen
2 8
as ser
ges ehen</w>
PR News
A cc
sum mer</w>
mei sten</w>
fun den</w>
as k</w>
Ber n
mo der
L au
be d
e k</w>
ei ther</w>
j ün
sp ace</w>
Fren ch</w>
to gra
ü ch
d ollars</w>
Z iel</w>
5 -
lat est</w>
Druck version</w>
n on-
me et</w>
Indi a</w>
en th
ester day</w>
O h
S port
ri min
b un
Re uters</w>
or ig
oc c
be stä
li c</w>
vide o</w>
z us
Pro je
ür z
br ing</w>
gegen über</w>
S par
z y</w>
200 0</w>
h old</w>
sel l</w>
ma in</w>
ch ef</w>
Sen ate</w>
gen au</w>
sp ort
re du
Jah res</w>
ges p
ff e</w>
U l
d ungen</w>
bl ack</w>
se a</w>
s ätz
su ch
tri al</w>
ie t</w>
So zial
wis sen</w>
S im
2 4
Ma i</w>
L an
F i
rü ck
j u
H aus</w>
eff orts</w>
20 12</w>
show ed</w>
es sen
Seit e</w>
Mann schaft</w>
A h
K rie
sch ätz
sp ent</w>
as se</w>
rou ght</w>
te gr
Sch n
St unden</w>
3 3</w>
n ers</w>
th o
ander s</w>
Them a</w>
b att
me dical</w>
r ing</w>
F T
än de</w>
e .de</w>
Beh ör
Erfol g</w>
agre ement</w>
se tt
new sp
dest ens</w>
care er</w>
Janu ar</w>
ke ep
su per
Kran ken
O per
t .</w>
so li
fr ag
re f
gele gt</w>
N et
Kin der
s al
m ur
tra de</w>
any thing</w>
Tex as</w>
no thing</w>
D er
me ans</w>
h under
high -
200 1</w>
sh ort
schl uss</w>
ar beit</w>
E ast</w>
B lo
s ituation</w>
h il
k ul
sour ces</w>
Par is</w>
l -
Ira q
por ts</w>
lich es</w>
oo ds</w>
grow ing</w>
go ti
z er
wor ked</w>
hosp ital</w>
ins gesamt</w>
dru g</w>
l ist</w>
k r
tel evision</w>
t ungs
z iel
F rei
ir c
wer k</w>
cel eb
St .</w>
ro se</w>
kur z</w>
tain ed</w>
V o
F eh
K a
D at
hie ß</w>
Spre cher</w>
St r
Amer ik
Z ahl</w>
pro sec
m illi
pres sure</w>
de u
si eben</w>
bab ly</w>
Män ner</w>
eff ec
W ett
he av
play ing</w>
Christ ian</w>
S il
show s</w>
y m
z entr
bu y</w>
fri end</w>
B BC</w>
ome ter</w>
tw o-
al ität</w>
quest ion</w>
A p
ac qu
g yp
we b
C up</w>
hom es</w>
Spiel er</w>
M id
ill ing</w>
spre chen</w>
de fin
ger ech
Vor sitz
ein ander</w>
äch lich</w>
H oll
Sü d
si e
on e-
acc ess</w>
des pite</w>
k el</w>
Su per
ec i
F rü
to -
B as
continu ed</w>
Me ter</w>
E ar
j e</w>
SP D-
In de
tr ac
Associ ation</w>
äu ß
ab sol
li ves</w>
c ast</w>
K e
schein t</w>
C E
ch ers</w>
a p</w>
y s
In nen
cer tain</w>
signific ant</w>
fri ends</w>
i -
Unter neh
M ur
l a</w>
Mar k</w>
str on
st ec
S or
si on
Dur ch
di um</w>
pen dent</w>
lin ed</w>
st et</w>
Geor gi
ag ent
R au
Sch war
wirk lich</w>
gesch lossen</w>
stru g
lo ve</w>
er ne
Gr und</w>
Al ler
se t
inclu ded</w>
long -
r ac
comm on</w>
ftw are</w>
re qu
zu dem</w>
g rei
amp le</w>
wie der
i x</w>
hal t</w>
con ditions</w>
Er mitt
E m
prof it</w>
p e</w>
offen bar</w>
Ch ic
investig ation</w>
ge h
av ing</w>
au tom
dar über</w>
Z um</w>
p lo
T err
rema in</w>
con st
sh oo
fe at
tr on
H off
Sel bst
bre ak</w>
Punk te</w>
rie f</w>
ser ious</w>
to s</w>
Democ rats</w>
pro j
mat ch</w>
ser ve</w>
lei ch
1 00
re ich</w>
al low</w>
B -
person al</w>
W ach
2 6
an im
mehr ere</w>
M y</w>
S ar
g ol
d s
ne g
B ran
wir tschaf
G rie
pro bably</w>
n ine</w>
c ause</w>
Fin ancial</w>
so ft</w>
wor th</w>
reco gn
2 .</w>
w le
Tali ban</w>
U m</w>
sing le</w>
l en
Mö g
eigent lich</w>
lea ve</w>
Bil d</w>
di schen</w>
Di es</w>
d in
7 5</w>
co -
imp act</w>
Ein satz</w>
M -
so on</w>
de bt</w>
doc ument</w>
P a
M icro
S ou
incre as
V -
3 6</w>
hel ped</w>
z el
ad vis
I l
au ft</w>
re present
f und</w>
schri ft</w>
ab or
in -
vol l</w>
z ös
inter view</w>
J ul
V ier
st ation</w>
2 9
spec ial</w>
ex ist
f ic
simil ar</w>
B ru
ach ie
g ten</w>
ck et</w>
ti ger</w>
iti ve</w>
them selves</w>
Län der</w>
stru ction</w>
tra ining</w>
w il
r as
sco red</w>
Goo gle</w>
pro ject</w>
w ants</w>
Fil m</w>
Ä n
ich ten</w>
famili es</w>
cou ple</w>
succ ess
e z</w>
ran ts</w>
con duc
J ones</w>
haup t</w>
f elt</w>
d ated</w>
wi esen</w>
insur ance</w>
agre ed</w>
Mark t</w>
po wer
e th
kün dig
previ ous</w>
T ab
pa ar</w>
b ach</w>
L age</w>
al though</w>
t te</w>
ar g
Jun i</w>
y esterday</w>
re ti
sign ed</w>
K öl
ar en</w>
viol ence</w>
ver z
Zu dem</w>
sh ort</w>
Sch au
t ur</w>
com mer
ne ben</w>
alle in</w>
char ge</w>
entw ick
Wo chen
stell te</w>
n immt</w>
ab ly</w>
ä um
Re ch
ne goti
qu ali
m and</w>
er halten</w>
Isra el
tig te</w>
ma ß
C E</w>
Man ager</w>
ti eren</w>
3 4</w>
ens es</w>
M ay
ide a</w>
in zwischen</w>
allow ed</w>
w rote</w>
b loo
h tm
com b
mög lich
fü l
ei ch</w>
Br and
tal k</w>
Pol itiker</w>
arre sted</w>
is ches</w>
zäh lt</w>
con sum
en ge</w>
in king</w>
T ür
orig in
T ar
W at
rupp en</w>
b au
U N
ex ten
chair man</w>
qu ality</w>
di se
b rought</w>
hei m</w>
Zu sch
G ruppe</w>
sh ire</w>
Flor ida</w>
se um</w>
w inning</w>
for ced</w>
L etz
Sa ison</w>
ad ver
in tel
f el</w>
B is</w>
he art</w>
f ight</w>
pur ch
f ern</w>
R olle</w>
rema ins</w>
af ter
L ou
re gi
200 2</w>
str eng
htm l</w>
B S</w>
Kon kur
größ ten</w>
sig n</w>
us h</w>
play er</w>
Wis sen
as soci
sol d</w>
A tt
or i
c y
dar an</w>
arbeit et</w>
claim s</w>
spe e
b ung</w>
B lick</w>
prof essi
fo rec
mak ers</w>
in si
Kore a</w>
sch en
Pe ople</w>
He alth</w>
au di
manu fac
sta at
I de
s an
fa iled</w>
S on
scho ols</w>
c ement</w>
sa fet
so cial</w>
he alth
r en</w>
Sie g</w>
zei gen</w>
ent al</w>
sur vi
ven tion</w>
bor n</w>
tre i
acc used</w>
canc er</w>
anzler in</w>
ig keit</w>
offic er</w>
leg is
app lic
m y
ä ter</w>
5 5</w>
st opp
Europ ä
ti ce</w>
d omin
re ta
letz te</w>
En gl
10 .
em er
le -
M ore</w>
w est</w>
Coun cil</w>
Aller dings</w>
gi ving</w>
nat ürlich</w>
heit en</w>
Tag es
De z
tro ffen</w>
g ner</w>
mis s
rec or
Dru ck</w>
some one</w>
treat ment</w>
führ ung</w>
tri ed</w>
safet y</w>
ei lig
reg ist
stan den</w>
Mut ter</w>
L eute</w>
Jul i</w>
ev ents</w>
Ges und
größ te</w>
f s</w>
net work</w>
re fle
Par k</w>
Au to</w>
vie ws</w>
y al</w>
offic ers</w>
Kr itik</w>
gen heit</w>
eci ally</w>
tro tz</w>
4 8</w>
ho ch</w>
v ier
call s</w>
schaf t
Febru ar</w>
esp ecially</w>
or ney</w>
R ec
fa il
shi ps</w>
El tern</w>
sib ility</w>
qu ick
we hr</w>
fun ds</w>
W all</w>
Ö ster
ad es</w>
r o</w>
Febru ary</w>
a vo
N icht</w>
li ving</w>
A -
f rist
men s</w>
us er</w>
min destens</w>
ing -
nec ess
com ment</w>
erne ut</w>
h ein
D ist
Per son
level s</w>
t end</w>
B on
Hei m
T ON</w>
li cht</w>
c op
b us</w>
hol ders</w>
Chic ago</w>
CN N</w>
ver letzt</w>
gen den</w>
weit eren</w>
O ther</w>
b ing</w>
W ahl</w>
ann ual</w>
ge be</w>
K unden</w>
f ans</w>
ats ächlich</w>
m ay
s ön
L ö
7 -
agent ur</w>
ro r</w>
con fir
E R
sid ents</w>
ph ysi
E is
produc t</w>
an stal
sid ent
ab ri
st ay</w>
an ces</w>
ter ms</w>
krit is
K n
week end</w>
en h
O f</w>
cro w
ab hän
mat ter</w>
wh ite</w>
h und
m as
4 4</w>
sp ro
vo ters</w>
pris on</w>
M el
Govern ment</w>
Jack son</w>
se x</w>
Po st</w>
K ön
Proble m</w>
pro pos
n -
at ory</w>
sch war
sp ir
M ob
it ali
Ver hand
Ergeb nis</w>
lon ger</w>
rel ation
K u
Proble me</w>
Afri ca</w>
eff ort</w>
Konz ern</w>
V ide
Ex -
au lt</w>
y ment</w>
Pre is</w>
disa p
char ged</w>
e i</w>
St utt
syst ems</w>
ent lich</w>
W ährend</w>
p it
gel n</w>
pres ent</w>
Ä r
est ab
al ed</w>
3 7</w>
k o</w>
dür fte</w>
ak ti
B is
inn er
o p</w>
Re k
3 8</w>
we g
Par ty</w>
proper ty</w>
th -
Hau sh
be at</w>
erfol gre
R ob
ul arly</w>
l auf
ell en
co ach</w>
re fer
Woh n
den ken</w>
T al
g ain
Hal b
N un</w>
n atur
D ro
Dez ember</w>
Ge win
uns ere</w>
re ly</w>
T wo</w>
ob ach
No t</w>
Rich ard</w>
de ad</w>
F ans</w>
m ess
iz ed</w>
Bundes regierung</w>
amoun t</w>
sich tlich</w>
et te</w>
pp ing</w>
un ded</w>
gen u
he ard</w>
c ted</w>
Sm ith</w>
p .</w>
do m</w>
stimm ung</w>
mul ti
D F
Grü nen</w>
O ur</w>
d om
H inter
Hil fe</w>
se y</w>
qu o
bro ad
Frank fur
li gen
d .</w>
a id</w>
berich tete</w>
m äß
be sten</w>
vi a</w>
B ahn
tro ub
H en
can not</w>
rä um
Ger many</w>
sc ri
wer t</w>
reven ue</w>
ser ved</w>
de ten</w>
b li
Mit te</w>
k ung</w>
pro mo
fran zös
n amed</w>
berich tet</w>
cent er</w>
me l</w>
ad ditional</w>
se ems</w>
a ther</w>
t ell</w>
1 1.
st att
in dest</w>
j unk
buil d</w>
R -
Dem on
ste p</w>
Ger icht</w>
Tel e
k al
ho ch
Res ear
brau cht</w>
i de</w>
deci ded</w>
t sch
hu ge</w>
s s
el te</w>
pop ular</w>
or ing</w>
se par
exp ec
zeich net</w>
3 .</w>
M y
ter ed</w>
m es</w>
Entwickl ung</w>
sen se</w>
Sch al
in ess</w>
positi ve</w>
K ab
K olle
ch ester</w>
un t</w>
un i
ti e</w>
it or</w>
p assi
contr act</w>
k ar
g -
it al
Pres se
Z wei
j ährigen</w>
P -
descri bed</w>
w asn</w>
op position</w>
V iele</w>
n a</w>
John son</w>
ges etz
h our</w>
In s
Op fer</w>
Inform ationen</w>
quest ions</w>
mach te</w>
Sta at</w>
wh ole</w>
E ven</w>
tei dig
S O
Tit el</w>
Mon ate</w>
succ ess</w>
spra ch</w>
4 2</w>
z -
Fo to</w>
t ten</w>
pr in
Energ ie
f y</w>
pro chen</w>
parti cip
At lan
quick ly</w>
x -
every thing</w>
demon str
C ro
Sch i
inclu des</w>
dru ck</w>
w ed</w>
rie b</w>
H ä
ish ing</w>
G ut
N acht</w>
in o</w>
ation al</w>
Terr or
cl ass</w>
busin esses</w>
Iraq i</w>
kl einen</w>
pri me</w>
äh n
W eit
cre ate</w>
i an
ack ed</w>
p ass</w>
C re
Sta at
tu res</w>
Ph ili
Ale x
H um
lo ans</w>
ge ord
no v
og ra
actu ally</w>
partic ularly</w>
employe es</w>
li mit
kün ftig</w>
W eb
d ul
thre e-
me an
anc ing</w>
UR L</w>
ast ern</w>
is mus</w>
4 00</w>
K or
we hr
kon nten</w>
wech sel
gi es</w>
Pat ri
N i
tr a</w>
Führ ung</w>
las si
ab en</w>
in ge</w>
k i</w>
G az
verl oren</w>
anc ed</w>
s burg</w>
st off
St ar</w>
gerech net</w>
f ung</w>
ös ung</w>
h us
p ain
E mp
s ale</w>
chall eng
k tor</w>
Mus li
exp ect</w>
Er st</w>
An der
S port</w>
f is
er weise</w>
m ary</w>
Po s
c lu
bes onder
m ine</w>
ak er</w>
foc us</w>
p sy
pre dic
cor por
Au ßerdem</w>
ver än
To ur
it ors</w>
u tions</w>
je den</w>
her r
R am
3 9</w>
ex ample</w>
rec ession</w>
wir e</w>
curr ently</w>
ed ul
dau ghter</w>
N amen</w>
Pro te
v ey</w>
I I</w>
o ben</w>
dro ht</w>
newsp aper</w>
Mark t
No ch</w>
appe ared</w>
r au
bes ser
le h
f äh
pres sed</w>
rich tig</w>
pe ace</w>
et t</w>
H ier</w>
ver tre
M any</w>
Gel d
Associ ated</w>
any one</w>
al ing</w>
ger icht</w>
Koal ition</w>
po st</w>
ar m
G al
Stra ße</w>
c irc
all s</w>
e te</w>
ver schie
ant ly</w>
C l
H y
ein s</w>
polit ischen</w>
j ah
B S
Ge w
m eine</w>
re ds</w>
z ens</w>
An t
e e
soldi ers</w>
vi elleicht</w>
p ie
ver antwor
kre ich</w>
ol l</w>
d ler</w>
z es</w>
Exper ten</w>
De f
ter -
ver li
v ent</w>
Sch ä
ati st
b ase</w>
em o
r uss
ast er</w>
educ ation</w>
Sch ool</w>
sol che</w>
ac ts</w>
ar ch
Bun de
acc ep
jud ge</w>
ze itig</w>
in tro
Le hr
ent er
ges ichts</w>
Ch ance</w>
w and
F ach
Euro -
ne ten</w>
dor f</w>
b ruch</w>
char ac
Pal est
cent ral</w>
r uns</w>
ter t</w>
mom ent</w>
rul es</w>
re ach</w>
ver ur
B ill</w>
Sch on</w>
lan gen</w>
Sch ü
th ro
li e</w>
commun ic
we ap
4 7</w>
war d-
Organ is
z z
Russ land</w>
poin ted</w>
ear nings</w>
R adi
ar d
op ening</w>
6 5</w>
. com
Russi an</w>
8 -
p .m.</w>
ra ised</w>
D ort</w>
Er schein
fu el</w>
Car ol
add ition</w>
sit es</w>
Län dern</w>
bal d</w>
in side</w>
H aus
f rie
sch edul
ge ber</w>
5 0
Hö he</w>
n ut
los ses</w>
rit te</w>
ali gen</w>
b ür
ein igen</w>
A F
l te</w>
über haupt</w>
S at
dr am
Kre dit
er stellt</w>
k rie
teil ung</w>
k ampf</w>
Com mit
Kom mun
der ungen</w>
N .
d acht</w>
r än
m ung</w>
ti ves</w>
ati ven</w>
co ver</w>
Fran kreich</w>
T a
v ille</w>
po ol</w>
V ater</w>
Priv at
we isen</w>
G M</w>
pl es</w>
bud get</w>
serv ative</w>
tak es</w>
Indu stri
re as
Kil ometer</w>
w olle</w>
G ri
Grie chen
Dok ument</w>
ret ary</w>
Vol ks
erst mals</w>
v in
setz ung</w>
Land es</w>
ach ing</w>
C O
Ham burger</w>
Frankfur ter</w>
po se</w>
Micro soft</w>
tra vel</w>
opportun ity</w>
Mil it
respon se</w>
eigen e</w>
Regier ungs
m ern</w>
P as
Sec retary</w>
M et
doc um
Z w
inde x</w>
concern s</w>
materi al</w>
är en</w>
su it</w>
en ced</w>
P M</w>
su cht</w>
v ement</w>
G ä
off iz
tra ding</w>
inf o</w>
ver stän
ver hin
Ber uf
progr ams</w>
gri ff</w>
Ein zel
neh mer</w>
a der</w>
ü b
A I
every one</w>
ri es</w>
ich t
at te</w>
s om
ill ed</w>
fre i</w>
fr agen</w>
th an
le bt</w>
li gen</w>
b illi
zie h
B ag
C .</w>
happ ened</w>
bo ten</w>
en cour
tic s</w>
con trib
so zi
T at
polit ische</w>
immedi ately</w>
hö ch
mit ted</w>
L ig
Gol d
Sol daten</w>
D or
t op
ge funden</w>
m ist
inst itu
S E
ha ps</w>
ministeri um</w>
Aut o
te ams</w>
oh n</w>
s le
re ve
Mex ico</w>
H and</w>
unter stütz
em ed</w>
f an</w>
ark o
di ge</w>
pre t
pol itik</w>
be tri
reich e</w>
ill er</w>
Ko sten</w>
E s
St ar
Ber icht</w>
4 1</w>
stän dig</w>
ch -
sol ution</w>
k es</w>
le in</w>
I T
M om
figh ting</w>
hei m
Willi ams</w>
al ty</w>
consum ers</w>
0. 000</w>
Sicher heits
k enn
Cor por
st ag
or ies</w>
dri ve</w>
I hr</w>
ff er</w>
z one</w>
kti onen</w>
St at
Fran c
so gen
st ance</w>
I S
sch ütz
sa ch
IN G
R en
dür fen</w>
To chter</w>
par ts</w>
am b
fig ures</w>
re ason</w>
Konkur ren
vi c</w>
4 9</w>
ow ned</w>
gu n</w>
re form</w>
v e-
consi der
M ach
ent ed</w>
K ampf</w>
B ul
bor der</w>
te m</w>
f ru
S eine</w>
er inn
qu ite</w>
Palest in
fr on
I hre</w>
mag az
deta ils</w>
off ered</w>
häl t
R ett
im e</w>
N et</w>
No .</w>
inf lu
ir gend
at er
Fußball -
k amen</w>
völ k
c ans</w>
fl ation</w>
Fran k</w>
hus band</w>
gen e</w>
t au
dat um</w>
Som mer</w>
ad ed</w>
4 3</w>
hous ing</w>
ma il</w>
gen de</w>
Sco t
ha f
em e</w>
g one</w>
com plain
stu di
on te</w>
eff ect</w>
To d</w>
m ar</w>
üs sel
in k
aus zu
ges am
gram me</w>
di ger</w>
Commit tee</w>
Beg inn</w>
B ahn</w>
un ion</w>
manufac tur
sich ts
is es</w>
Unter stütz
is s
K ör
er y</w>
A ir</w>
9 9</w>
T op
ge führt</w>
nach dem</w>
.com .</w>
Fir st</w>
follow ed</w>
schw ier
pl us</w>
ac tions</w>
s we
d ollar</w>
4 6</w>
her en</w>
loo ked</w>
M s.</w>
l ad
sch uss</w>
it self</w>
bre ak
ger t</w>
mess age</w>
Ges am
n on
plat z</w>
legis l
Jo se
anti -
sear ch</w>
spiel t</w>
B lu
di plom
abo ve</w>
om s</w>
S ing
mo d
chang ed</w>
b ran
me ter</w>
r asch
belie ved</w>
Australi a</w>
A .</w>
Com mission</w>
Bun dest
mit tag</w>
d ad</w>
Ch anc
Ministerprä sident</w>
li ance</w>
Bei m</w>
bei de</w>
sec tor</w>
b at
commit tee</w>
Erschein ungs
S ein</w>
Ser vice</w>
num bers</w>
sour ce</w>
li z
lei cht</w>
fr agt</w>
Kon trol
Gener al
adver t
Pri me</w>
clos ed</w>
op ened</w>
Wett bewer
Fe deral</w>
tz dem</w>
Q a
Min ute</w>
P lan
wal tschaft</w>
B ir
Fri ed
tic al</w>
bo y</w>
an ge</w>
F äl
re ag
W asser</w>
Instit ute</w>
wor l
te ile</w>
p u
b lu
tre ffen</w>
buil t</w>
S arko
un ivers
provi ded</w>
d u</w>
P f
mis sed</w>
M ein
do or</w>
ne u</w>
y a</w>
mo ving</w>
Fac eb
elec tri
schie den</w>
Li ber
P ati
B ab
Mr d.</w>
H on
To tal</w>
re ached</w>
en jo
ris ks</w>
con vic
issu ed</w>
i ans</w>
ch s
Resear ch</w>
Stad t
Fr agen</w>
M ül
w es
r an</w>
st ens</w>
gr ü
R ed</w>
b n</w>
candid ate</w>
p il
ü ge</w>
läu ft</w>
dru gs</w>
ges prochen</w>
5 2</w>
Kan did
Holl y
BI L
consi dered</w>
Com mun
I T</w>
consu mer</w>
plac ed</w>
diti on
j em
el ing</w>
pf lich
Angel a</w>
wir tschaft</w>
kl eine</w>
tit le</w>
z te</w>
4 0
to ur
gesch ä
län der</w>
meas ures</w>
ow s</w>
plann ed</w>
pub lished</w>
ev ent
tri bu
gro ß</w>
st ran
is n</w>
di sche</w>
air s</w>
ris ing</w>
r aum</w>
us sion</w>
Un ter</w>
schn it
el -
stra ight</w>
A ri
benef its</w>
zun eh
um p</w>
t ary</w>
wich tig
li ber
Off ice</w>
stei gen</w>
N ic
w ahl</w>
zweit e</w>
re turned</w>
c ars</w>
trä ge</w>
tri p</w>
europä ischen</w>
ri c</w>
min ute</w>
mortg age</w>
dise ase</w>
ra y</w>
ko sten</w>
mob ile</w>
jun ge</w>
Än derung</w>
zus ätz
part ner</w>
hol t</w>
Ge werk
exp enses</w>
tak t</w>
ge k
O b</w>
inn t</w>
pas sen
Erscheinungs datum</w>
Pr in
vor sitz
ligen ce</w>
si li
R a
caus ed</w>
Ho w</w>
zum indest</w>
h ib
Ü ber</w>
Fern seh
s h</w>
ent sprech
ung er</w>
Zahl en</w>
H ill
Kon junk
lau b
r ati
jün g
def ense</w>
claim ed</w>
W ieder
Wach st
re pe
redu ce</w>
Ph il
al ige</w>
gan ze</w>
wr ong</w>
ik o</w>
For m</w>
ec tion</w>
P ark
po or</w>
An gst</w>
S ci
n a
ein zu
de fe
W ar</w>
K ra
ver öffent
amerik anischen</w>
ar m</w>
Ges ellschaft</w>
Mo st</w>
k in
happ y</w>
Secur ity</w>
An ti
Regier ung
kün digt</w>
d nis</w>
l ab
an e</w>
müs sten</w>
Dem ok
Ver tre
ra ise</w>
appro ach</w>
h ielt</w>
in stead</w>
Unter such
Ma ß
ih res</w>
we ile</w>
j ing</w>
am i</w>
re sidents</w>
fe et</w>
tw eit</w>
sci enti
sh ar
st ro
ch er
I h
l aufen</w>
and -
maj ority</w>
add ress</w>
Ver gleich</w>
Sep t</w>
S um
iel d</w>
W EL
strateg y</w>
re gel
S ituation</w>
st elle</w>
me an</w>
Di rec
A D
h of</w>
an ese</w>
y ond</w>
re view</w>
wor ds</w>
fa ir</w>
ge plan
schedul ed</w>
min al</w>
ach es</w>
gh out</w>
thre at
desig ned</w>
Al so</w>
B ü
tow ard</w>
sp i
k new</w>
P il
sch ung</w>
Frü h
ch in
con dition</w>
in ation</w>
g in</w>
tr ack</w>
Res er
AS H
h inter
Li by
Ab end</w>
St an
c ents</w>
per sön
P op
Ver antwor
fer enz</w>
ne un</w>
c lin
rest au
s weise</w>
simp ly</w>
commer cial</w>
on ed</w>
sch ö
kom ple
Re gion</w>
atten tion</w>
se its</w>
re ad</w>
lie f</w>
To m</w>
G lob
Ab geord
cre ated</w>
war t</w>
Wochen ende</w>
Ö ff
m and
t un
dro p</w>
Scot land</w>
off ers</w>
n ieder
ho tel</w>
Er d
M äd
Poli zei
Mi ke</w>
M oh
H ig
o o</w>
w ell
Gesprä ch</w>
Al though</w>
vo c
Haupt stadt</w>
en cy</w>
5 3</w>
R et
kill ing</w>
F er
Medi en</w>
5 1</w>
Kop f</w>
s elling</w>
K er
repor ters</w>
nah m</w>
go es</w>
own ers</w>
el se</w>
Bür ger</w>
p ment</w>
V al
Mehr heit</w>
B oo
K ind</w>
impro ve</w>
spee ch</w>
ri eben</w>
ING TON</w>
Akti en</w>
al tern
Sarko zy</w>
10 -
mov ie</w>
p ap
ber ger</w>
comple te</w>
K ing</w>
forder te</w>
5 4</w>
Bei jing</w>
ther ap
mö chte</w>
b are</w>
klär ung</w>
mark s</w>
zw öl
I ran
Wolf gang</w>
P ra
prä sen
cut s</w>
L aut</w>
Stu die</w>
ag s</w>
x ed</w>
inde pendent</w>
über zeu
1 2.
ar gu
L at
ho hen</w>
N etz
P et
dro pped</w>
elec tions</w>
i v
Ch ief</w>
ha ft</w>
lä tz
he u
p unk
St ro
WEL T</w>
eas y</w>
bet onte</w>
L es
an k
m ind</w>
com men
clim ate</w>
st ore</w>
Ver brau
im mer
i val</w>
Sicher heit</w>
lie b</w>
f ör
eben so</w>
stra ße</w>
R est
po st
H än
ward- looking</w>
weiter hin</w>
gi g</w>
success ful</w>
Israel i</w>
F rom</w>
Z wei</w>
p oll
sa fe</w>
L E
er reicht</w>
N utz
tim s</w>
fil ed</w>
Stre it</w>
hund reds</w>
le ger</w>
Acc ording</w>
U p
st ark
confir med</w>
W ASH
conc lu
gemein sam</w>
war ned</w>
c ast
ay ed</w>
ati v</w>
D r
Me dien
WASH INGTON</w>
0 8</w>
Re d
per form
s er</w>
he aring</w>
ag ers</w>
lo an</w>
gew innen</w>
5 6</w>
deb ate</w>
in tegr
Behör den</w>
ler weile</w>
gu ten</w>
h am
M P
genu g</w>
Ar ab
Man agement</w>
t ac
oh l</w>
ur ies</w>
ab zu
ens ure</w>
man n
m är
ex pl
o d
Nachrich ten
par ties</w>
gres si
T or</w>
völ lig</w>
J .</w>
H om
fass ungs
k ids</w>
cul ture</w>
ar ies</w>
CS U</w>
os sen</w>
Pre is
sa ve</w>
basi s</w>
äl fte</w>
tur ning</w>
M ehr</w>
bes u
Bu ch</w>
get ö
cla im</w>
Tre as
publi c
f and</w>
N um
a be
ge gangen</w>
St rat
C A
u fen</w>
C lub</w>
5 8</w>
Ken ne
w ollten</w>
gu il
el s
t our</w>
ö tz
em erg
Sen .</w>
e hr
pre is</w>
res c
provi des</w>
v ill
k ept</w>
ent de
1 50</w>
compet ition</w>
star ting</w>
Jo urnal
chall enge</w>
Ger man</w>
add af
il en</w>
d t</w>
gir l</w>
N as
c ally</w>
con struction</w>
off en</w>
p ush
n ö
dec lined</w>
exper ts</w>
struc ture</w>
so ftware</w>
be hör
g art</w>
Or t</w>
geb aut</w>
tra ff
ra p
activ ities</w>
thre at</w>
l ungs
natur al</w>
foot ball</w>
dah er</w>
cri me</w>
wich tig</w>
a im
S ub
see king</w>
bar en</w>
Staatsan waltschaft</w>
z in
der ship</w>
let ter</w>
wor t</w>
Re gi
igh ts</w>
sch ule</w>
y an</w>
G A
d ritten</w>
R ah
p rise</w>
st ab
s low
A g
s mo
ch ner</w>
5 9</w>
tig keit</w>
ag u
Ar my</w>
G addaf
ck y</w>
sch affen</w>
ri eb
V f
sp or
dire kt</w>
A ff
D et
all -
ap par
C olle
s am
consu l
ber eit</w>
b id</w>
milli ons</w>
wi d
ac king</w>
län gst</w>
emplo yment</w>
5 7</w>
fi k
Republi cans</w>
Vir gin
Man chester</w>
wel le</w>
under stand</w>
est ic</w>
gu ar
ph y</w>
t atsächlich</w>
z ul
Aut os</w>
estim ated</w>
R ad
w äh
ac tive</w>
Dis k
L eh
civi li
su ed
prote ct</w>
fäl lt</w>
li ament</w>
abil ities</w>
tiv ely</w>
T ha
equ ity</w>
Bundes k
H I
P ho
Bo ston</w>
we der</w>
sued deutsch
F rie
at ur</w>
inci dent</w>
H er</w>
D aten</w>
relation ship</w>
B A</w>
al er</w>
reli gi
s ü
C le
tel s</w>
disp l
i um</w>
dec is
Ver ein
ici de</w>
ban k
k ran
pass ed</w>
9 5</w>
Dan iel</w>
Dist ri
S au
su chen</w>
p et
ut ors</w>
pop ulation</w>
all ed</w>
S ince</w>
Th en</w>
o .</w>
O st
t aus
ad ding</w>
ord on</w>
exc lu
op tim
emer gency</w>
zahl t</w>
sueddeutsch e.de</w>
D rit
ath s</w>
b on
G ast
Rech ts
web site</w>
vic tims</w>
hand s</w>
throu ghout</w>
Inter view</w>
le aving</w>
K ü
sen s
l ern</w>
Er n
Aut ob
Op en</w>
G est
itä ten</w>
Poli z
Letz te</w>
son st</w>
M ah
versu cht</w>
R an
Ch el
Sch ule</w>
Ges etz
Am ts
gew al
di ent</w>
Re por
ak es</w>
inj ured</w>
Al le</w>
an ten</w>
sha re
W asser
y ards</w>
kti ons
Ber e
mo un
b auen</w>
fa vor
op tion</w>
F le
st ly</w>
d ged</w>
B ay</w>
o t
dr än
Ver l
hop es</w>
Ö l
ger e
us ers</w>
chn ung</w>
A mt</w>
M ed
ei st
tax es</w>
wel tweit</w>
den k
ri d</w>
Ver kehr
si ze</w>
gen s</w>
V iz
br ingt</w>
ach ten</w>
as p
und ation</w>
ac ted</w>
s age</w>
N .</w>
App le</w>
deter min
Stutt gart</w>
CD U-
fig ure</w>
h ang</w>
no on</w>
geb lich</w>
Stu di
laun ched</w>
benef it</w>
laun ch</w>
Chr is</w>
recei ve</w>
per f
ex am
intro duc
bew us
br and</w>
be yond</w>
o ts</w>
wi es</w>
Christ op
mur der</w>
Prä sidenten</w>
Sch we
c ard</w>
limit ed</w>
D ay</w>
le gt</w>
sen ce</w>
ad o</w>
En ergy</w>
S ur
requi red</w>
pres sion</w>
C ur
Ver trag</w>
L auf
Re is
ex tra</w>
L ar
pri mary</w>
Stim men</w>
m ers</w>
Fol ge</w>
bloo d</w>
6 00</w>
s ession</w>
mo del</w>
so fort</w>
ali zed</w>
B M
r i</w>
wor st</w>
8 00</w>
z ing</w>
over all</w>
ho st</w>
bie ten</w>
P en
te sts</w>
schlä ge</w>
on to</w>
aff t</w>
Mis s
coll ap
Re de</w>
V ie
Feu er
kl ag
necess ary</w>
beg in</w>
stim men</w>
l ers</w>
0 9</w>
1 ,000</w>
g no
Se k
v ince</w>
hel fen</w>
celeb r
K no
lich keiten</w>
Z weit
tig ten</w>
Itali en</w>
mit tel</w>
B all
ar my</w>
environ ment</w>
belie ves</w>
ä r</w>
W ahr
öh n
zeit ung</w>
t ough</w>
for ward-looking</w>
eff ici
boo ks</w>
al one</w>
se emed</w>
off ering</w>
K raft</w>
par k</w>
er a</w>
dar unter</w>
is on
r on
Ro yal</w>
Da zu</w>
m es
sch re
consi der</w>
Wi der
hol ding</w>
Sch ritt</w>
b lieb</w>
M and
Tra in
h ood</w>
proj ects</w>
Win d
wel che</w>
im mig
sch ied</w>
dri ving</w>
Virgin ia</w>
iti onen</w>
gr und
O s
tig ung</w>
zei gte</w>
hör en</w>
pa ir</w>
gl ing</w>
R at
D em</w>
effec tive</w>
fr au
Georgi a</w>
zeu g</w>
w agen</w>
stu dent</w>
St ur
sa che</w>
ho se</w>
urn al</w>
sp end</w>
accoun t</w>
Ho tel</w>
al ist</w>
and ed</w>
Hill ary</w>
un be
Zeit en</w>
Schul den
Mitglie der</w>
confi dence</w>
Just ice</w>
n ern</w>
f it</w>
bre it
sel f-
ach e</w>
Engl ish</w>
C amp
b on</w>
Unterstütz ung</w>
H älfte</w>
Bundest ag
prac tice</w>
0 4</w>
o ur
se em</w>
om en</w>
k rat
Re al</w>
W ert</w>
S w
tru e</w>
Ser vices</w>
spokes woman</w>
in en</w>
zie ht</w>
sich erung</w>
Be it
h nach
lu s</w>
sol le</w>
cho ice</w>
sa v
chin es
fin ale</w>
lei hen</w>
gi c</w>
Des halb</w>
st es</w>
amer a</w>
internation alen</w>
ä t</w>
dig lich</w>
suppor ters</w>
gew äh
- based</w>
att orney</w>
Proz ess</w>
mis sing</w>
k or
el e</w>
analy sts</w>
B I</w>
Ver anstal
writ ten</w>
S eiten</w>
P un
kon trol
Ste ve</w>
af ri
G ordon</w>
pret ty</w>
CE O</w>
Lab our</w>
SO UR
cent ury</w>
K lin
Be am
an zu
t ations</w>
Rich tung</w>
gre ater</w>
Tel ef
teil en</w>
S ir</w>
Vor stand
Le e</w>
happ en</w>
W ür
beg inning</w>
V is
mob ili
fun ding</w>
f und
zwöl f</w>
SOUR CE</w>
est ate</w>
Dur ing</w>
fun ktion
b um</w>
S itz
Sch ie
mus sten</w>
equi pment</w>
avo id</w>
sol utions</w>
. 0
plan e</w>
wi re-
Gef ahr</w>
C al
W .</w>
M ain
conc ern</w>
sub ject</w>
fin ished</w>
dec ades</w>
kündig te</w>
li gh
m ü
ent schieden</w>
neu es</w>
Ch il
bel ow</w>
ger ung</w>
f ro
Men schen
ho li
M asch
el f</w>
Lei st
Faceb ook</w>
Op position</w>
fi g</w>
W eil</w>
Mi o.</w>
ander er</w>
fl u</w>
Öster reich</w>
Be völk
crit ic
E -
t an</w>
sur pris
we gung</w>
strat e
stri ke</w>
ut h</w>
W et
Bundeslig a</w>
d wide</w>
Kl ein
ie f
Mäd chen</w>
Besch äf
St ell
sc ene</w>
los ing</w>
candid ates</w>
Geschä ft</w>
inj ury</w>
c raft</w>
wis sen
nor mal</w>
se kre
ö p
ern s</w>
f onds</w>
cont act</w>
ähr t</w>
Kar ri
si t</w>
Spitz en
Carol ina</w>
N Y
PRNews wire-
ck er
Fe der
stre et</w>
ei g
Univers ität</w>
Oc t.</w>
we gs</w>
p al
loo ks</w>
c tions</w>
Ver teidig
Ange bot</w>
trä gt</w>
lo sen</w>
brau chen</w>
ch tet</w>
St rei
las h
respon sible</w>
organiz ation</w>
Treas ury</w>
p aper</w>
g un
Pro gramm</w>
setz te</w>
a .m.</w>
ho he</w>
C -
d äch
be ha
Bet rieb
t ür
Pl ay
amp f
crit ical</w>
n am
je de</w>
i ken</w>
st in
ich tet</w>
Jah res
Inter net
gel d</w>
Kolle gen</w>
appe ar</w>
y n</w>
bis her
j ungen</w>
ag no
zeu ge</w>
tal king</w>
Un i
ac ci
8 5</w>
gl ück
en ze</w>
ei m
V ill
sk y</w>
woh ner</w>
Kom mission</w>
activ ity</w>
c le</w>
meas ure</w>
West ern</w>
iel l</w>
gre en</w>
k ü
Ur teil</w>
ow ner</w>
wat ch</w>
d rü
er reichen</w>
T est
legisl ation</w>
o dy</w>
Milit är
ro b
extre m
weap ons</w>
Mor gan</w>
NE W</w>
gest ie
vehic le</w>
mis sion
Lig a</w>
fre e
previ ously</w>
identi fied</w>
gener ation</w>
tw en
ant age</w>
W -
foo t</w>
Fo re
fahr er</w>
di sk
ke i</w>
tar get</w>
besch äf
g old</w>
dom estic</w>
tr auen</w>
Griechen land</w>
getö tet</w>
st yle</w>
fir st-
fäl le</w>
I s</w>
Prem ier</w>
end lich</w>
wor k
fli ght</w>
Köl n</w>
dam age</w>
S E</w>
ver se</w>
frü her</w>
ür gen</w>
ri g
ger in</w>
be isp
in nov
F ed</w>
ex plain
C ent
comp uter</w>
B ud
iti k
rie f
plann ing</w>
H ause</w>
Auf sichts
geh end</w>
H ein
d lichen</w>
st ood</w>
lea dership</w>
win ner</w>
dig keit</w>
Ban k
il legal</w>
w oun
P ut
guil ty</w>
Jo e</w>
-------- --------
Re cht</w>
B üh
gel y</w>
Prä sident
p t</w>
J ud
st ep
e ten</w>
provi ding</w>
Dies er</w>
e b</w>
Akti en
gest ern</w>
Bo th</w>
deli ver
sch ön
bre chen</w>
eu ro
er he
dec line</w>
attemp t</w>
S onder
law yer</w>
Er fahr
D .de</w>
tain ment</w>
tur ns</w>
Quar tal</w>
tur al</w>
concern ed</w>
fis cal</w>
B a
de ad
S ohn</w>
l ack</w>
Vorsitz ende</w>
N AT
ti erte</w>
form s</w>
Th ree</w>
d ing
9 -
deu tet</w>
West er
fi f
wh om</w>
Bus iness</w>
pop ul
lat t</w>
fahr t</w>
W ähr
n y</w>
sus pen
Corpor ation</w>
p p</w>
y ard</w>
p ak
per haps</w>
v o</w>
B om
c iti
3 6
vehic les</w>
utz t</w>
t ation</w>
rup tion</w>
high est</w>
Com mer
suff ered</w>
mas sive</w>
5 .</w>
w ish</w>
o ber
h an
H anno
pre pa
Wei hnach
schein lich</w>
T our</w>
Bo ard</w>
resear chers</w>
minist erin</w>
jo ined</w>
dan ach</w>
fer red</w>
o x
sol ven
Afri can</w>
fac es</w>
zu frie
te xt</w>
dien st</w>
s end</w>
bo x</w>
ge he</w>
unter schrift</w>
ing ing</w>
res sed</w>
neu er</w>
H eute</w>
Y e
de ep
il ities</w>
corpor ate</w>
wor d</w>
i as</w>
coun t</w>
Mo tor
s un
gesch lagen</w>
f än
plac es</w>
st ic</w>
spo ke</w>
Syst em</w>
S .
C all</w>
Can ada</w>
Bild unterschrift</w>
la ws</w>
V ic
ev in</w>
west ern</w>
contrib uted</w>
wa iting</w>
glei chen</w>
sub si
certain ly</w>
stand ards</w>
schwer en</w>
ru le</w>
ho l</w>
ow er</w>
Au th
M ul
te u
pp e</w>
dou ble</w>
des ign</w>
il er</w>
mark eting</w>
r t</w>
Qu e
end or
suggest ed</w>
M au
b lick</w>
pro gress</w>
Bra z
unser er</w>
pre vent</w>
batt le</w>
Afgh an</w>
coun cil</w>
hol en</w>
Ver b
Rek ord
r ying</w>
el a</w>
st ant</w>
do g</w>
k y</w>
For d</w>
Sy ri
m in</w>
gel ö
Ge walt</w>
konz ern</w>
Musi k</w>
Proje kt</w>
tu red</w>
ban king</w>
Sp ra
pp er</w>
jo urnal
del eg
sch ließen</w>
rech nen</w>
me dic
de partment</w>
z ir
verk auft</w>
Y ah
6 0
milit ants</w>
C ath
sp orts</w>
ge m</w>
do w</w>
Holly wood</w>
wei ght</w>
Asi a</w>
A no
A M</w>
ell ed</w>
A l</w>
nor m
pro posed</w>
ver ein
G M
St art</w>
d ungs
dro h
own s</w>
z ep
G et
reco very</w>
r is</w>
üs se</w>
sign s</w>
tem por
re al
C ub
F A
Nov .</w>
K ünst
c .</w>
Tre ffen</w>
fe ar</w>
kra ft
nie mand</w>
W en
3 7
wei s</w>
C el
re sources</w>
sig keit</w>
T un
M ac
C am
Ge gner</w>
secre tary</w>
mak er</w>
C it
g lied</w>
T y
Gesam t
sur vey</w>
D E
M s</w>
Chel sea</w>
olog ical</w>
g ain</w>
z ation</w>
Geb äu
commit ted</w>
some times</w>
ges ellschaft</w>
su st
appe al</w>
R und
rul ing</w>
am ent
Bl ack
st ands</w>
D ub
st am
On line</w>
Oh io</w>
ü bri
ad urch</w>
3 8
L ösung</w>
lan gu
c ouldn</w>
ex change</w>
r ent</w>
St äd
ver tei
Olymp ic</w>
re stri
Bet eilig
contro l
ru m
i ble</w>
Öff ent
ent fer
Spitz e</w>
ig an</w>
ve ter
ck ets</w>
Spiel e</w>
bil d</w>
ih eit</w>
gra du
Sach e</w>
is er</w>
ge wor
Mo d
ven ue</w>
onal d</w>
Rich ter</w>
ill en</w>
Aut om
car ried</w>
Gre en</w>
ist e</w>
nie dri
bet ei
re ment</w>
wal k</w>
beisp iel
beha vi
re commen
gi en</w>
199 9</w>
it es</w>
einz el
ast rop
To day</w>
hin gegen</w>
hel ping</w>
c s</w>
k et
and al</w>
al d</w>
ess ed</w>
5 ,000</w>
polit ics</w>
is co</w>
dra w</w>
Cor p.</w>
ä s
develop ed</w>
war um</w>
after noon</w>
us ually</w>
Willi am</w>
ann e</w>
sp ruch</w>
e ful</w>
K ris
u el</w>
em is
m ein</w>
ge plant</w>
W ales</w>
sy mp
For scher</w>
wen ige</w>
pre ci
S T
fin ance</w>
doc tors</w>
hunder t</w>
f em
Mu seum</w>
H ou
mög lichen</w>
4 .</w>
t ent</w>
Sch o
inner halb</w>
Cap ital</w>
g ment</w>
besonder e</w>
ta ins</w>
k er
Zentr al
Ano ther</w>
vers or
K al
hä u
un ding</w>
go als</w>
radi o</w>
ge zogen</w>
wa it</w>
Ver gan
Pl an</w>
neigh bor
Re vol
no te</w>
A M
ep h
tra vel
Bil der</w>
arri ved</w>
call ing</w>
gehör en</w>
itä ts
psy ch
B asi
fol gt</w>
Gesund heits
unter nehmen</w>
h ur
AF P</w>
verb and</w>
h ou
v .</w>
A ct</w>
N av
P u
long- term</w>
f s
ab les</w>
Z war</w>
N atur
Gä ste</w>
f lä
Be wer
Hig h</w>
fac tors</w>
um st
ail s</w>
ver lassen</w>
Sch ließ
pho togra
w illi
Pub lik
xim ately</w>
nor th</w>
ten en</w>
C I
ch em
G ip
ne e</w>
sch utz
r aten</w>
demo cr
er zählt</w>
stim ul
O pel</w>
colle ge</w>
lie fer
A ch
las se</w>
st ars</w>
C entr
s ort</w>
gew onnen</w>
B und</w>
Champ ions</w>
arre st</w>
mei er</w>
fort un
Schü ler</w>
no wle
T hose</w>
stär ker</w>
L L
enti re</w>
sch utz</w>
In iti
st ol
s onen</w>
vir tu
Ge füh
origin al</w>
av es</w>
pro gramme</w>
Um welt
const itu
den ied</w>
e es</w>
zo g</w>
be vor</w>
a dem
back ed</w>
R E
wur f</w>
tra ditional</w>
führ te</w>
F ün
R ent
ck ing</w>
Famili en
Finanz krise</w>
den e</w>
re j
val u
itali en
bil dung</w>
aw are</w>
Ex change</w>
E conom
ma xim
OR K</w>
stell ten</w>
h aus
th y</w>
ange kündigt</w>
On lin
Ver fü
ver si
Punk ten</w>
s in
Z ei
w äl
or ial</w>
da ily</w>
schrei bt</w>
mar ri
fol gen</w>
z ig</w>
Y ORK</w>
supp ly</w>
N eben</w>
govern or</w>
P enn
ic a</w>
au ßer
S icht</w>
un it</w>
vor bei</w>
Geh eim
S har
War um</w>
continu es</w>
S af
pro mp
quar ters</w>
ak tion</w>
ver dien
g al</w>
ack nowle
ko re
- F
ar i</w>
polit ici
sel y</w>
ei gh
P ac
Inter esse</w>
am id</w>
W M</w>
Au gen</w>
Indi an</w>
el ten</w>
8 0
Distri ct</w>
sa h</w>
develop ing</w>
il and</w>
ß er</w>
w ann</w>
se ite</w>
f tigen</w>
se as
crow d</w>
k tur
appro ved</w>
unter schie
st ür
A .
an cy</w>
Chanc en</w>
Kenne dy</w>
j en
le diglich</w>
de ep</w>
individu al</w>
al ition</w>
see ing</w>
Ges etz</w>
t to</w>
he ar</w>
iz e</w>
W inter
Pak ist
entschei den</w>
p on
reven ues</w>
Ju li
wach sen
öff net</w>
B ig</w>
Ad res
um p
D ort
R unde</w>
P ir
Inter nation
ehem alige</w>
U. N.</w>
it er</w>
amm lung</w>
n ar
poli cies</w>
K li
us ual</w>
be kommt</w>
lo g
J ürgen</w>
recor ds</w>
H igh
o v
mitt lerweile</w>
Bu ch
Olymp i
bal ance</w>
P län
bie tet</w>
tw ice</w>
Lu x
9 0
Ar ch
I tal
f ine</w>
com ments</w>
ig es</w>
y l
kur z
Ho sp
groß er</w>
Alex ander</w>
ob wohl</w>
schrei ben</w>
T enn
z a</w>
ä he</w>
to urn
ser ving</w>
c ities</w>
ch mal</w>
7 00</w>
en det</w>
civi l</w>
Feh ler</w>
b es</w>
ist ischen</w>
sch e
iti ons</w>
ste he</w>
ul ts</w>
M .</w>
re p
den d</w>
Fol gen</w>
en or
Bevölk erung</w>
spe ak</w>
fo li
Bag h
or dered</w>
vol un
ten berg</w>
Z e
Im mobili
w ind</w>
ra in</w>
rema ined</w>
bro ke</w>
ac tor</w>
ger y</w>
le ague</w>
an o</w>
fin ally</w>
sto res</w>
S he
je dem</w>
appe ars</w>
is sen</w>
Ein en</w>
fre u
w u
ad y</w>
gel ten</w>
bra chte</w>
Pol it
an gesichts</w>
s outh</w>
B ad
Parlam ent</w>
Nach bar
b ought</w>
appro ximately</w>
S us
exist ing</w>
war ten</w>
f res
dar um</w>
mei ster
exp ense</w>
A C
Kl aus</w>
k ungen</w>
F ör
Kin dern</w>
cri minal</w>
Pal in</w>
l ess
frü heren</w>
shoo ting</w>
b s
intel ligence</w>
Char les</w>
f ash
spe ed</w>
Rett ungs
dec ade</w>
dri ver</w>
power ful</w>
Fir ma</w>
be stimm
min im
sh e
Verhand lungen</w>
fac ing</w>
g ruppe</w>
Tro tz</w>
olo gies</w>
N a
äh ler</w>
je we
cr ash</w>
L O
t ter</w>
Fil m
T im</w>
o f-
vol um
ci a</w>
inj uries</w>
eng ine
con tribu
Tr au
Prof essor</w>
direc t</w>
Off en
no ted</w>
lo y
- Chef</w>
Koal iti
put y</w>
bl ing</w>
th a</w>
disc uss</w>
prepa red</w>
Co ach</w>
Yah oo</w>
4 6
mor gen</w>
Secur ities</w>
G leich
M acht</w>
Le w
re land</w>
op h
jo in</w>
Wal ter</w>
Nach fol
K evin</w>
Z eu
T urn
h its</w>
St unde</w>
ra ising</w>
al ter</w>
m ut</w>
al o
Off ic
ol der</w>
Ital y</w>
and ing</w>
so c
m ad
w elt</w>
re in
audi ence</w>
Brü s
f loo
gh tly</w>
agen cies</w>
Da für</w>
Da x</w>
re l</w>
Des pite</w>
le ment</w>
berich ten</w>
Deutsch lands</w>
W ort</w>
worl dwide</w>
w ouldn</w>
S how</w>
Ele k
con nec
l ag
foc used</w>
Al ter</w>
ass ung</w>
We ch
ans wer</w>
de aths</w>
Lu ft
si des</w>
stim mt</w>
K anzlerin</w>
Ver fahren</w>
cro s
j ähr
Tran s
K ath
sou thern</w>
fir ms</w>
näch ste</w>
ück e</w>
oo d
lätz e</w>
w ün
tä r</w>
au ff
w ise</w>
Che f
T om
An leger</w>
su icide</w>
Pau l
expec tations</w>
ser i
ig keiten</w>
f tige</w>
mäß ig</w>
No t
gn is</w>
ion ship</w>
f iel</w>
well -
ati vely</w>
continu ing</w>
ens ation</w>
D etro
k aufen</w>
st one</w>
vo ted</w>
tür k
alle ged</w>
prote ction</w>
R ennen</w>
Sch u
gesch rieben</w>
r am
P i
brit ann
au l
auf zu
stru ck</w>
el ess</w>
Pre ise</w>
pre me</w>
Th eir</w>
ötz lich</w>
z iert</w>
stopp ed</w>
var ious</w>
Verfü gung</w>
Ma j
to m</w>
In c.</w>
quar ter
Sch mid
ein ander
ac ting</w>
frü here</w>
appe ar
cont ent</w>
Fuß ball</w>
ger ne</w>
hin aus</w>
Palestin ian</w>
ti onen</w>
sch ar
c ell</w>
ha ven</w>
A sh
wer ke</w>
Sen ator</w>
Kul tur
produc ed</w>
sy l
S in
l ten</w>
J ust</w>
ch urch</w>
sex u
O li
ter e</w>
Groß britann
7 0
gr enz
sol chen</w>
C ra
I reland</w>
ar ms</w>
mit teilte</w>
in i</w>
bur gh</w>
Jap anese</w>
00 ,000</w>
cau ght</w>
Ins gesamt</w>
J am
l es
B en</w>
Centr al</w>
ad el
kt ur</w>
ep tion</w>
hal te</w>
re spec
pie ce</w>
con ne
g ath
jewe ils</w>
Jahr zeh
fi red</w>
Ver hält
dan ger
un ch</w>
devel op</w>
partic ular</w>
wen igen</w>
Fore ign</w>
m und</w>
We ise</w>
opp ing</w>
je des</w>
B ut
con f
rel ations</w>
lo h
T ay
adv antage</w>
To k
stän de</w>
g ül
t sp
verhin dern</w>
pre cher</w>
e ing</w>
ref used</w>
C a
Al i</w>
b ut
st ur
organis ation</w>
gen au
stran ten</w>
Mo der
comple ted</w>
heav y</w>
ver wal
ar tic
na he</w>
se ts</w>
i Ph
Au gen
guar an
R ol
alle y</w>
Ver wal
Ver ein</w>
R oh
schl agen</w>
ic kt</w>
minist ers</w>
D A
sc ale</w>
gew öhn
de cre
ad mitted</w>
th inking</w>
T on
Andre as</w>
direc tly</w>
Mad rid</w>
pay ments</w>
einz ige</w>
äm lich</w>
S and
W a
Hanno ver</w>
yn am
K ern
at trac
dr in
K ol
Colle ge</w>
be t</w>
K oh
de te
P lus</w>
-J ährigen</w>
P le
sel bst
ar med</w>
dou b
ier ungs
leg te</w>
Deb atte</w>
champ ion</w>
N ein</w>
Dur ch</w>
Vor wür
flo or</w>
olog ie</w>
k ir
acqu is
län ger</w>
n ations</w>
Me dic
ver fahren</w>
wir kt</w>
Bagh dad</w>
con ven
te en
2 3
ar ding</w>
we ather</w>
nut zen</w>
be obach
ör t</w>
prof essor</w>
spar tei</w>
typ e</w>
er ie</w>
fail ure</w>
traff ic</w>
it able</w>
G as
it ems</w>
l auf</w>
Sa ison
produ ce</w>
fi re
ess ing</w>
amerik anische</w>
cli ents</w>
Arbeit sp
. html</w>
is se</w>
6 7</w>
respon sibility</w>
Mon at</w>
pack age</w>
Bunde stag</w>
gesp ielt</w>
spo t</w>
Glob al</w>
keep ing</w>
increas ing</w>
Sp ec
ev ening</w>
re den</w>
Detro it</w>
sekre tär</w>
Part ner</w>
ie gel</w>
fac ed</w>
Nieder lage</w>
ser ves</w>
mid dle</w>
en g</w>
ik er</w>
be ein
Mün chner</w>
den noch</w>
di a</w>
Ber g
Span ien</w>
Ber l
sh own</w>
P S</w>
9 .</w>
high ly</w>
vi es</w>
ac ity</w>
O der</w>
B la
jo int</w>
Poliz isten</w>
Kre u
Bürger meister</w>
wahr scheinlich</w>
Me an
and a</w>
F a
pre -
kl ein
Ide e</w>
vel op
rech ts
G old</w>
kenn t
ver fü
t ner</w>
w ahl
ehem aligen</w>
Mom ent</w>
H ome</w>
quest ion
W M-
Betrieb s
Andre w</w>
car ry</w>
Demon stranten</w>
n ames</w>
be für
Vol k
Z us
frist ig</w>
sci ence</w>
wi der
geb ro
u d</w>
put ting</w>
tre ated</w>
N ie
Bo den</w>
lin ks</w>
D ou
am ing</w>
C lar
D res
schn itt</w>
step s</w>
I ts</w>
den ten</w>
ti ally</w>
spe k
Medi a</w>
sust ain
H ow
li f
h an</w>
C amer
Tür kei</w>
erwar ten</w>
a war
y st
Aus land</w>
man aged</w>
K as
An n
be au
ing s
po sted</w>
ex tra
me ist</w>
w all</w>
appro pri
Un der</w>
ab in
sor gen</w>
beispiel sweise</w>
I st</w>
dig ung</w>
tra in</w>
sp ür
reg ular</w>
k ap
Vergan genheit</w>
itz er</w>
6 6</w>
tri fft</w>
bab y</w>
schaft ler</w>
spiel e</w>
Dat en
En ter
increas ingly</w>
K auf
professi onal</w>
s a</w>
2 50</w>
Mül ler</w>
rech te</w>
En d
S -
anti cip
Zusch auer</w>
stand ard</w>
Mög lichkeit</w>
distri ct</w>
los sen
Partei en</w>
9 6</w>
ay ing</w>
er c
C as
sur ro
show ing</w>
stat us</w>
durch aus</w>
ist ic</w>
ak ers</w>
Ro ber
gel assen</w>
Franc isco</w>
ri val</w>
il ing</w>
m lich</w>
b la
Lew is</w>
geschä ft</w>
L am
Kön ig
im ag
as su
gen ie
um ped</w>
ma g</w>
ten s</w>
lar gely</w>
wer te</w>
sch rieb</w>
BS T</w>
Islam ic</w>
An hän
c ore</w>
te dly</w>
aktu ellen</w>
Fl ü
ol as</w>
Inde x</w>
an on
no twen
we is
Sta di
ch erin</w>
k at
20 -
B all</w>
un certain
P ort
gestie gen</w>
Kir che</w>
öffent lichen</w>
pati ent</w>
pre c
Kun st
ich ts
t ment</w>
ge halten</w>
Konjunk tur
sho p</w>
Stra f
pay ing</w>
lear n</w>
. or
gi ves</w>
A G</w>
de g
bro ther</w>
den falls</w>
Gaz a</w>
Ber eich</w>
N ik
n ämlich</w>
K im</w>
op tions</w>
bis schen</w>
g ran
Fr au
Bre men</w>
pas st</w>
gir ls</w>
O ri
purch ase</w>
E hr
w us
Fre und
ou d</w>
us con
H ill</w>
Hoff nung</w>
cle arly</w>
R aum</w>
PRNews wire</w>
Öffent lichkeit</w>
K el
Li ver
St ück</w>
in flation</w>
c lassi
demo krat
fif th</w>
estab l
um s
ap s</w>
is o
Bör sen
Berl uscon
de plo
S we
R us
tow ards</w>
7 2</w>
pres ents</w>
up on</w>
Nor thern</w>
g as
b ad
decis ions</w>
0 5</w>
fre qu
Ar gent
r ö
Sp ain</w>
aff ected</w>
bor ro
read ing</w>
Gl ück</w>
D on</w>
Karri ere</w>
dest ro
l am</w>
Ham as</w>
be coming</w>
gre at
An teil</w>
H ans
ob vi
propos al</w>
it als</w>
ä stin
Por tu
sch ir
ul l</w>
Mo sk
Th er
Li fe</w>
att le</w>
secon d-
in qu
kno ws</w>
1 3.
docum ents</w>
cover age</w>
event ually</w>
Mean while</w>
fol low</w>
E ff
analy st</w>
Par tie</w>
Milli on
regi onal</w>
v acc
share holders</w>
Con ference</w>
ef s</w>
J a</w>
Krie g</w>
se at</w>
d liche</w>
see k</w>
S z
be ste</w>
g ingen</w>
6 4</w>
Stro m
erfolgre ich
vie wed</w>
199 8</w>
W ill</w>
al ts
D opp
We gen</w>
ic ks</w>
ob j
li sten</w>
Sco tt</w>
differ ence</w>
ges ell
ut s</w>
k id
me tho
kon ferenz</w>
er ziel
vo ice</w>
r ag
T est</w>
Gewin n</w>
Schwei zer</w>
eff ects</w>
sur gery</w>
c ra
mov ement</w>
amm ed</w>
sch au
Per sonen</w>
li ved</w>
ne ar
Schal ke</w>
Ar me
Jo b</w>
c amp</w>
it ting</w>
z ahl</w>
o ta</w>
spre ad</w>
custom er</w>
po unds</w>
tain ing</w>
Ad minist
verk ehr</w>
Bere its</w>
cent re</w>
g a</w>
b a</w>
li eben</w>
leit er</w>
c u
H S
gr and
tar ge
rech t
com par
Bra sili
ge zeigt</w>
proc e
m einer</w>
ra g</w>
bu ying</w>
m m
ren e
A th
ak s</w>
gel t</w>
Vertre ter</w>
Ro ck</w>
la h</w>
d ents</w>
wor se</w>
vo tes</w>
Lin k
p ick</w>
D D
fa ir
k el
T äter</w>
hol ds</w>
resp ect</w>
part ner
L im
T ony</w>
ap e</w>
me ant</w>
we ist</w>
St ill</w>
beg innt</w>
bri dge</w>
Ex ecu
E v
set ting</w>
Schl ag
Di re
re si
4 8
pri mar
ex ac
mo stly</w>
marri age</w>
re vol
t ö
Te am
gelö st</w>
reta il</w>
nis sen</w>
Me dical</w>
Gr and</w>
f ang
l or</w>
Y et</w>
her aus
gan zen</w>
har t</w>
F un
t v
h i</w>
dig ital</w>
Is land</w>
b ahn</w>
mo del
com man
advert ising</w>
j ury</w>
bek ann
Wester welle</w>
at or
Verk auf</w>
low -
Gre en
N ähe</w>
FD P-
te sten</w>
bo t
mehr eren</w>
sen ator</w>
fall ing</w>
N ür
gu ard</w>
m ir
N H
fri end
D üssel
prof iti
ash ed</w>
St ru
Kap ital
V ar
pro gramm</w>
Her steller</w>
sch lim
ou ts</w>
D un
gri ffen</w>
K urs
Großbritann ien</w>
ad d</w>
F err
d ol
Spiel en</w>
N AS
R ein
O sc
poli s</w>
Geb ur
as king</w>
Ari z
c ting</w>
secon ds</w>
A gency</w>
accoun ts</w>
sch i
pol l</w>
sw ahl</w>
li ert</w>
wär en</w>
ch oo
tourn ament</w>
Fir men</w>
es cap
L a</w>
Ver letz
ed a</w>
H all</w>
6 2</w>
op in
chec k</w>
Ver einig
e di
m einen</w>
Ge gen</w>
Mich igan</w>
zufrie den</w>
fac ility</w>
g lichen</w>
stark en</w>
0 1</w>
air port</w>
sp rä
m assi
bo ys</w>
it ar
L aw
rema ining</w>
Invest oren</w>
writ ing</w>
R hein
Musi k
0 2</w>
U kra
t um
be gan
we ak
itz e</w>
er fül
- up</w>
ve au</w>
nor thern</w>
schle cht</w>
d ner</w>
Finanz minister</w>
D .
H op
Akti e</w>
tro tzdem</w>
Sel bst</w>
FT D.de</w>
Ste fan</w>
ow a</w>
krä fte</w>
W ien</w>
A N</w>
dec la
langu age</w>
er er</w>
o is</w>
sc ore</w>
m as</w>
mo dern</w>
uns er</w>
D op
D all
hel ps</w>
7 1</w>
di agno
separ ate</w>
ear ned</w>
commit ment</w>
ü hr
iel le</w>
war nt</w>
boo st</w>
dis covered</w>
U N</w>
opportun ities</w>
for dern</w>
war ning</w>
it a</w>
alle g
z ü
Rom an</w>
gro w</w>
fe u
schließ end</w>
convic ted</w>
0 7</w>
sch we
ad op
mo sp
Australi an</w>
Organis ation</w>
gewäh lt</w>
F al
w on
Ar ti
mut lich</w>
J im</w>
For sch
verantwor tlich</w>
stre ets</w>
S oc
n i
Zusammen arbeit</w>
w illing</w>
s inn
announ cement</w>
Sicher heit
stor m</w>
pro vince</w>
ic es</w>
auth or</w>
pl ays</w>
6 8</w>
d d
Liver pool</w>
brit ischen</w>
mer k
cur ren
law yers</w>
über rasch
danger ous</w>
de ck
ver letz
Jer sey</w>
rei fen</w>
Itali an</w>
prof its</w>
air craft</w>
sch au</w>
ver trag</w>
c a
I mp
Su preme</w>
ul tim
neg ative</w>
ko stet</w>
pre ise</w>
sch eme</w>
kon kre
ex erc
n or</w>
simp le</w>
it te</w>
fe eling</w>
ec k</w>
er o
E Z
Lu ft</w>
sex ual</w>
comple x</w>
D N
ist ische</w>
J on
auth or
deli ver</w>
p ush</w>
Tex t</w>
M ens
Die go</w>
I C
er ster</w>
Brüs sel</w>
erhe b
in su
Da ily</w>
sp ann
ha fen</w>
Bec k
Re gel
t ely</w>
ph ones</w>
L ord</w>
V e
bom b</w>
Gew inn
Her r
lei st
ordin ary</w>
Neu es</w>
Musli m</w>
ach ers</w>
Geschäfts führer</w>
mer t</w>
ver lan
P sy
Z eh
West en</w>
sätz e</w>
commun ities</w>
V iel
soc iety</w>
it ts
R ud
ex pressed</w>
C r
environ mental</w>
St elle</w>
for men</w>
Bar cel
four -
Ariz ona</w>
Chr ys
f ying</w>
stär k
S ant
on ents</w>
il ton</w>
terror ism</w>
Gesprä che</w>
pro min
ad just
Num mer</w>
V oll
7 .</w>
tr ust</w>
T ier
6 3</w>
den de</w>
L ang
im ple
Adres se</w>
än dern</w>
ord nung</w>
lin ge</w>
Vor stand</w>
S i
Um satz</w>
Her bst</w>
bo dies</w>
Fo undation</w>
Patri ck</w>
pic ture</w>
cl ass
Lou is</w>
fic ation</w>
at z
be steht</w>
ic ken</w>
Col umb
dar in</w>
b ann
ein er
speci fic</w>
reve aled</w>
d opp
t äu
D on
is land</w>
scienti sts</w>
ähri ger</w>
ple ase</w>
jem and</w>
fac ilities</w>
hous es</w>
V ene
re publi
magaz ine</w>
pan el</w>
lit er
near by</w>
mö gen</w>
reas ons</w>
Pati enten</w>
sch m
pre sence</w>
10 ,
gew ann</w>
sm aller</w>
li ghts</w>
Büh ne</w>
pur su
6 9</w>
mar ried</w>
li gt</w>
feat ures</w>
h urt</w>
it ation</w>
el ected</w>
fe es</w>
G ei
Ste p
Ant wort</w>
bo ur
To des
at ure</w>
7 7</w>
geb iet</w>
th in</w>
allow ing</w>
dou bt</w>
it e
just ice</w>
-- -</w>
on er</w>
de -
sho ts</w>
secur ities</w>
Ver bin
Sim on</w>
enn ung</w>
Instit ut</w>
th west</w>
Mag az
D inge</w>
sch lu
ag ues</w>
Besu ch</w>
so und</w>
P rü
ans as</w>
scre en</w>
elec tron
entwick elt</w>
reduc ed</w>
ö ster
applic ations</w>
K ein</w>
Pub lic</w>
ger ufen</w>
negoti ations</w>
l s
ur ged</w>
is s</w>
pre par
sch were</w>
j ur
Can adi
Hosp ital</w>
Hand els
har m
Jo urnal</w>
Pun kt</w>
sec ure</w>
ath le
law makers</w>
lin ked</w>
ey es</w>
stre t
neh in</w>
hab t</w>
S eb
sitz t</w>
H ur
französ ischen</w>
ack er</w>
cre w</w>
campa ig
M E
fres h</w>
ten de</w>
ver ab
O ut
li eb
figh ters</w>
rä fte</w>
rich ten</w>
Qu ali
Parlam ent
i ellen</w>
O ver</w>
Mer ce
astrop he</w>
z erst
her aus</w>
p ain</w>
ad voc
st ets</w>
Verantwor tung</w>
S ab
To yo
Nachrichten agentur</w>
Kur z
z iger</w>
Schmid t</w>
St atist
D A</w>
con servative</w>
6 .</w>
De velop
k einer</w>
versu chen</w>
spr ing</w>
industri al</w>
1 1
professi on
Wi es
cap acity</w>
Nür n
b ay
ig ung</w>
n esses</w>
zie hung</w>
mo tor
t y
er mittel
7 8
ie ten</w>
Arbeits lo
Y an
Iran ian</w>
disk u
fi ve-
ein st</w>
fin ding</w>
Z um
con ver
distri bu
Ar sen
institu tions</w>
mon g</w>
or ders</w>
sc en
mi um</w>
promis e</w>
Gut tenberg</w>
as ing</w>
wech sel</w>
writ er</w>
Maß nahmen</w>
syl van
s ons</w>
D .</w>
Lei stung</w>
deg ree</w>
k eit
Mid dle</w>
pub l
Y ou
rel ess</w>
6 1</w>
Re form</w>
inter essi
Camer on</w>
ü ter</w>
Cali f</w>
Ver lu
Inform ation</w>
N u
vor zu
Bl ack</w>
rul ed</w>
Sch wer
Ermitt lungen</w>
Sh i
Ä gyp
re ality</w>
is se
s ought</w>
Hinter grund</w>
T wit
Besu cher</w>
pl ötzlich</w>
est s</w>
beh aup
li ge</w>
ent y</w>
Fran z</w>
Radi o</w>
Stra ßen
dem nach</w>
k ehr</w>
w ins</w>
n es
T ore</w>
ö ße</w>
In solven
he ar
altern ative</w>
coun ter
pul led</w>
exp ensive</w>
spr ün
tra f</w>
B ow
communic ations</w>
requ est</w>
coun ts</w>
hän gt</w>
so zial
challeng es</w>
fel low</w>
Sar ah</w>
ber icht</w>
d ach
ge fallen</w>
be trei
Penn sylvan
Mei ster</w>
sto ß</w>
bel ast
L oh
frau d</w>
mid -
f en
stu dies</w>
St ellen</w>
def ic
ü r</w>
e ase</w>
troub le</w>
inn ings</w>
holi day</w>
actu al</w>
mein t</w>
Auf gabe</w>
Bran che</w>
mög liche</w>
pre h
A ra
ge troffen</w>
prin cip
weit en</w>
N etz</w>
fli ct</w>
blo ck</w>
di vision</w>
C lau
perf ect</w>
om b
se it
ar ran
stei gt</w>
ab use</w>
T aus
fam ous</w>
resc ue</w>
Tages zeitung</w>
interest s</w>
Stu denten</w>
fan gen</w>
disc uss
T at</w>
Fern sehen</w>
Ele c
erk ennen</w>
Onlin e-
1 1.</w>
zeu gen</w>
Execu tive</w>
Aug .</w>
w under
adel ph
be grün
g ünst
Reser ve</w>
tra dition
ir y</w>
f at
Put in</w>
S ex
car rying</w>
D al
lie ber</w>
E ing
si onen</w>
Z er
Han del</w>
b ü
Phil adelph
S ud
sum mit</w>
gesch ichte</w>
d am</w>
St ür
ho ben</w>
le ts</w>
Wh y</w>
be deutet</w>
ic op
Ergeb nisse</w>
Mur ray</w>
Außen minister</w>
spe aking</w>
T em
Den noch</w>
re bo
alis mus</w>
H ist
gi ant</w>
loc ated</w>
Journal isten</w>
r ally</w>
Bec k</w>
Pos ition</w>
ter rit
Re port</w>
stan ces</w>
199 7</w>
bin ation</w>
gre w</w>
acc ept</w>
Mon t
Vi elleicht</w>
St ud
Barcel ona</w>
Chrys ler</w>
ing ham</w>
requ ire</w>
an gel
ti m</w>
Re ise</w>
Pr ince</w>
ver pflich
k auf
associ ated</w>
decla red</w>
a ß</w>
tr at</w>
S C</w>
F ig
v als</w>
R oll
Person al
St amm
stimul us</w>
Stein meier</w>
p age</w>
bed ingt</w>
Fir st
ent ri
re y</w>
fu hr</w>
T M</w>
on lin
199 5</w>
religi ous</w>
ter en</w>
ra f</w>
D r</w>
Verteidig ungs
Pro duc
B A
sp er
Ham ilton</w>
j ahr
w en</w>
hand eln</w>
brit ische</w>
Mein ung</w>
un employment</w>
sitz en</w>
or -
B ad</w>
Ro ck
bed ing
Her r</w>
determin ed</w>
welt .de</w>
dan ken</w>
Mei ster
ac ken</w>
invest ments</w>
Mens ch</w>
Gef än
Mar ia</w>
erfolgre ich</w>
Ko ch</w>
Bei de</w>
si x
A mong</w>
grei fen</w>
Publik um</w>
spre cher</w>
K am
allow s</w>
fl uss</w>
occ up
Stand ard</w>
k ürz
L eu
tag s
Be zir
emis sions</w>
lo ts</w>
glau bt</w>
execu tives</w>
G O
promis ed</w>
an gen</w>
s anc
Pe king</w>
adv ice</w>
li s</w>
str ation</w>
G ir
Schwei z</w>
G D
ag on</w>
ast ian</w>
S A</w>
Tim e</w>
www. welt.de</w>
j ap
l ying</w>
el son</w>
ac com
lei sten</w>
Dre i</w>
foli o</w>
Sek unden</w>
sch aff
d ent
ag ree</w>
au ßerdem</w>
Al tern
e an</w>
je denfalls</w>
ter y</w>
ff enen</w>
Pennsylvan ia</w>
Har ry</w>
be st
ho t</w>
2 2
ein gel
d rei
ell o</w>
Kranken haus</w>
Rei he</w>
H us
tel eph
pen dence</w>
Step hen</w>
kämp fen</w>
sur ve
wat ching</w>
or ie</w>
H im
E ben
Ah mad
t isch</w>
Z ur</w>
Dies es</w>
v ac
t n
bestä tigte</w>
rei ben</w>
Philadelph ia</w>
im age</w>
repor ting</w>
NAT O</w>
govern ments</w>
y en</w>
E very
ar a</w>
H essen</w>
pp en</w>
Dav is</w>
Re b
health y</w>
em en</w>
th r
ist isch</w>
estim ates</w>
impro ved</w>
Dien st
W aff
hö ri
H under
F und</w>
- An
Kore an</w>
Drit tel</w>
con flict</w>
ten e</w>
w ig
Bri an</w>
I M
5 8
ger aten</w>
E he
Woh nung</w>
estab lished</w>
rech net</w>
Rah men</w>
e- mail</w>
itu de</w>
D V
ol itik</w>
nat ure</w>
feh lt</w>
tempor ary</w>
re sol
Lie be</w>
deci de</w>
kom mun
le i</w>
ed y</w>
Bör se</w>
Pol itik
cer em
steh enden</w>
E t
sta at</w>
J ung
individu als</w>
b ru
D S</w>
ey e</w>
bestä tigt</w>
Su che</w>
Bundesk anzlerin</w>
fu n</w>
li t</w>
Br un
industri e</w>
R yan</w>
comp ensation</w>
Schließ lich</w>
Cha ir
Z un
Mi ami</w>
N ations</w>
fre und
Stra ßen</w>
a sion</w>
nö tig</w>
Unterneh men
F .
bi o
W ag
terror ist</w>
cut ting</w>
z eiten</w>
ol a</w>
en for
test ing</w>
E astern</w>
per cent
Auf tritt</w>
Amerik aner</w>
is ra
R ights</w>
zei chen</w>
Inter ne
we aring</w>
i z</w>
Fahr er</w>
7 3</w>
Fin ale</w>
Pro vin
Re z
entfer nt</w>
fe ars</w>
frei en</w>
1 000</w>
ali a</w>
Är zte</w>
In stead</w>
jüng sten</w>
Z wis
ei ch
ander es</w>
GA AP</w>
I .</w>
exac tly</w>
de als</w>
gu id
c ts</w>
Berluscon i</w>
O sten</w>
ver län
comple tely</w>
qu id
w an</w>
an den</w>
p ir
3 9
gebro chen</w>
Verkehr s
sa d
20 13</w>
Ver sicher
sib ly</w>
oc cur
Joh ann
ho fft</w>
exp ects</w>
Bo b</w>
Ph illi
Plän e</w>
- P
ar ily</w>
Def ense</w>
Go tt
M em
Wachst um</w>
ful l-
dis h</w>
Sco tt
Nachfol ger</w>
d rück
n al</w>
head s</w>
verb in
BIL D</w>
Yo ung</w>
Tay lor</w>
T emp
G abri
em an</w>
star ke</w>
K lim
v inc
br auch</w>
Tit el
über nehmen</w>
itä n</w>
off s</w>
n i</w>
Ri es
circ um
den den</w>
passi ert</w>
oh nehin</w>
et ings</w>
ap art
pl ants</w>
car bon</w>
ti er
A BC</w>
Her z
Her aus
s amen</w>
st ent</w>
ra d</w>
t elling</w>
N ich
In come</w>
Dall as</w>
gra de</w>
Ges icht</w>
Kop f
gen eh
Z in
Off ici
ab gel
mein te</w>
mon d</w>
C ru
ver stär
G ates</w>
ad en
k ill</w>
Vorwür fe</w>
G a
us en</w>
Go d</w>
der te</w>
glau ben</w>
ob lig
ges etz</w>
po und</w>
C o</w>
ag ent</w>
re member</w>
Po st
Le verk
zahl reiche</w>
prote sts</w>
fin ish</w>
Er war
gres sive</w>
GM T</w>
inst it
initi al</w>
sav ings</w>
v ul
schätz ung</w>
Nach frage</w>
gu y</w>
alis m</w>
f ris
St ars</w>
zäh len</w>
Direc tor</w>
schö n</w>
iPh one</w>
P la
Sch um
rou gh</w>
Mit tel</w>
behör de</w>
t ischen</w>
E gyp
br inging</w>
L yn
Ro d
ter s
deutsch er</w>
strug gling</w>
A gent
7 4</w>
Administ ration</w>
Strat eg
T ai
Al t
B ang
beg onnen</w>
Zwei fel</w>
isra el
bür ger
gain s</w>
lö sen</w>
k raft</w>
Ale x</w>
pro ve</w>
I owa</w>
auth ority</w>
star ts</w>
sogen annten</w>
inten si
pre m
hum an
o vic</w>
part ners</w>
C i
lar ger</w>
amer as</w>
M eh
Pub lished</w>
bra in</w>
W un
m än
Nat ürlich</w>
bank rup
A li
First Call</w>
A C</w>
verur teilt</w>
Zeit punkt</w>
tion ed</w>
f ast
K ün
G ul
F ur
s au
Europä ischen</w>
B and</w>
Zwis chen
Kontrol le</w>
Feb .</w>
tem per
conduc t</w>
ri es
Olymp ics</w>
Fre und</w>
sat is
P A</w>
wich tige</w>
Kun st</w>
b a
entde ckt</w>
at isch</w>
dri ven</w>
7 6</w>
m äch
d ited</w>
el ine</w>
bro ken</w>
müs ste</w>
W rit
Democ rat</w>
K enn
zeich nete</w>
m bo
ur al</w>
al- Qa
m on</w>
ungsp ro
vic tim</w>
Bec ause</w>
ik a</w>
R ü
un abhän
Mor gen</w>
Kul tur</w>
Win ter</w>
head ed</w>
Gebäu de</w>
Por sche</w>
Il lin
el im
univers ity</w>
F R-
L t
al em</w>
Pac i
Z im
Sto ck</w>
ve z</w>
extrem ely</w>
B .</w>
es ch
al ties</w>
stell ungen</w>
igh t
bun des
n d</w>
Minist ry</w>
C BS</w>
For ce</w>
Asi an</w>
influ ence</w>
Er st
Ih nen</w>
pri or</w>
kritis iert</w>
present ed</w>
J obs</w>
uni que</w>
6 8
al co
k am
Kom ment
defe at</w>
sli ghtly</w>
To p</w>
ir ing</w>
Ne ue</w>
ti ef</w>
Fo x</w>
bur y</w>
bot tom</w>
sto ck
cul tural</w>
re bel
Energ ie</w>
exp an
offic es</w>
hol e</w>
be troffen</w>
T -
incre ases</w>
kehr t</w>
CS U-
sie g</w>
essi ons</w>
f are</w>
re mo
ri t</w>
sch ä
weit e</w>
sent ence</w>
Chair man</w>
Scott ish</w>
passen gers</w>
zurück ge
fle x
f tung</w>
f ish</w>
organiz ations</w>
Gaddaf i</w>
per man
fin ancing</w>
dür ften</w>
PRNewswire- FirstCall</w>
interest ed</w>
Schl uss</w>
M illion</w>
Te ams</w>
Paci fic</w>
do zen</w>
inten ded</w>
K ro
ed ge</w>
pre gn
ut ing</w>
f low</w>
wichtig sten</w>
ge habt</w>
appro val</w>
alleg ations</w>
stei ger</w>
zu gleich</w>
appar ently</w>
W it
auf s</w>
Dort mund</w>
u k</w>
r on</w>
br ut
d adurch</w>
Konkurren z</w>
rich tung</w>
fem ale</w>
Milliar den
Akti v
internation ale</w>
Atlan ta</w>
z ielt</w>
me d
cle an</w>
li st
woun ded</w>
fas st</w>
restau rant</w>
ti er</w>
-- --</w>
er ne</w>
u cht</w>
susp ect</w>
z iti
gewor fen</w>
2 1
f ährt</w>
st ake</w>
St är
M ir
hel icop
ro oms</w>
el ed</w>
un likely</w>
car ri
Flug hafen</w>
F ak
verän dert</w>
ak zep
J ur
hin zu</w>
aus län
ten den</w>
doc tor</w>
- to-
steu er</w>
sh el
susp ected</w>
ri can
ec tions</w>
t ant</w>
Hou ston</w>
star tet</w>
ab gesch
R as
D omin
entw ickl
Liby en</w>
si ght</w>
Ro ad</w>
c us</w>
Vide o</w>
my self</w>
ma d</w>
stra h
T H
H as
cre ating</w>
si g</w>
Mob il
onlin e.de</w>
wir ken</w>
or gt</w>
C ast
n- tv
out standing</w>
Bay ern
B ou
rej ected</w>
7 8</w>
ou l</w>
teleph one</w>
R und</w>
w ä
K eine</w>
erinn ert</w>
eas ily</w>
Hen ry</w>
sy n
aim ed</w>
Lin ie</w>
tou ch
appropri ate</w>
G -
Demok rati
St and</w>
bo tt
th e-
critic ism</w>
s la
pro test</w>
fest genommen</w>
geplan ten</w>
x es</w>
ein ger
j ail</w>
Yan ke
4 9
W ie
charac ter</w>
Be deut
fil ms</w>
S ign
ig ation</w>
ast s</w>
immedi ate</w>
lo ad</w>
comb ined</w>
möglich erweise</w>
compet itive</w>
umst rit
au ßen</w>
kl agt</w>
äu fer</w>
al u
Kre is
prü fen</w>
Pakist ani</w>
ex hib
gan gs
sch auen</w>
l esen</w>
Ur lau
Al len</w>
Illin ois</w>
L og
s low</w>
et tel</w>
ol er
tur ing</w>
su d
Mar ke</w>
Kran k
ge fordert</w>
Nach dem</w>
low ing</w>
Sch ön
w ander
win d
MP s</w>
L is
n-tv .de</w>
gi gen</w>
be tra
Frie den
mann schaft</w>
g rie
Toyo ta</w>
prosec utors</w>
acci dent</w>
mar t</w>
trag s
co alition</w>
G las
stra fe</w>
i or
Sp ace</w>
wid ely</w>
ban ken</w>
Be obach
forec ast</w>
sel ten</w>
Ser ie</w>
pen alty</w>
ti erten</w>
t tem
No ten
subsi di
in son</w>
a ward</w>
R af
Schul en</w>
w onder
Oh ne</w>
iel ten</w>
gener ally</w>
Ma il</w>
20 .</w>
J enn
ub le</w>
pen ding</w>
re ck
al a</w>
pe ac
S her
K urs</w>
Con su
F BI</w>
ell a</w>
ow ed</w>
par liament</w>
St ri
r are</w>
ff s</w>
Fre unde</w>
physi cal</w>
P ic
arti cle
buil dings</w>
H amp
cri mes</w>
mo tiv
Die ter</w>
u l</w>
l eng
Er klärung</w>
glau be</w>
politici ans</w>
b rief
kl ei
stä d
. .</w>
N er
sug gest</w>
c tive</w>
bereit et</w>
threat ened</w>
id ent
scri p
N ad
al lies</w>
rec ru
may be</w>
L -
F en
mark t
Dopp el
BM W</w>
hop ing</w>
G or
Famili en</w>
confi dent</w>
percent age</w>
Brand en
prü ft</w>
ak ed</w>
Dan ach</w>
Ban ken
vorsitz ende</w>
her vor
S ter
Mus har
Schau spiel
V eg
adv anced</w>
positi ons</w>
deli very</w>
auf hin</w>
form ed</w>
ho p</w>
spiel te</w>
des ign
G ames</w>
colle agues</w>
b ein
com fort
spr ung</w>
ac tors</w>
Rück tritt</w>
streng th</w>
R and
conduc ted</w>
c nt</w>
ber n</w>
Se e</w>
D onald</w>
ro ll</w>
Det ails</w>
Tab ellen
auf grund</w>
M iller</w>
län dern</w>
chang ing</w>
rich ter</w>
FR- online.de</w>
per fe
Pol en</w>
betei ligt</w>
om a</w>
stec kt</w>
ti ed</w>
am in</w>
n annte</w>
bo y
consider ing</w>
M ie
g ä
pos sibility</w>
Bes onders</w>
basi c</w>
3 5
Je der</w>
ver mutlich</w>
mar gin</w>
se as</w>
introduc ed</w>
B au</w>
al bum</w>
Tar if
if y</w>
k m</w>
G il
russ ischen</w>
offen sive</w>
Arme e</w>
su res</w>
Lu f
rä ger</w>
sch eit
n ungs
Ch em
An griff</w>
8 8
inf ra
we ar</w>
In tegr
Al les</w>
des er
ges sen</w>
se es</w>
Stim mung</w>
ge tr
vor aus
sever e</w>
sto cks</w>
ic an</w>
R al
15 .
ber eich</w>
Canadi an</w>
Haf t</w>
ell es</w>
ah nen</w>
unter wegs</w>
f ly</w>
secre t</w>
Im mer</w>
ti e
ed ly</w>
di ert</w>
ber u
M etro
vis itors</w>
vill age</w>
fash ion</w>
Be fore</w>
em br
Col or
se ats</w>
m -
Welt meister</w>
g lo
bie ter</w>
L ok
pic ked</w>
2 ,000</w>
clos ing</w>
öster reich
las h</w>
D ow</w>
wor ried</w>
tor en</w>
li sted</w>
de puty</w>
an ger</w>
ang ers</w>
k il
C D</w>
r unde</w>
Be ding
don es
1 20</w>
no tes</w>
ver age</w>
Konz ern
ro ck</w>
Wahl kampf</w>
Comp uter</w>
y o</w>
ter te</w>
recor ded</w>
d ance</w>
kom me</w>
positi on
L icht</w>
Wh it
gen annt</w>
7 9</w>
Arsen al</w>
Al as
suppor ted</w>
citi zens</w>
dru ck
Mat th
manufactur ing</w>
stor ies</w>
lear ned</w>
poll s</w>
Gre at</w>
Par te
Gr enze</w>
sw it
po the
Ver trauen</w>
ter ri
gr at
ler nen</w>
bewus st</w>
au ern</w>
ästin ens
P fle
gem el
Be wegung</w>
Jud ge</w>
is ierung</w>
er s
Konz ept</w>
al og
at ten</w>
punk te</w>
se m
prof ile</w>
th in
hal f-
mu seum</w>
ein st
Sch utz</w>
L ag
iz ation</w>
Li ke</w>
pay ment</w>
On ly</w>
de p
gesam te</w>
Con t
le u
loc ation</w>
un ten</w>
Braz il</w>
199 6</w>
be tre
gressi onal</w>
Jah re
erhö h
e ast</w>
grie ch
ent täu
Wer k</w>
g am
M es
contr acts</w>
re presents</w>
Schw ein
vo ting</w>
Nas da
ag ents</w>
cor rec
Ris iko</w>
iz i
D I
ent ered</w>
S än
bo te</w>
er reich
The ater</w>
N ah
wal ked</w>
Sch ri
analy sis</w>
sow ohl</w>
kan did
Men ge</w>
Disk ussion</w>
T ru
ätz e</w>
Ch urch</w>
Bro o
Zusammen hang</w>
tra in
Kre is</w>
Ber at
co ast</w>
Que en</w>
M ik
bisher igen</w>
mes sag
big ger</w>
an geblich</w>
H ir
tax pay
Gefüh l</w>
europä ische</w>
ish ment</w>
ei m</w>
B ol
abin et</w>
Al -
An sicht</w>
rel atively</w>
Gra d</w>
anon ym
sen de</w>
ra id</w>
fl ü
Mit glied</w>
D ir
un able</w>
en erg
1 2,
Ein ige</w>
Mushar raf</w>
20 .
H ere</w>
bere ch
mom ent
ti ces</w>
Pe ter
collap se</w>
L ev
k ennt</w>
Cath o
writ e</w>
I ris
a c</w>
and es</w>
J ack</w>
stre am</w>
Z E
tag s</w>
Man hat
0 6</w>
Ge gent
Wissen schaftler</w>
h ier
st atist
Span ish</w>
Rest au
Au ff
sen der</w>
ati v
Christ mas</w>
me etings</w>
w and</w>
deter mine</w>
Ye ar</w>
voll er</w>
end gül
Kon sequ
vir us</w>
disap pe
Offic er</w>
te sted</w>
appear ance</w>
Vor jahr</w>
vol le</w>
sh ir
un ge
er lau
Au stri
häu fig</w>
civili ans</w>
z ieren</w>
D au
kno wle
m ate</w>
re quest
00 -
artic le</w>
0 3</w>
began n</w>
equi val
dra wn</w>
g ay</w>
bre aking</w>
eh o
Kandid aten</w>
14 .
d ite</w>
am as</w>
investig ators</w>
al tet</w>
strate gic</w>
L ü
Um frage</w>
ge dly</w>
fin als</w>
ck en
Bro ad
conne ction</w>
ther e
H it
ur ing</w>
lo ck</w>
er e
a ders</w>
ther wise</w>
fli cht</w>
Ch an
cat eg
Bo ch
mis s</w>
re u
Eig ent
lu bs</w>
How ard</w>
suggest s</w>
schl ag
suff ering</w>
con ten
Ara b</w>
Up dated</w>
an ci
Fo tos</w>
Pro gno
at ers</w>
bet eilig
se mi
Dub ai</w>
Mr s</w>
eb ack</w>
sport ation</w>
Mat eri
der -
T sch
D ut
main tain</w>
n ungen</w>
eb all</w>
eth n
Heraus forder
Bo tschaft</w>
li mit</w>
Schie ds
in spec
V W</w>
Ver fassungs
wer fen</w>
ei ster
-S ie
ati cally</w>
kti ve</w>
app ed</w>
abe th</w>
Color ado</w>
Bl ut
hal tung</w>
anim als</w>
Comp u
fe wer</w>
im ages</w>
bet ont</w>
Mor gen
lin k</w>
N BC</w>
Mo tors</w>
feh len</w>
f t-
Is lam</w>
Be k
st itu
p ace</w>
st off</w>
on z
ade my</w>
Lö w</w>
b ess
1 1,
Le g
ges per
Bild ungs
isch -
Produ ktion</w>
el and</w>
t cy</w>
gu ys</w>
Al li
Tra ining</w>
ver dient</w>
Stein br
sec tion</w>
Vor gän
K i
sur prise</w>
R ak
au to</w>
ig er
Ukra ine</w>
fan den</w>
re lief</w>
verli eren</w>
alo g</w>
I W
te x
Bedeut ung</w>
plat form</w>
Leit er</w>
ut ely</w>
dic t</w>
Ed wards</w>
mut maß
Europ as</w>
Ein druck</w>
M ig
Qu o
w ick
t ut</w>
un ken</w>
199 0</w>
du le</w>
Akti on
f ers</w>
Pas sag
E R</w>
sh ut
volun te
n ommen</w>
initi ative</w>
zie mlich</w>
si x-
o red</w>
möglich st</w>
überzeu gt</w>
ch ron
An ton
clos er</w>
s inger</w>
F is
com mission</w>
eng l
Som mer
H ann
un its</w>
H ay
ber üh
verl or</w>
Bet ro
Syst ems</w>
L aden</w>
ass ault</w>
Mosk au</w>
Nasda q</w>
N ick</w>
Weihnach ts
car ds</w>
colle ction</w>
m outh</w>
le g</w>
Gip fel</w>
we alth</w>
L I
Twit ter</w>
su s</w>
durch schnit
An dy</w>
u si
Quali fik
gleich zeitig</w>
y es</w>
seri ously</w>
Soc iety</w>
ern t</w>
P ass
Blu e</w>
Wettbewer b</w>
deliver ed</w>
coun ty</w>
defic it</w>
an te</w>
un klar</w>
oper ate</w>
chn ungen</w>
u tion
öffent lich</w>
h asn</w>
experi enced</w>
st ück</w>
w ill
alle gedly</w>
cover ing</w>
bir th</w>
B O
ran g</w>
f illed</w>
signific antly</w>
lu x
R ö
ne tz
k in</w>
no t
F A</w>
R um
Gr enz
P ause</w>
l an</w>
Nic olas</w>
ol it
Se ver
Go v.</w>
c ells</w>
con vers
Se x</w>
progr amm
k ör
ner v
Manhat tan</w>
Gr enzen</w>
Ser b
sit ting</w>
Wer t
Mod ell</w>
Lin ke</w>
crit ics</w>
it ely</w>
Mög lichkeiten</w>
Zentr um</w>
es -
reg ime</w>
immer hin</w>
Fre iheit</w>
wh at
ein gesch
sa d</w>
b ahn
viol ent</w>
erklär en</w>
de v
verk aufen</w>
Tr ust</w>
n in
frü hen</w>
F ast</w>
P ent
reti red</w>
G ün
Jose f</w>
ben ö
blo ck
ho ffen</w>
l ending</w>
Ange klag
Veg as</w>
M un
sta aten</w>
Anhän ger</w>
Amerik a</w>
T as
hö her</w>
un less</w>
französ ische</w>
s hr
fra u</w>
Col omb
mp tion</w>
B ün
f ts</w>
Auf trag</w>
kre is</w>
konz entri
se where</w>
e asi
A ktion</w>
gesch eit
Stim me</w>
Air lines</w>
Z .</w>
ha ir</w>
uli ert</w>
ück en</w>
Arti kel</w>
fin dings</w>
hand ed</w>
yo unger</w>
multi ple</w>
l ay
Reg isse
Mas sen
schütz en</w>
Verl ust</w>
Wh o</w>
Oli ver</w>
v ierten</w>
Vene zu
Develop ment</w>
al tung</w>
Ko so
mark ed</w>
Vor aus
get an</w>
be ck</w>
c e-
wir ft</w>
leit et</w>
R end
Wech sel</w>
tre at</w>
con serv
R enn
se he</w>
Or d
ast ic</w>
Währ ungs
J ord
dri vers</w>
ab and
spo t
curren cy</w>
att acked</w>
sh ut</w>
aff ect</w>
ähn lich</w>
Kra ft
A T</w>
C ash</w>
V ice</w>
S ony</w>
t oll</w>
ken nen</w>
argu ed</w>
coun ter</w>
T V-
Wolf sburg</w>
General sekretär</w>
Über nahme</w>
push ed</w>
L en
dre w</w>
insi sted</w>
C ou
Fäl len</w>
Tur key</w>
K lei
comp lic
n ennt</w>
S por
ple ased</w>
fo under</w>
lauf enden</w>
I R
so -
occur red</w>
Ab dul
Führ ungs
sätz lich</w>
Sou thern</w>
invol ving</w>
com preh
low s</w>
bek annte</w>
Rück kehr</w>
il leg
h n
P el
t ons</w>
R em
C y
Zim bab
Zu vor</w>
opin ion</w>
b ark
R ang</w>
bu ch</w>
ha i</w>
sett lement</w>
be auf
Me tern</w>
E ric</w>
h em
de vices</w>
Mo sco
Wor ten</w>
Se con
Lei p
In dones
ver kün
Sch ei
o es</w>
199 4</w>
W oods</w>
the ast</w>
K .</w>
achie ve</w>
fa vo
Ab u</w>
p ip
V alley</w>
friend ly</w>
in stru
x is</w>
. at</w>
tri eben</w>
N az
s ong</w>
F ein
li eren</w>
ail ed</w>
überrasch end</w>
primar ily</w>
unser en</w>
Jose ph</w>
elim in
W erk
ge -
in spi
Ver s
la di
exc ept</w>
demo kr
V an</w>
sp on
Lt d</w>
geb ung</w>
C oll
Erd be
ei en</w>
groß es</w>
L or
Steu ern</w>
exper t</w>
Di plom
man chmal</w>
g oods</w>
public ly</w>
Er kennt
aff ord</w>
B est</w>
sp rü
u tive</w>
l ass</w>
sat ell
Sp aß</w>
dire ktor</w>
Wi ener</w>
port folio</w>
op pos
neigh b
T A</w>
m ass</w>
ut or</w>
m ale</w>
her self</w>
ti s</w>
Schä uble</w>
c in
ein gesetzt</w>
clo sely</w>
su m</w>
Heim at</w>
T ö
M ast
re ments</w>
Ira k</w>
qu ick</w>
Zei chen</w>
Es sen</w>
Sing ap
D ig
W agen</w>
democr acy</w>
L iste</w>
acquis ition</w>
ver mu
ar ab
bel e
knowle dge</w>
DF B-
C er
down turn</w>
Gener ation</w>
at ri
provi der</w>
än dert</w>
th ly</w>
et ary</w>
19 .</w>
st ations</w>
Sch rö
d ritte</w>
H SV</w>
15 .</w>
clu bs</w>
re ig
mach ten</w>
mittel n</w>
ra d
le c
er ous</w>
g g
war nte</w>
bek am</w>
Jo ach
unterstütz t</w>
st un
re moved</w>
on going</w>
ti ons
happ ens</w>
Min nes
f ein
ö sen</w>
Vorstand s
9 8</w>
m asch
jähr lich</w>
ver stehen</w>
miss ile</w>
r ated</w>
kritis ierte</w>
k olle
n av
di l
W all
dr ama</w>
A v
Al an</w>
F ood</w>
pos sibly</w>
On ce</w>
er ischen</w>
www. n-tv.de</w>
Er de</w>
Eig en
be ge
i fied</w>
on ers</w>
ger en</w>
Mis s</w>
L as</w>
p i
t ten
att end</w>
y land</w>
Au st
Bad en-
D om
te achers</w>
k as</w>
hei mer</w>
Ear lier</w>
sch wei
id o</w>
H ong</w>
law suit</w>
tou ch</w>
F our</w>
W ich
we d
N eben
wen den</w>
R O
Br and</w>
de dic
feat ure</w>
st abil
wa i
enter tainment</w>
Mob ile</w>
Mosco w</w>
F ut
z in</w>
mem ber
b acks</w>
gro wn</w>
ac ed</w>
propos als</w>
b ills</w>
verschie denen</w>
Kris en
Spre cherin</w>
An th
m end</w>
As si
Techn ology</w>
sp ons
EZ B</w>
h ome
ag ne</w>
an gesch
il ers</w>
famili ar</w>
we ak</w>
Wil son</w>
gh ly</w>
Bundes wehr</w>
cap tain</w>
Ste ph
explain ed</w>
leb ens
N F
emerg ed</w>
Al lein</w>
Su per</w>
ill a</w>
Beruf ung</w>
pro spec
at ischen</w>
F ei
frü h</w>
Wer der</w>
D o</w>
r ating</w>
ge dacht</w>
may or</w>
P E
ho st
tar gets</w>
Düssel dorf</w>
ter ing</w>
clin ical</w>
B h
Bi o
S em
veröffent lich
S qu
Min dest
R ap
Ar n
re put
S inn</w>
disc los
R ice</w>
N P
dar k</w>
accep ted</w>
17 .
enfor cement</w>
A K
In tel
verz ichten</w>
ge fragt</w>
komple tt</w>
gesam ten</w>
Nor den</w>
teil weise</w>
J ac
exp and</w>
Bil dung</w>
Ar g
pro ved</w>
30 .</w>
Lit er
K amp
circum stances</w>
Iris h</w>
mean ing</w>
Koaliti ons
inter net</w>
Joach im</w>
win ter</w>
Ri ver</w>
or row</w>
Re geln</w>
Qu elle</w>
R ain
ver besser
dien st
si ster</w>
supp lies</w>
thir d-
polit isch</w>
identi fy</w>
beg inn</w>
stra iner</w>
ad ults</w>
sch te</w>
D ah
T iere</w>
wen det</w>
t ab
is iert</w>
j ok
distribu tion</w>
vor stellen</w>
9 3</w>
ph ic</w>
nah me
fäl len</w>
it im
gemein samen</w>
anz en</w>
gemel det</w>
applic ation</w>
schn eller</w>
Lehr er</w>
alis iert</w>
broad cast</w>
Hum an</w>
UN -
sc oring</w>
i ded</w>
Schul den</w>
F rit
control led</w>
ö se</w>
adv ance</w>
.or g</w>
zentr um</w>
por tion</w>
hö here</w>
C H
de vice</w>
is lam
bankrup tcy</w>
con sequ
ide as</w>
Pro test
ro ut
vis ions</w>
tri g
cerem ony</w>
Minnes ota</w>
lä ub
Teil nehmer</w>
Schl uss
air line</w>
A ma
po t</w>
exten ded</w>
T isch</w>
var iety</w>
Bis her</w>
Stadi on</w>
re min
Re cht
Qu ad
9 2</w>
k as
ic ker</w>
besch lossen</w>
Schau spieler</w>
leit en</w>
pro ud</w>
direc tion</w>
Re public</w>
com ment
Kreu z
o ch
Kap itän</w>
Gold man</w>
fli ghts</w>
Rau m
Seb astian</w>
Demokrati e</w>
12 -
quo te</w>
wel come</w>
Ger ä
In sel</w>
W es
S ul
4 5
L y
Ma x</w>
suspen ded</w>
d ut
Mark us</w>
Sch a
dr hein
Gebur t
Künst ler</w>
Musi c</w>
it ag
comb at</w>
ph ase</w>
AR D</w>
alis ierung</w>
Alas ka</w>
hop ed</w>
pit ch</w>
w are</w>
Prote ste</w>
alis ed</w>
app ing</w>
f ill</w>
be an
19 .
ali ze</w>
vor her</w>
dan k</w>
be grü
six th</w>
comfort able</w>
cru de</w>
2 1.
Ein schätzung</w>
kur s</w>
fest ival</w>
tu rel
W ell</w>
stu ff</w>
exper im
16 .
Invest or</w>
Chil dren</w>
me chan
Vier tel
men sch
infra structure</w>
oo t
Immobili en
b rief</w>
ti cket</w>
k an</w>
F unk
schul en</w>
re plac
jud ges</w>
produc er</w>
Ab schluss</w>
B illi
di an</w>
Feder er</w>
Kör per</w>
wirk ungen</w>
Ermitt ler</w>
wat ched</w>
St abil
al t
rei b
199 2</w>
auf genommen</w>
v es
Ru he</w>
al ists</w>
la den</w>
s mann</w>
bur n</w>
A S</w>
ur er</w>
le ads</w>
Sonn en
K ämp
ver sich
E u
A L
Un fall</w>
arg um
S ollte</w>
ev alu
po ver
pic tures</w>
Kli ma
Kör per
ed -
e genheit</w>
stän dige</w>
ac t
Offici als</w>
3 0-
bu yers</w>
W o</w>
chines ischen</w>
S wis
it ten</w>
pro je
Co .</w>
end ung</w>
cor ruption</w>
chan ces</w>
S un</w>
Bundeslig a-
sk ills</w>
ter in</w>
staat lichen</w>
regist ered</w>
Kon takt</w>
3 ,000</w>
Hor st</w>
18 .
Ger ade</w>
ay a</w>
re isen</w>
über ras
Techn ik</w>
it ter</w>
proper ties</w>
offiz iell</w>
Bay er</w>
Hän dler</w>
Sto ck
mb ly</w>
Kab in
crit ici
initi ally</w>
Industri e</w>
Initi ative</w>
b ow
choo se</w>
writ ers</w>
maß nahmen</w>
p son</w>
net t</w>
2 2.
Kar ls
apart ment</w>
Ear th</w>
do gs</w>
e ds</w>
führ ten</w>
For derungen</w>
E l</w>
T am
zi gen</w>
O r</w>
D rei
Analy sten</w>
drhein -
Sch nei
stec ken</w>
a bet
en des</w>
def ence</w>
K ong</w>
fl at</w>
beg innen</w>
bess ere</w>
D F</w>
indic ated</w>
Re gel</w>
w -
j ene</w>
Lin ken</w>
Erfahr ung</w>
F onds</w>
ec ting</w>
Part ner
sh opping</w>
hau sen</w>
sel s</w>
K y
fal sch</w>
wal king</w>
Elek tro
kti v</w>
Sal z
blu e</w>
J ungen</w>
cust ody</w>
electri city</w>
verein bar
Be zieh
l agen
Man uel</w>
10 ,000</w>
te -
An walt</w>
O ver
co very</w>
Invest ment
se ch
sha red</w>
K ub
heav ily</w>
co de</w>
Fre u
sogen annte</w>
Leverk usen</w>
respon d</w>
Mach t
G ib
geplan te</w>
Beam ten</w>
Leh man</w>
Mar io</w>
beschäf tigt</w>
strug g
18 .</w>
Fäl le</w>
P ier
ko sten
comman der</w>
Just iz
li fe
R io</w>
Haush alts
sen ding</w>
For derung</w>
b auer</w>
ü p
ro ads</w>
S imp
sh oul
ym n
easi er</w>
Europä ische</w>
M ain</w>
Yanke es</w>
health care</w>
un bedingt</w>
be tro
Kur z</w>
B .
staat liche</w>
Ein fluss</w>
reduc tion</w>
em bar
genau so</w>
partner ship</w>
aus schuss</w>
geb or
um en</w>
shi ft</w>
ow ski</w>
to t
assi stant</w>
ministeri ums</w>
p m</w>
E ri
Nürn berg</w>
K lo
14 ,
ein f
mat ches</w>
M ary</w>
T ruppen</w>
Z iel
Mo tor</w>
rou te</w>
under standing</w>
H un
pro p
hör t</w>
tä glich</w>
histor ic</w>
e at</w>
J an</w>
Qu alität</w>
G anz</w>
p assen</w>
ep ing</w>
R .</w>
an did
wil d</w>
vi l</w>
gest or
acc ur
acknowle dged</w>
ap poin
Wür ttem
B at
G as</w>
Mo del
Te ile</w>
o therwise</w>
D utz
Rel ig
v ements</w>
199 1</w>
net works</w>
reg arding</w>
Verhält nis</w>
Produ kte</w>
h ielten</w>
ent re
priv aten</w>
g ige</w>
T ä
regul atory</w>
dut y</w>
Basi s</w>
isch em</w>
herr scht</w>
Se eho
W ur
erhö ht</w>
et ed</w>
z ut
den s</w>
F ür
wal d</w>
gel ang</w>
k ä
198 9</w>
st y</w>
krie g</w>
ko m</w>
wer t
exerc ise</w>
D ra
M ol
Telef on
k al</w>
suppor ting</w>
v ast</w>
ü hren</w>
N ex
steu er
rebel s</w>
Ro ger</w>
ge be
K ie
st it
Fest ival</w>
po st-
tr act</w>
alco hol</w>
tr end</w>
öh ne</w>
mär kte</w>
com mission
fre m
sor gt</w>
Ein tra
Tre ffer</w>
verk auf
po wers</w>
n ice</w>
st a</w>
per c
ri gh
bes itz
no -
reti rement</w>
Stür mer</w>
con sec
jah res
Hei mat
geb lieben</w>
T S
Dam als</w>
kid n
13 .</w>
fli kt</w>
a o</w>
W ul
er seits</w>
t ask</w>
f red</w>
re turning</w>
tig es</w>
m ons</w>
Ander son</w>
Re fer
ver mei
vul ner
vis ited</w>
st ress</w>
mo ves</w>
it er
bar rel</w>
el ek
val ues</w>
sch är
S t</w>
Haf t
hä user</w>
For mer</w>
model s</w>
i ff</w>
15 -
N ow
er neu
B ord</w>
ri vals</w>
Ver sor
diffic ul
Frau en
Ver dacht</w>
Jan .</w>
J ason</w>
il fe</w>
ges ich
L oc
Them en</w>
contro versi
te acher</w>
free dom</w>
materi als</w>
Be ach</w>
sk ep
Hä user</w>
inn ers</w>
Christop h</w>
b te</w>
beau ti
atten ded</w>
kün st
re fu
las sen
rech ten</w>
em y</w>
Der zeit</w>
Interne t-
fi x
P itts
Tha iland</w>
Fried rich</w>
Ar ena</w>
Ver z
Mas sach
it i</w>
li ste</w>
T V
short ly</w>
Min us</w>
Feu er</w>
8 8</w>
le ans</w>
Aus stellung</w>
op posed</w>
short -
Sau di</w>
euro s</w>
con cent
Sicherheit sk
Sor gen</w>
Konkurren ten</w>
J eff
e ding</w>
w ähr
quo ted</w>
H ub
susp ects</w>
C li
fün f
for -
hosp itals</w>
Weit ere</w>
sent enced</w>
set ts</w>
Per son</w>
do zens</w>
Net work</w>
j ad</w>
2 1.</w>
at edly</w>
z ün
ver gleich
H .</w>
M ess
ä ger</w>
NE T</w>
ab e</w>
gen der</w>
ch ain</w>
be we
Vereinig ten</w>
n one</w>
republi k</w>
at oren</w>
ge füh
le ute</w>
wieder um</w>
Ab b
S ome
displ ay</w>
Massach u
Su ch</w>
10 .</w>
sh ore</w>
rupp en
bl amed</w>
9 7</w>
war f</w>
lear ning</w>
dies mal</w>
wich tigen</w>
gen utzt</w>
arch it
k op
ussi ons</w>
a x
man agers</w>
man age</w>
Jugend liche</w>
i ons
sh aring</w>
Mu gabe</w>
mat ters</w>
wer en</w>
Vf L</w>
m ile</w>
ge tragen</w>
wor ry</w>
I P
wach sen</w>
dan ger</w>
invest or</w>
14 .</w>
gain ed</w>
T an
hou se
expan sion</w>
e ed</w>
dro ve</w>
ap pointed</w>
enjo y</w>
n ennen</w>
ru he</w>
m einem</w>
Wir k
Dien st</w>
M ali
C ho
ef ul
zwei fel
Da im
Anth ony</w>
st ün
NAS A</w>
H ans</w>
Regierung schef</w>
Ägyp ten</w>
An trag</w>
J ör
M S</w>
de al
kl ass
occ asi
Rom ney</w>
studi o</w>
m ie
NY SE</w>
S lo
il e
ac eu
E duc
at e
Gemein de</w>
L A</w>
iti gen</w>
veröffent licht</w>
Ze al
ev ol
GO P</w>
r ative</w>
Re al
O ld</w>
ti ckets</w>
fo unded</w>
9 1</w>
au ßer</w>
funktion iert</w>
9 4</w>
St rom</w>
Inst itu
mo vies</w>
techn ologies</w>
anim al</w>
reas on
end a</w>
O x
O il</w>
c old</w>
Portu gal</w>
Ä u
Besch l
Früh jahr</w>
Jer us
unterstütz en</w>
zeh n
ur sprün
Ver such</w>
ste te</w>
Steinbr ück</w>
W ähler</w>
Bh ut
Beding ungen</w>
regel mäßig</w>
to t</w>
por tra
inter nal</w>
Cit ig
vers ammlung</w>
National spieler</w>
ung st
A b</w>
tra iner</w>
wa chen</w>
17 .</w>
poten tially</w>
re place</w>
T en
ig are
h ess
re au</w>
9 00</w>
Grün e</w>
fe e</w>
verlan gt</w>
Indi en</w>
nomin ation</w>
wei gh
bo at</w>
har d
Unterneh mens</w>
entwick eln</w>
cont est</w>
ter ror</w>
Feh l
Massachu setts</w>
0 3.
e astern</w>
zentr ale</w>
sup posed</w>
Wir tschaf
absol utely</w>
pro -
Thom pson</w>
ger ing</w>
Je wish</w>
C level
spra che</w>
Bar bar
us -
sich ten</w>
recei ving</w>
Moh ammed</w>
targe ted</w>
DN A</w>
cal cul
Baden- Württem
in dem</w>
Y our</w>
Bis lang</w>
ac le</w>
hand le</w>
cru cial</w>
schlä gt</w>
Revol ution</w>
mach e</w>
ri ver</w>
Mil itä
he at</w>
Stan ley</w>
ge grün
olog ist</w>
squ ad</w>
ay ne</w>
territ ory</w>
as set</w>
prote sters</w>
gel te</w>
Lou is
fäh igkeit</w>
estim ate</w>
er hielt</w>
d ges</w>
schlä gen</w>
Al p
Bor ussi
T ief
F I
Bel ast
gra ph</w>
sub stan
Gu ant
j ähriger</w>
E BI
Hil fs
ch ung</w>
neighbor hood</w>
mit glie
h o</w>
a than</w>
am e
bli eben</w>
L ud
1 3,
Hin weise</w>
L B</w>
sp ac
P ower</w>
verstän dlich</w>
ong ly</w>
pul l</w>
199 0s</w>
Kel ly</w>
ph il
Wor te</w>
b ol
emerg ing</w>
Beteilig ung</w>
D S
hr er</w>
vertre ter</w>
ag gressive</w>
Ch am
zuneh men</w>
f lik
yo ur
Bla ir</w>
messag es</w>
For t
prac tices</w>
3 4
B rief</w>
Fra ktion
L .</w>
Stu dien
Fir men
M ein</w>
ung sh
Verwal tungs
te ure</w>
Pent agon</w>
im a</w>
sh ops</w>
Pho en
Oper ating</w>
Vier tel</w>
fass ung</w>
Dok um
s th
c and
D u</w>
ass ess
Proz ent
consec utive</w>
ing u
zeu g
therap y</w>
Christop her</w>
Ni veau</w>
sich t
c ell
Ver än
trans fer</w>
ver gessen</w>
sch u
what ever</w>
s lo
t ells</w>
Gewerk schaft</w>
Att orney</w>
m icro
tal ent</w>
Tro tzdem</w>
Bu ff
Untersuch ung</w>
2 4.
ro man
Pitts burgh</w>
wich tiger</w>
Welt meister
geb il
be dro
be endet</w>
Wider stand</w>
g alt</w>
pro b
Sch aden</w>
Bo eing</w>
pro be</w>
keit s
g utes</w>
de part
dra w
ig t</w>
F O
F lo
K auf</w>
deleg ates</w>
Wat ch</w>
ge arbeitet</w>
great est</w>
ep iso
Or leans</w>
Spe kul
man aging</w>
dra ft</w>
E th
Vic tor
ivers ary</w>
immig ration</w>
Car los</w>
exc ell
milit är
refle ct</w>
Gul f</w>
th row</w>
stat e-
Ser ies</w>
1. 5</w>
in y</w>
n utz
compreh ensive</w>
fa ith</w>
s at</w>
sor gte</w>
wa ste</w>
cor ner</w>
st able</w>
Z .
lab or</w>
Agent ur</w>
reput ation</w>
anz ler</w>
Ver band</w>
Zin sen</w>
Über rasch
tr uth</w>
fäh ig</w>
Spra che</w>
m ates</w>
ern st</w>
kämp ft</w>
mon it
Ar m
uncertain ties</w>
imple ment
n es</w>
expl ain</w>
gefähr lich</w>
co ff
kl age</w>
Clevel and</w>
at ures</w>
R ie
head quarters</w>
Andre a</w>
v ard</w>
ru b
po p</w>
thre w</w>
p ath</w>
Ein er</w>
ange boten</w>
re turns</w>
T el</w>
ne ys</w>
Vol k</w>
ge gn
L loy
Z ur
Minist eri
pl enty</w>
Jahr hunder
repor tedly</w>
Un s
wer ed</w>
i us</w>
gesper rt</w>
Co ast</w>
J ose</w>
Öster reich
F -
Merce des</w>
schle ch
größ er</w>
12 .</w>
assi stance</w>
ein halb</w>
insur g
J es
En er
Ob wohl</w>
jo ur
perform ed</w>
rican e</w>
Internation alen</w>
An spruch</w>
I A
war m</w>
Nutz er</w>
be zeichnet</w>
K rimin
bas sad
employe e</w>
Gabri el</w>
ass y</w>
L ong</w>
Lit er</w>
im mun
ing er
shar p</w>
sch rau
il -
U. S.
C ent</w>
ver fassungs
vent ure</w>
über all</w>
Nach mittag</w>
An gesichts</w>
ent gegen</w>
Re gen
8 2</w>
b ail
Ad am</w>
Nach wu
Fre itag
repe atedly</w>
be comes</w>
Se attle</w>
shar p
de but</w>
Mat t</w>
ic king</w>
h l</w>
P .</w>
M P</w>
C at
fac tor</w>
spec ies</w>
ist er</w>
W omen</w>
Vor bereit
Atlan tic</w>
ges ucht</w>
wir tschafts
fl ying</w>
sp ect</w>
Tur k
lo ved</w>
Gefän gnis</w>
vis iting</w>
techn ical</w>
Nieder sach
Seeho fer</w>
y e</w>
er lebt</w>
ac u
th es</w>
ger ed</w>
Sp ann
E .</w>
w oo
be de
demokr aten</w>
Ph ase</w>
re t</w>
klär t</w>
V en
er hält</w>
sch il
r d</w>
S ow
gh ten
al liance</w>
Mo un
Bro thers</w>
civili an</w>
i ve</w>
as i</w>
le aves</w>
Columb ia</w>
sk in</w>
Spe zial
con vinc
gro unds</w>
advis er</w>
1, 0
Ris iken</w>
N ame</w>
we b</w>
Ch i
ang hai</w>
coll abor
disp ute</w>
pen sion</w>
Tu be</w>
Fra ktion</w>
effici ent</w>
Or ts
K ate</w>
Entschei dungen</w>
Verbrau cher</w>
S ales</w>
pp en
rich tige</w>
B E
son gs</w>
Bunde strainer</w>
reich end</w>
Sci ence</w>
fre ut</w>
T onnen</w>
mär kten</w>
on ent</w>
Ein satz
squ are</w>
ro up</w>
caus ing</w>
Sat z</w>
strug gle</w>
Mar t
Sü den</w>
afri ka</w>
Wer ner</w>
t ische</w>
com bination</w>
199 3</w>
F erg
Krie gs
100 ,000</w>
G ame</w>
journal ists</w>
West f
dr inking</w>
bre m
encour age</w>
ru mp
rich tet</w>
St ation</w>
N BA</w>
Wirtschafts krise</w>
photogra ph
an gr
F ro
Bet rieb</w>
cat ch</w>
af gh
star b</w>
emo tional</w>
h et
Wil d
gew ach
Con tin
lang sam</w>
re placed</w>
Repor ting</w>
respon ded</w>
ti ous</w>
vie wers</w>
Ar chi
Citig roup</w>
ver hand
pr int</w>
US- Präsident</w>
co ol</w>
far m</w>
w ine</w>
er fahren</w>
entwickl ung</w>
Flü cht
op er</w>
bro ad</w>
veter an</w>
E very</w>
rele v
dah in</w>
Re p.</w>
far mers</w>
reduc ing</w>
No k
F ul
Commun ic
Vor schlag</w>
b ungen</w>
L et</w>
Mar ine</w>
al-Qa ida</w>
En viron
inter ess
IN G</w>
weiter er</w>
v ens</w>
CI A</w>
dre ht</w>
ver däch
vor erst</w>
t oler
So ftware</w>
russ ische</w>
F ab
2 3.
on ey</w>
Woh l
K ansas</w>
k lu
ermittel t</w>
main ly</w>
champ ionship</w>
Wahl en</w>
Phoen ix</w>
per form</w>
effec tively</w>
re ise</w>
Her tha</w>
do ors</w>
Beh and
v in</w>
Unternehmen s
Län der
Regi onal
Ro sen
Eng agement</w>
fran ch
tri eb</w>
er innen</w>
Del eg
ar io</w>
mortg ages</w>
wor ker</w>
n ord
E ver
j ub
inqu iry</w>
präsen tiert</w>
Z one</w>
Zeal and</w>
Pap ier</w>
lei stung</w>
R T
Swis s</w>
o v</w>
il lu
wer ten</w>
0 9.
dil uted</w>
con tained</w>
requi rements</w>
Jugend lichen</w>
r ing
stän digen</w>
P C</w>
kore a</w>
fail ing</w>
Phili pp</w>
Tele kom</w>
Erwar tungen</w>
setz ungen</w>
An ders</w>
hil ft</w>
a side</w>
fin de</w>
tag abend</w>
Mar yland</w>
B V
pass ing</w>
amoun ts</w>
Zu stimmung</w>
Kar l-
over seas</w>
Bü ro
sta un
flu g</w>
gemein same</w>
des per
h all</w>
A sk
techn i
pho tos</w>
Quad rat
pil ot</w>
f assen</w>
F ischer</w>
Sp iegel</w>
fe els</w>
c amera</w>
ver mis
h ang
L ake</w>
Verlu ste</w>
Par liament</w>
surpris ed</w>
T au
S ig
Blo om
inn en
Borussi a</w>
sel ben</w>
te en</w>
ins besondere</w>
I an</w>
Koso vo</w>
z immer</w>
off -
V om</w>
positi v</w>
Catho lic</w>
Sever al</w>
Mich elle</w>
NF L</w>
Sant a</w>
tom orrow</w>
impro vement</w>
li abilities</w>
k it
Sch utz
Abb as</w>
eng ag
cer ti
wi g</w>
öffent lich
ent ry</w>
char ity</w>
Ro s
leit ung</w>
Z i
ges prä
E qu
00 .000</w>
D im
fer n
e uro</w>
W ein
1, 5</w>
person nel</w>
Sch ick
M ak
stän den</w>
Kar l</w>
Zentral bank</w>
controversi al</w>
Aus einander
ro g
sozi alen</w>
ri de</w>
inde pendence</w>
disa ster</w>
hr an</w>
el sewhere</w>
discuss ed</w>
ier enden</w>
wirtschaf tlichen</w>
z ai</w>
arbeit s
Fr on
So cial</w>
Indi ana</w>
g ig
f la
15 ,
Zusch auern</w>
spe zi
urs es</w>
Tr end</w>
zurück zu
br ü
cli ent</w>
vacc ine</w>
bran che</w>
Beschäf tigten</w>
Grün de</w>
16 .</w>
W right</w>
every body</w>
siden cy</w>
sit z</w>
app e</w>
ret ten</w>
Geschä fte</w>
Main z</w>
sanc tions</w>
Ak tu
Prem ier
re d
ör ung</w>
National mannschaft</w>
k üh
Strateg ie</w>
def end
ur g
8 4</w>
R est</w>
8 1</w>
im possible</w>
Th an
ür zt</w>
s amm
l i</w>
ver sicherung</w>
te es</w>
so- called</w>
the ater</w>
b are
Ar e</w>
G reg
U p</w>
innov ative</w>
Jerus alem</w>
qu ake</w>
gri ffe</w>
d d</w>
schwar z-
Jon athan</w>
italien ischen</w>
te ste</w>
Hol z
b onds</w>
Ro m</w>
m ten</w>
gar anti
sicher heit</w>
er öffnet</w>
ap preci
stell vertre
äum e</w>
os oph
ran ked</w>
ch est
mis sions</w>
be darf</w>
art ist</w>
Ama z
perman ent</w>
aktu elle</w>
bek annten</w>
ver anstal
d ay
kl ingt</w>
Secon d</w>
ro l</w>
u se
weiter es</w>
St aff</w>
C ow
er läu
re present</w>
am or
R ou
nation wide</w>
bar ri
pe te</w>
größ ere</w>
De ut
he ading</w>
sü d
Tai wan</w>
Aut or</w>
er ungs
F an
Ministerprä sidenten</w>
Um gang</w>
G ran
Gu ar
Sy mp
cour ts</w>
ack le</w>
b lau
typ es</w>
ver treten</w>
Köl ner</w>
k ö
st ated</w>
Aus wär
An dr
pres sive</w>
Ar zt</w>
d ates</w>
Te hran</w>
L .
R ä
su bur
La w</w>
mer kt</w>
investig ating</w>
qu es</w>
din ner</w>
r ural</w>
Ste ven</w>
zei gten</w>
co ordin
fäl lig</w>
Z iele</w>
ZE IT</w>
ex pos
Schl es
abet es</w>
qui red</w>
min us</w>
Behör de</w>
Th ir
gu ards</w>
eg al</w>
Barbar a</w>
f ur</w>
promo te</w>
en si
fri ed
fei ern</w>
aus ch</w>
erhö hen</w>
8 6</w>
ori enti
W ill
ec k
h itting</w>
Ti bet</w>
27 .</w>
Bo tschaf
D enn
För der
suff ici
Arbeit geber</w>
s al</w>
Ac ademy</w>
weit gehend</w>
Nav y</w>
g all
to x
e tic</w>
Grün den</w>
SE C</w>
ru g</w>
eng ine</w>
Reb ellen</w>
Ein igung</w>
kl asse</w>
bann ed</w>
Dir k</w>
w ächst</w>
Im mer
ph arm
ici ous</w>
Ern st</w>
tran spar
favor ite</w>
Ger ü
Zimbab we</w>
Verk auf
C C</w>
Fu k
versch ul
ann iversary</w>
in des</w>
gen ü
Sch le
ent in</w>
bo ss</w>
über nommen</w>
Gast geber</w>
um ping</w>
hil fe</w>
aff airs</w>
wa ve</w>
un k</w>
per su
Hamp shire</w>
F oot
K au
ush ed</w>
Po ts
question ed</w>
heu tigen</w>
Weit er
Arbeitsp lätze</w>
wi der</w>
Mat the
Cre dit</w>
f ted</w>
Li ve</w>
un usual</w>
ali ve</w>
tran sport</w>
ket ball</w>
Hans -
Link spartei</w>
Pap iere</w>
3 3
en ab
tru ck</w>
man che</w>
than ks</w>
M .
am o</w>
o u</w>
Zu gleich</w>
fan ta
ac adem
-S precher</w>
Ab stimmung</w>
ine jad</w>
St or
sp ark
k ick</w>
k ins</w>
teil ten</w>
t age</w>
Sch mer
olo gen</w>
app ly</w>
pra kt
T S</w>
sozi ale</w>
Bundestag s
z y
de pos
pe t</w>
k nee</w>
kü m
tal ked</w>
v it
ro ten</w>
ong side</w>
spar en</w>
8 3</w>
Commer z
Gol f</w>
Autom ob
Schrö der</w>
stron ger</w>
ci ans</w>
Beruf s
R oo
app en</w>
ru g
Bro w
ent e
er lit
Th ough</w>
M ü
einzel nen</w>
disc ussion</w>
H offen
ti ef
kürz lich</w>
frei willi
Roh stoff
In stru
lei der</w>
Sz ene</w>
ag o
sw ine</w>
Freund in</w>
test ens</w>
0 4.
A x
Den ver</w>
gu ter</w>
mem ory</w>
restau rants</w>
Dro gen
gestor ben</w>
Tele graph</w>
Invest itionen</w>
re vi
Tra de</w>
ident ity</w>
go tten</w>
Vill a</w>
ha ften</w>
St art
To ten</w>
sp lit</w>
mehr fach</w>
sco res</w>
li by
pri ority</w>
öffent liche</w>
be gun</w>
c able</w>
Vie tn
un mittel
16 ,
sche dule</w>
thin ks</w>
ph en
re aching</w>
Qa eda</w>
notwen dig</w>
kl are</w>
requi res</w>
t il
war ming</w>
wäh len</w>
m its</w>
A L</w>
el e
erk annt</w>
ch st
at tra
impro ving</w>
b ell</w>
sei zed</w>
sprä sident</w>
wig -
ten tion</w>
K ampf
poin ting</w>
aus gel
G O</w>
K lasse</w>
rei ber</w>
Fa vor
D an</w>
wahl en</w>
ex -
ple aded</w>
beg ins</w>
Sen der</w>
geb oren</w>
gel ungen</w>
H alle</w>
m te</w>
interest ing</w>
C u
P y
Matth ias</w>
Leist ungen</w>
In zwischen</w>
schwier ig</w>
lin ing</w>
is -
dau ern</w>
Ahmad inejad</w>
kehr en</w>
flä che</w>
be halten</w>
Ex plo
Wol f</w>
ru h
Sor ge</w>
akti v</w>
conclu ded</w>
attemp ts</w>
hol der</w>
E M</w>
Ther ap
E N
eit et</w>
F ili
Abgeord neten</w>
del ay</w>
freu en</w>
te ch</w>
con dem
p fle
den kt</w>
dau ert</w>
f it
ul a</w>
Mis sion</w>
EU- Kommission</w>
E S
Kap it
da vor</w>
bur g-
8 7</w>
el er
fri ed</w>
sch efs</w>
An schlag</w>
en ess</w>
an schließend</w>
ung l
Bezieh ungen</w>
tur n
predic ted</w>
Se a</w>
ball -
Leist ungs
at i</w>
aus geschlossen</w>
prä sident</w>
H O
all ing</w>
br ands</w>
Z ins
sch uss
Br ut
mon thly</w>
ver bot</w>
for schung</w>
y c
destro yed</w>
pie ces</w>
Di vision</w>
ver breit
Bo x
Abgeord nete</w>
Je ff</w>
b latt</w>
Cub a</w>
Ein führung</w>
Br on
re solution</w>
sle ep</w>
wirtschaf tliche</w>
8 9</w>
st rie
dem ands</w>
loc ations</w>
wer tung</w>
zei chnung</w>
eful ly</w>
Stre cke</w>
Anti -
l o</w>
us ern</w>
ser ie</w>
steh ende</w>
push ing</w>
Ange höri
sch mer
bil den</w>
wen ig
Ste wart</w>
Vietn am</w>
ks am
success fully</w>
ri ff</w>
ab road</w>
Fra ktions
A ward</w>
besch ä
pre vent
ber y</w>
dev ast
ent stehen</w>
C an</w>
Sie mens</w>
low est</w>
Immer hin</w>
de aling</w>
hel m</w>
E reig
b ie</w>
Schw ier
FA Z.
Chan nel</w>
S ports</w>
arti sts</w>
S per
res ses</w>
Provin z</w>
am az
gesch afft</w>
wh el
u an</w>
17 ,
g li
den ke</w>
com pete</w>
Wun sch</w>
syst em
en cing</w>
ris on</w>
00 0-
ein deu
Aff äre</w>
Sitz ung</w>
kom mission</w>
demon stri
zuneh mend</w>
en kt</w>
rel ativ</w>
Stre it
EBI T
Kab ul</w>
defin itely</w>
Nat o</w>
mit ten</w>
br ings</w>
wechsel t</w>
gol f</w>
V I
to ols</w>
iz on</w>
J a
Nation en</w>
R ös
Gl ück
E ck
gef äl
r er</w>
Ge wal
Lab or</w>
ha fte</w>
Goo d
Som alia</w>
rich tigen</w>
deep ly</w>
announ ce</w>
Waff en
re action</w>
Sta dium</w>
N ation</w>
W affen</w>
res sing</w>
krä ftig</w>
Bab y</w>
li ament
zusätz lich</w>
F S
h äre</w>
k oh
bes ie
hol te</w>
new s
mi x</w>
dau er
pro vo
extre m</w>
M eine</w>
hei ßen</w>
rä f
Min der
Freu de</w>
Ber u
A wards</w>
re marks</w>
ach el
bl ame</w>
er ei</w>
gro ss</w>
ar ded</w>
gl ass</w>
behavi or</w>
W he
Eintra cht</w>
b ond</w>
sch loss</w>
Mo ore</w>
ish es</w>
dis missed</w>
electri c</w>
3 50</w>
et y</w>
sc r
onn a</w>
gem ents</w>
arg ument</w>
perform ing</w>
mbo l</w>
E ach</w>
V ier</w>
sich ern</w>
a chen</w>
ti ght</w>
min ority</w>
v ital</w>
tra v
beauti ful</w>
al i</w>
k ampf
Ferg us
Ro dri
B enz
thre ats</w>
persön lich</w>
gr and</w>
symp ath
S up
War ner</w>
Ver trau
Fu ß</w>
inform iert</w>
her vor</w>
AI G</w>
verab schie
electron ic</w>
A P
spar tner</w>
b ag</w>
Brasili en</w>
ethn ic</w>
f ach
- I
teil s</w>
import ance</w>
inv ent
Z iv
ch air</w>
4 7
Prin zi
se vent
var i
cy cle</w>
beding ungen</w>
ier ungen</w>
your self</w>
ev acu
G ruppen</w>
ed itor</w>
ck te</w>
V öl
hei rat
Pap st</w>
Rol and</w>
Bil anz</w>
cor respon
th or
Pro fi
reag iert</w>
i res</w>
dür fe</w>
Quo te</w>
n den</w>
d ap
enth usi
ver hält
Taus ende</w>
Br au
N R
Wir kung</w>
M I
disc ussions</w>
kl einer</w>
Pan or
th es
S c
B ier
rech ts</w>
ou red</w>
Me tho
So vie
Sa chen</w>
emp ha
Rez ession</w>
P ur
zi pl
Compu ter
G A</w>
Indu strie
fun ded</w>
al ongside</w>
rä ge</w>
Westf alen</w>
Zu g</w>
all gem
ap ers</w>
N am
mar t
an x
tin y</w>
ian o</w>
ru fen</w>
Schri ft
bassad or</w>
sa r</w>
Pres se</w>
üs sen</w>
tran spor
recommen d
schir m</w>
Pro sec
25 .</w>
an ke</w>
ber aten</w>
j umped</w>
schn ei
dram atic</w>
satell ite</w>
Z y
F it
Invest ment</w>
ler -
Wind ows</w>
n de</w>
Ver halten</w>
sequ ent</w>
win dow</w>
lim its</w>
be half</w>
Kar zai</w>
R onal
sc ra
Mark et</w>
st ad
ist in</w>
Ge danken</w>
An ne</w>
awar ded</w>
Sach s</w>
c ross</w>
lin ie</w>
Auth orities</w>
b ac
Volk sw
ch a
T w
W ind</w>
Bild material</w>
Baden-Württem berg</w>
oll ah</w>
äuß erte</w>
R angers</w>
V ettel</w>
Er öff
ci pl
anonym ity</w>
v on
Bru der</w>
Land tag
8 .</w>
re in</w>
Fahr zeuge</w>
ti k</w>
tu al</w>
Forsch ungs
ap art</w>
prote st
direc tors</w>
be stimmt</w>
Sud an</w>
opp onents</w>
hö hung</w>
anticip ated</w>
S ain
b ten</w>
aff ord
ten der</w>
stag abend</w>
Osc ar</w>
re move</w>
tor ies</w>
4 4
flu g
Palestin ians</w>
dar aufhin</w>
soldi er</w>
leg ten</w>
e ating</w>
0 8.
dre am</w>
Dec .</w>
pl ed</w>
str ongly</w>
dam aged</w>
Ä hn
su che</w>
drän gt</w>
Bhut to</w>
Ho tel
Yor ker</w>
tel ef
ler in</w>
z ess</w>
sex tre
b at</w>
ultim ately</w>
Mr s.</w>
war tet</w>
sh of</w>
Fergus on</w>
soli d</w>
j et
f ile</w>
il a</w>
Aus sagen</w>
Al liance</w>
Schn itt</w>
zusätz liche</w>
gem ä
M A</w>
er al</w>
represent ing</w>
Mär kte</w>
schri ften</w>
tre es</w>
angr y</w>
ac quired</w>
G ood</w>
EBIT DA</w>
i des</w>
ent u
d rit
V P</w>
el ines</w>
essen tial</w>
versch är
So zi
ief ert</w>
Ma c</w>
G ü
p in
x on</w>
typ ically</w>
ell or</w>
anc er</w>
minist ry</w>
t ackle</w>
Y es</w>
Sh anghai</w>
schlu g</w>
J im
sel n</w>
mach ine</w>
air o</w>
lat z</w>
Veranstal tung</w>
un er
vertei diger</w>
5 0,000</w>
Ob amas</w>
lau tet</w>
wit nesses</w>
G ary</w>
Jord an</w>
dopp elt</w>
D enk
M S
Par ti
O K</w>
W erte</w>
zeich nen</w>
vis ed</w>
Bra d
feh l
einig t</w>
regul ations</w>
dar aus</w>
H ör
emp f
D. C.</w>
f ter</w>
Ple ite</w>
Tor onto</w>
Jun ge</w>
S ix</w>
gest o
ö glich</w>
sha pe</w>
Cra ig</w>
Lo ve</w>
For tsch
L ady</w>
ag enda</w>
S ei
par ent</w>
Mex ican</w>
ci an</w>
claim ing</w>
Aus wirkungen</w>
gu ez</w>
Bern d</w>
y outh</w>
Bü cher</w>
hän gen</w>
rec alled</w>
bas eball</w>
Sch m
füh len</w>
Bel gi
K anzler
Bran chen
fac tory</w>
ad or</w>
Kom promis
zei ge</w>
l ösung</w>
air e</w>
pre ad</w>
exc ited</w>
Feuer wehr</w>
form al</w>
Zu letzt</w>
M ön
lie ge</w>
direc ted</w>
F. A.
außer halb</w>
man gel
fal se</w>
st em</w>
Al ters
erlau bt</w>
substan tial</w>
Aus sage</w>
st rei
be handelt</w>
wat er
Ath le
Vor wurf</w>
U we</w>
ger ät</w>
Bi den</w>
sevent h</w>
T ür</w>
der ly</w>
Her z</w>
E liz
con spir
Di kt
des pread</w>
gel ernt</w>
N iger
ol ine</w>
li est</w>
sur ge</w>
D ri
ver teidig
dr ink</w>
part is
---- --</w>
Educ ation</w>
ver halten</w>
ho tels</w>
ast ro
is ol
t ings</w>
trei ben</w>
dedic ated</w>
arbeit er</w>
len ders</w>
K üh
nei ther</w>
nah e
achie ved</w>
win den</w>
ge fahren</w>
k anischen</w>
volum e</w>
surro unding</w>
T ages</w>
Bern anke</w>
over whel
stur z</w>
Rent en
My an
Vor stellung</w>
regul ation</w>
0 2.
w asser</w>
jo ining</w>
rou ghly</w>
Char lo
May or</w>
vulner able</w>
ex tend</w>
gath ered</w>
ap pl
deta iled</w>
gescheit ert</w>
er land</w>
recogn ized</w>
Kr itiker</w>
än den</w>
Urlau b</w>
In sur
men d
o ten</w>
or ds</w>
be ating</w>
seas ons</w>
se -
ver wand
Neu er</w>
D il
So li
Anton io</w>
nomin ee</w>
schätz en</w>
Wahr heit</w>
Beit rag</w>
Konsequ enzen</w>
di vor
ol f</w>
v il
le ch
up -
decre ase</w>
troub led</w>
st ein
än en</w>
v ollen</w>
eg te</w>
S ri</w>
interessi ert</w>
g reg
zahl ung</w>
fiel ds</w>
ben en</w>
a wards</w>
der ing</w>
c ited</w>
2 3.</w>
T ick
L e</w>
pris oners</w>
num erous</w>
ol z</w>
g liche</w>
To te</w>
Stutt gar
h un
Kommun ik
l ay</w>
rat s
T ob
b ör
enti rely</w>
k u
G ut</w>
gesch ickt</w>
and o</w>
ro o
sur face</w>
s y</w>
gem essen</w>
Fam ily</w>
Hö he
a f</w>
Th or
Ball ack</w>
You Tube</w>
ge handelt</w>
Sen ior</w>
out come</w>
ri e</w>
radi k
DD R</w>
B ah
Str aus
dis cipl
behör den</w>
Vor gehen</w>
be zahlen</w>
statt ung</w>
l ager</w>
Fel ix</w>
Vf B</w>
den ly</w>
g ate</w>
B em
con soli
ali forn
complain ts</w>
rich tungen</w>
f ought</w>
Priv ate</w>
relev ant</w>
A y
Wissen schaft</w>
Du ell</w>
Le on
au ction</w>
ann a</w>
Stur m</w>
ber uf
ack ers</w>
äum t</w>
ff er
Y .</w>
Ret tung</w>
P ul
ver schw
Psy ch
no vel</w>
An stieg</w>
k rimin
D oc
A B
docum ent
threat ening</w>
Aus bildung</w>
ga p</w>
Con nec
S am</w>
vor ne</w>
be tr
Olymp ischen</w>
be zahlt</w>
over -
Car ter</w>
Air bus</w>
Regisse ur</w>
ar do</w>
gew oh
ho ff
H ear
lux ury</w>
ier ter</w>
Po sten</w>
Abdul lah</w>
D e</w>
act ress</w>
clo thes</w>
se gment</w>
d y
Er ste</w>
on ic</w>
W im
bra ch</w>
agu e-
fiel en</w>
für s</w>
aus gerechnet</w>
Tem per
ac ke</w>
caus es</w>
Ul rich</w>
p end
frag ten</w>
Jahrzeh nten</w>
re serves</w>
M ill
C A</w>
tru ly</w>
i ers</w>
ol ds</w>
de tain
plan es</w>
obvi ously</w>
1 1-
el ig
mon at
Ben j
dor fer</w>
Kar te</w>
activ ists</w>
FD A</w>
L ager</w>
Oper ation</w>
Myan mar</w>
Fin ance</w>
er ship</w>
leg itim
represent ed</w>
Sp en
symp tom
l ap
f ts
at mosp
Egyp t</w>
2 2.</w>
keep er</w>
18 ,
no tice</w>
Schnei der</w>
arg ue</w>
P ie
er o</w>
K ri
respec tively</w>
z üge</w>
Ver lag</w>
Son ne</w>
es sive</w>
h a</w>
schw ung</w>
Halb zeit</w>
Sti ftung</w>
i en
R ab
ak i</w>
b low</w>
Pro gram</w>
scienti fic</w>
b aden</w>
Kre dite</w>
ade qu
K urt</w>
spo ken</w>
Z el
B ob
stru ktur</w>
Spr eng
an de</w>
san k</w>
Hein z</w>
ad ds</w>
o st
t um</w>
ru f</w>
har der</w>
s ung</w>
An na</w>
teu er</w>
ab geschlossen</w>
cap tured</w>
H av
pre p
wi despread</w>
ges orgt</w>
g ins</w>
f ert</w>
st ability</w>
drü ckt</w>
fre ie</w>
C are</w>
ho ff</w>
tre e</w>
Auf takt</w>
at ische</w>
atur en</w>
min or</w>
k ath
in ner</w>
19 ,
Eig entlich</w>
be mü
Tok yo</w>
K han</w>
Ex tre
Ris ik
s ac
Ziv il
multi -
kl in
LL C</w>
medi zin
belie f</w>
Ed ward</w>
in no
bir th
my ster
be findet</w>
U BS</w>
histor ical</w>
berich teten</w>
tak e
beg eist
Grün en-
inter views</w>
billi ons</w>
Person al</w>
ag an</w>
connec ted</w>
Ber ei
g igkeit</w>
vo y</w>
offen sichtlich</w>
emplo yed</w>
IW F</w>
24 .</w>
k assi
F ire</w>
Ne v
tra ined</w>
Gegent eil</w>
Auth ority</w>
verli ert</w>
liament ary</w>
t ise</w>
T O
a vi
schaf tlichen</w>
Gen .</w>
Me er</w>
chines ische</w>
gest immt</w>
fac ts</w>
com mod
ma ßen</w>
eben en</w>
T atsächlich</w>
Ver stän
to tal
under stood</w>
wus ste</w>
erziel te</w>
lin ken</w>
Rob inson</w>
te ur</w>
sel ected</w>
gest anden</w>
col um
par tei
1 30</w>
repor ter</w>
mem or
b ly</w>
C ri
Ho tels</w>
Top -
Republi k</w>
m ah
Gi uli
pover ty</w>
T ig
b id
mi xed</w>
sens itive</w>
verschie dene</w>
be zeichnete</w>
Hist or
cle an
kan er</w>
Dre h
G ö
res ort</w>
ein es
Nor drhein-
d ynam
leb te</w>
provi ders</w>
Jör g</w>
cho sen</w>
per t</w>
Ferr ari</w>
be wegung</w>
let ters</w>
F .</w>
ans a</w>
stre it</w>
Fil me</w>
conc e
zu ver
k es
minim um</w>
Reis e
Bet reu
om ing</w>
han del</w>
har d-
s no
Branden burg</w>
u it</w>
spra chen</w>
Wul ff</w>
contr ast</w>
ro t-
An bieter</w>
aff ili
Kon flik
rap id
oh len</w>
kre isen</w>
con fron
o k</w>
I O
pres sing</w>
gef ei
dra st
T ak
lu st
D ow
t es
Dem nach</w>
challeng ing</w>
ch ern</w>
happ ening</w>
Kl age</w>
Städ ten</w>
Zu gang</w>
Lin d
sharp ly</w>
NH S</w>
FAZ. NET</w>
20 20</w>
her steller</w>
ogra ph
effici ency</w>
ymn asi
inv est</w>
Sch ätz
pri ze</w>
low n</w>
ladi mir</w>
pre sidency</w>
Pro test</w>
pass es</w>
F ort</w>
D C</w>
accoun ting</w>
b last</w>
Wer be
industri es</w>
Schwe den</w>
c ep
busin ess
R ub
pos es</w>
So x</w>
ma ster</w>
glei che</w>
Atom kraft
d ress</w>
g ere</w>
Communic ations</w>
dra wing</w>
manufactur ers</w>
stri kes</w>
up date</w>
Niedersach sen</w>
C O</w>
ver kehr
cast le</w>
un gewöhn
offiz iellen</w>
m üh
sen s</w>
Mar c</w>
m ol
ef el
Re aktion</w>
ang aben</w>
an ia</w>
Gewerk schaften</w>
mist ake</w>
ag gressi
prepar ing</w>
con vention</w>
c up</w>
be wegen</w>
pol e</w>
Luf th
f lat
blo g</w>
az z
down s</w>
Hel mut</w>
top -
vor geworfen</w>
Ander e</w>
produc ers</w>
follow s</w>
ju di
i red</w>
Gro ßen</w>
li ft</w>
p ause</w>
regi ons</w>
st ayed</w>
ub ar
Verbin dung</w>
rebo unds</w>
B latt</w>
ter min
Z we
su its</w>
li quid
F on
B ak
ver wei
wi reless</w>
pl astic</w>
Pro to
i fer</w>
Th ür
A dri
Masch ine</w>
ch em</w>
28 .</w>
produc ing</w>
Bür o</w>
LE S</w>
20 ,000</w>
explo sion</w>
sh all</w>
vern ight</w>
Mil an</w>
ad ap
Fre ist
author ized</w>
alog ue</w>
Rück en</w>
b ags</w>
Uns ere</w>
differ ences</w>
grund sätzlich</w>
Fre m
Con serv
2 6.
itar ian</w>
198 0s</w>
Präsident schafts
F if
Erfahr ungen</w>
as st</w>
Bri g
h är
st if
ab ad</w>
Invest ors</w>
st ern</w>
Commun ity</w>
0 5.
lei den</w>
pap ers</w>
Rel ations</w>
j et</w>
ang s
Kon flikt</w>
Hand el
ck -
ven ess</w>
Um satz
F lä
hy th
gesich ert</w>
Reg ime</w>
i ens</w>
Mitarbeit ern</w>
bes etz
drin gend</w>
g ei
Leb ens</w>
E M-
Ger hard</w>
Lat in</w>
Nok ia</w>
Geburt stag</w>
Män nern</w>
restri ctions</w>
ä her</w>
H aw
äch s
Inter est</w>
te stim
Econom ic</w>
fer tig</w>
lan den</w>
inv ited</w>
In fra
Aus wahl</w>
eigh th</w>
gre en
aus gesprochen</w>
N ob
Venezu ela</w>
Go tt</w>
ster ben</w>
f aster</w>
out look</w>
kl agen</w>
Bar cl
r utsch
2. 5</w>
ie -
Bloom berg</w>
ber eiten</w>
Rain er</w>
aus ger
assess ment</w>
un clear</w>
p c</w>
g ruppen</w>
au st</w>
ili an</w>
st ick</w>
F ree</w>
---- -</w>
Innen minister</w>
sta ats
g uns</w>
G läub
sign ing</w>
Ph il</w>
ann y</w>
O h</w>
si zed</w>
glück lich</w>
tri als</w>
f at</w>
e kt</w>
verstär kt</w>
B N
k us</w>
abor tion</w>
Dut ch</w>
in ter</w>
Ro se</w>
zieh ungs
Bu il
maxim um</w>
A venue</w>
Arbeitslo sen
wit ness</w>
Panor ama</w>
hau l</w>
ad ult</w>
Air port</w>
s in</w>
wh ol
wil d
Austri a</w>
re struc
A then</w>
W an
Nad al</w>
Denn is</w>
v y</w>
14 -
p ast
ash ing</w>
ar ity</w>
abge ord
Deutsch land
äuß ert</w>
quali fiz
Fl a</w>
M err
Aufsichts rat</w>
Europ am
13 -
5 5
tak ul
fü gte</w>
schw ä
K aff
schließ t</w>
promp ted</w>
um -
eh nt</w>
ste pped</w>
extre me</w>
inspi red</w>
consequ ences</w>
sa ving</w>
rel atives</w>
gemein schaft</w>
diff er</w>
L af
mon t</w>
Cent re</w>
Lit tle</w>
L inc
L et
ur a</w>
Untersuch ungs
Cor n
Donn erst
s op
G ome
Po ten
Flu cht</w>
V W-
enti al</w>
Altern ative</w>
Auf gaben</w>
20 14</w>
er scheint</w>
Prof is</w>
con sci
gar ten</w>
inst ance</w>
Bör sen</w>
S Z</w>
vor s</w>
letz tlich</w>
verwal tung</w>
17 -
Magaz in</w>
18 -
Re ak
comp uters</w>
sch al
Dal ai</w>
gew innt</w>
Un abhän
um in
reta ilers</w>
s and
0 7.
ö s</w>
establ ish</w>
fir ma</w>
hol ung</w>
spä t</w>
escap e</w>
Komment ar</w>
än der</w>
2 7.
favo ur
dist ance</w>
vor stand</w>
equival ent</w>
particip ate</w>
acc eler
L ama</w>
Z ü
av our</w>
Gi ants</w>
Kat astrophe</w>
helicop ter</w>
si bil
gu ests</w>
Ger ichts
Fi ve</w>
Pr o</w>
cent ers</w>
akti onen</w>
si ck</w>
k assen</w>
no tic
an o
ran k</w>
lich em</w>
Sch ütz
Fre d
verdien en</w>
Zun ächst</w>
voraus sichtlich</w>
verpflich tet</w>
Lufth ansa</w>
eb ody</w>
er öff
invol vement</w>
Shi ite</w>
ktur en</w>
lie be</w>
W ik
hal b
l ing
Har ris</w>
R I
ie te</w>
b y-
ag ri
az z</w>
S tern</w>
st um
N ahr
u g
origin ally</w>
der ten</w>
Nach richt</w>
r ass
sp itze</w>
enor m
mo tion</w>
Eliz abeth</w>
icht shof</w>
Äu ßer
ch ens</w>
B lan
v is</w>
diplom atic</w>
desig ner</w>
entsprech ende</w>
Schieds richter</w>
re covered</w>
klär en</w>
Benj amin</w>
put s</w>
relation ships</w>
bo und</w>
p al</w>
com edy</w>
Ver tei
M ubar
Ph ysi
kon om
gran ted</w>
def ensive</w>
a stron
k um
sol ar</w>
is ieren</w>
m ie</w>
et -
J ag
Analy sts</w>
2 8.
ge stri
Tenn es
il it
dr y</w>
E d</w>
an ic</w>
um ph</w>
consi stent</w>
grü nen</w>
kath ol
Kon tak
Co ur
K -
zahl reichen</w>
at -
Fo togra
regul arly</w>
ter ung</w>
associ ation</w>
Vorsitz ender</w>
Squ are</w>
S po
si eb
En ded</w>
be ar</w>
mil iti
princip al</w>
Ro ss</w>
gar den</w>
O kl
J on</w>
Br y
Prem iere</w>
füh lt</w>
fel d
lich erweise</w>
tiv ity</w>
ear n</w>
C .
Gegen satz</w>
Kön ig</w>
Dis ney</w>
A vi
Ka is
än e</w>
Z enti
unser em</w>
C ann
spec ific
milit ant</w>
räum en</w>
Arbeit en</w>
bom bing</w>
Donnerst ag
Dar fur</w>
mo bil
stol z</w>
hö heren</w>
er son</w>
Ch ange</w>
f abri
dig te</w>
engine ering</w>
versor gung</w>
Wh ere</w>
critici zed</w>
2 4-
ö ch
Pro ject</w>
Ö l</w>
Tr aum</w>
ati e</w>
se ven
Boch um</w>
Rodri guez</w>
g ut
Afri ka</w>
m o</w>
E tw
profiti eren</w>
Aut or
mod ell</w>
t ort
G ang</w>
W under</w>
str ing</w>
Kar ten</w>
höch sten</w>
extra ordinary</w>
star ten</w>
4 ,000</w>
an lage</w>
bar er</w>
fra ktion</w>
erg än
Land gericht</w>
there fore</w>
um fas
Il lu
1 40</w>
sh ed</w>
sto ßen</w>
Gleich zeitig</w>
Loh n
in tim
accep table</w>
ver boten</w>
attemp ted</w>
Fraktion schef</w>
We ge</w>
Stat t</w>
de tained</w>
be ach</w>
gr enze</w>
spec ulation</w>
k a
sc andal</w>
Sch ö
ütz t</w>
N. Y.</w>
app t</w>
R y
enk o</w>
0 1.
Z DF</w>
form ation</w>
kti v
Ter ry</w>
Verteidigungs minister</w>
Gome z</w>
jah re
ath on</w>
mom ents</w>
E .
irgend wann</w>
Hal tung</w>
No te</w>
stre ak</w>
ple dged</w>
Mar co</w>
survi ved</w>
Sum me</w>
Lon don
G anz
ru ft</w>
äuß ern</w>
c iting</w>
obvi ous</w>
Ha wai
- off</w>
ru hen</w>
er ien</w>
J ens</w>
Qualifik ation</w>
har mon
Konz erns</w>
econom ist</w>
sel ection</w>
Presse konferenz</w>
sa chen</w>
C ook</w>
dien en</w>
ta h</w>
promin ent</w>
z ah
in struc
pat ri
f ie</w>
Sen at</w>
p ack</w>
her um</w>
spür en</w>
Bayern -
Um feld</w>
pho to</w>
hon or</w>
obj ec
B isch
immig rants</w>
bew ahr
Bec ker</w>
Nat ur</w>
0 6.
Ta x
ü mer</w>
rel l</w>
ci li
Jahr hundert</w>
Etw a</w>
ac compan
All gem
liber al</w>
Part ners</w>
G un
grün dung</w>
inter pre
bus y</w>
J e</w>
sp anischen</w>
w ra
particip ants</w>
vie wing</w>
Gu ido</w>
Sie ger</w>
aus gest
lie genden</w>
Z äh
Mit ch
sp ru
he ben</w>
har m</w>
j ump</w>
Sovie t</w>
übri gens</w>
Schauspiel erin</w>
Nex t</w>
mo on</w>
schn ell
Verletz ungen</w>
kon serv
Him mel</w>
zwei mal</w>
t ap
lich t
setz ten</w>
um zu
Pal ästinens
ig nor
Lie fer
musi cal</w>
olo ge</w>
st el
Br enn
Stär ke</w>
S l
symptom s</w>
des ire</w>
Geb iet</w>
E mer
fa vor</w>
A gen
c er</w>
sp err
chil d
camp us</w>
sta dium</w>
terror ists</w>
pur pose</w>
Wis sen</w>
gew inn</w>
sk i
le gend
Zu stand</w>
econom ies</w>
b acking</w>
su n</w>
Ori gin
profession als</w>
disku tiert</w>
B iel
ör en</w>
29 .</w>
as sum
convers ation</w>
sch üt
Wel che</w>
Syri en</w>
198 8</w>
Di vi
an geb
H i
Dres den</w>
f led</w>
J ob
Schum acher</w>
G mb
Champ ionship</w>
L ob
et h</w>
M oo
äu fe</w>
em a</w>
Ver sion</w>
at trib
ti mis
ib ility</w>
Hand y</w>
Land tag</w>
ill ness</w>
äl ter</w>
N ap
Aus land
str en
Sol ar
gi ft</w>
M ili
ment -
ul ated</w>
dur fte</w>
ro ad
up set</w>
off set</w>
gr ab
An y</w>
ent standen</w>
beauf trag
w inners</w>
Ab wehr
en ey</w>
G lau
ass es</w>
invol ve</w>
U.S. -
Guant an
expos ure</w>
bad ly</w>
sho ck</w>
Reg im
Singap ore</w>
Tour isten</w>
ti zation</w>
E p
tel e
qu iet</w>
eh er
endgül tig</w>
la id</w>
K it
verb ess
Bru ce</w>
sel ber</w>
o vernight</w>
refer ring</w>
Phili p</w>
sign al</w>
eig net</w>
part ly</w>
Pa ar</w>
größ eren</w>
F air
Phili pp
strugg led</w>
vide os</w>
charac ters</w>
bo un
w ake</w>
k eines
Ein nahmen</w>
kn i
Consu mer</w>
on ing</w>
co al</w>
mit einander</w>
chan nel</w>
Maj or</w>
rol led</w>
con firm</w>
incre di
Merr ill</w>
di ox
ver standen</w>
er zielt</w>
26 .</w>
Sch lä
tr illion</w>
Million en
li min
exten sive</w>
b lan
Johann es</w>
amb iti
Spe ars</w>
oper ates</w>
Bo y
a im</w>
Tennes see</w>
verletz ung</w>
Zeh n
excell ent</w>
conc ert</w>
bek ämp
r aus</w>
An lass</w>
Mit t
Sozial demokraten</w>
Lyn ch</w>
ic ked</w>
Ex press</w>
ome tern</w>
bre ast</w>
stret ch</w>
Rück gang</w>
Al bum</w>
p up
Eis en
Enter tainment</w>
Le ague-
AN GE
H ung
ho ffe</w>
In flation</w>
überras cht</w>
regul ators</w>
Un der
Repor ter</w>
An leihen</w>
touch down</w>
br ary</w>
disap pointed</w>
G onz
P fer
Dire ktor</w>
un e</w>
Commerz bank</w>
verb andes</w>
Bundestag swahl</w>
th ou
distri b
Ge fan
att form</w>
Exper te</w>
b i</w>
gesch ie
Ho ene
Res pe
Sy d
am m</w>
ob tained</w>
t i</w>
hol es</w>
hi red</w>
Con tro
testim ony</w>
con tain</w>
fru str
si a</w>
Ask ed</w>
quali fied</w>
fa il</w>
C ul
th eit</w>
R ath
ger te</w>
kl ar
schie ßen</w>
wen dung</w>
new ly</w>
Gol den</w>
L ah
Be wohner</w>
enjo yed</w>
ges und
K amera</w>
verb unden</w>
ati k</w>
Regi onen</w>
Ide en</w>
boo m</w>
gan gs</w>
I B
Nordrhein- Westfalen</w>
2 1-
gewach sen</w>
Entwickl ungs
C ust
Mo tto</w>
prec ed
Insolven z</w>
cas u
Je an-
schwar zen</w>
pro spect</w>
ex tent</w>
ti a</w>
remo te</w>
domin ated</w>
del ayed</w>
man ip
writ es</w>
er ische</w>
ha z
Ur sache</w>
ein gestellt</w>
2 9.
p en</w>
tour ists</w>
G lo
lie fern</w>
Em ir
LO S</w>
pregn ant</w>
end um</w>
righ t-
entsprech end</w>
k i
For m
türk ischen</w>
dro hen</w>
win ds</w>
sa ved</w>
emplo yers</w>
Ord nung</w>
h n</w>
c ap</w>
T ie
inform ed</w>
air lines</w>
men te</w>
Spitz enk
eng aged</w>
neh mer
fu ß
Linc ol
vermei den</w>
Australi en</w>
rat ings</w>
insurg ents</w>
B e</w>
Qu al
en able</w>
dap d</w>
H R
monit oring</w>
For um</w>
ple as
Fahr t</w>
Mag ath</w>
Au ge</w>
bel t</w>
hän dler</w>
Rund schau</w>
ein iger</w>
Tim o
au dited</w>
16 -
as sen
sc op
Inter essen</w>
er leben</w>
ris s</w>
in ken</w>
fair ly</w>
Nachbar n</w>
H ände</w>
7 5
Daim ler</w>
Rös ler</w>
b ün
Att ent
perfe kt</w>
con gressional</w>
kör per
si ons
wom öglich</w>
d in</w>
du res</w>
ig ner</w>
ant eil</w>
as ks</w>
ier ende</w>
i ana</w>
Grund lage</w>
Schles wig-
absol ute</w>
re cip
J .
Bal ti
ur ban</w>
prep are</w>
zahl ungen</w>
Volksw agen</w>
Gmb H</w>
b right</w>
newsp apers</w>
Schul d</w>
letz ter</w>
prosec utor</w>
ü m
Alli anz</w>
passi eren</w>
inten se</w>
t at</w>
fi res</w>
fi xed</w>
disc rimin
la f</w>
di s</w>
kti ven</w>
For mel</w>
ign ers</w>
partis an</w>
tra ge
hab er</w>
Autob auer</w>
B an</w>
Leip zig</w>
Aus gleich</w>
Wi th
di eren</w>
an lagen</w>
Vor jahres
fre sh
Da gegen</w>
forder ten</w>
Ken ya</w>
t ter
mel dete</w>
I S</w>
nahe zu</w>
re mark
Mar c
ali en</w>
Är z
ksam keit</w>
met al</w>
Wies baden</w>
R A
He alth
Ru f</w>
Konjunk tur</w>
pre is
U tah</w>
Fran ken</w>
leg ung</w>
medic ine</w>
verbess ern</w>
Har t
lo aded</w>
S endung</w>
im al</w>
stam mt</w>
back ground</w>
passen ger</w>
HI V</w>
T iger</w>
ziti ert</w>
W illen</w>
st op
Ber ater</w>
fa chen</w>
shoul der</w>
be am
Mittw och
un ve
J en
ten nis</w>
prosec ution</w>
drü cken</w>
Po or</w>
ro cket</w>
An y
Erdbe ben</w>
Hoene ß</w>
materi ally</w>
vor bereitet</w>
won der</w>
eigen er</w>
-Sie g</w>
be u
go w</w>
sol cher</w>
3 1.</w>
equ al</w>
Nev ada</w>
Bow l</w>
quarter ly</w>
Ver mö
Dah er</w>
Spec ial</w>
An klage</w>
nation alen</w>
Sch ar
In nov
en dete</w>
K ing
tra ded</w>
Schulden krise</w>
Du is
iz ar
Dan k</w>
st sein</w>
zu stellen</w>
Sp ur</w>
ü bt</w>
Deutsch er</w>
Fre e
Barcl ays</w>
at re</w>
pe ak</w>
suffici ent</w>
spek takul
rapid ly</w>
pp t</w>
geb nis</w>
Über gangs
Dar über</w>
gener ated</w>
ück sich
stitu tion</w>
guaran tee</w>
hand ling</w>
survi ve</w>
dam aligen</w>
Aus bau</w>
d ün
italien ische</w>
stre it
ris en</w>
er leich
F av
Ges ell
adop ted</w>
Ver däch
encour aged</w>
lau gh
si mul
co operation</w>
be deut
eri en
Gro ße</w>
T C</w>
P har
F T</w>
unter sucht</w>
P in
G ru
ber g
Ne ub
May be</w>
Now itz
C ross</w>
bark eit</w>
kon stru
bom b
ma ß</w>
Kommun en</w>
Con servative</w>
Vertei diger</w>
we tt
resul ted</w>
wat ers</w>
sch einen</w>
Wer ke</w>
n äher</w>
Clar k</w>
reason able</w>
est en</w>
p liz
Co tt
Jenn ifer</w>
re alized</w>
iz ing</w>
fol gte</w>
Op el-
erst es</w>
Ri v
Erfol gs
accom pl
s ächs
in ne</w>
ac ing</w>
Lar ry</w>
ear th
verl ust</w>
News wire</w>
lu c
Gr öße</w>
complain t</w>
ch anc
Regier ungen</w>
aus schließlich</w>
pp i</w>
L ast
er nen</w>
ex ec
Wer bung</w>
Philli ps</w>
k ol
Staatsan leihen</w>
tit les</w>
guid ance</w>
gän ge</w>
appar ent</w>
gemä ß</w>
ar tige</w>
Sicherheitsk räfte</w>
Syd ney</w>
Geor g</w>
l ös
mi th
gefei ert</w>
B y
au g
läs s
embar rass
Me er
Ju gend</w>
Gra ham</w>
veter ans</w>
Parte itag</w>
inc or
Schw ä
Schleswig- Hol
20 ,
or ation</w>
up dated</w>
vol at
Sy n
A dam
al ities</w>
n ative</w>
mach er</w>
unk no
ent it
vor n</w>
s mart</w>
adjust ed</w>
reag ieren</w>
s ä
D ol
enh agen</w>
ein zigen</w>
Ber g</w>
jour ney</w>
sth af
Z ähler</w>
W äh
In ten
pro gno
v ierte</w>
um m
Re chte</w>
G .</w>
Schi ff
es .com</w>
sch rän
Halb finale</w>
be aten</w>
Be ziehung</w>
R h
abgel ehnt</w>
trans action</w>
pro of</w>
cre ation</w>
Stand ard
schre it
schön e</w>
str o</w>
Fel d</w>
T E
Al ab
it o</w>
n ur
resul ting</w>
rä u
cap able</w>
subsidi ary</w>
at en
1 10</w>
lin gen</w>
zu ständig</w>
Nor bert</w>
campaig ns</w>
be finden</w>
H em
ei d</w>
Har vard</w>
schl uss
ANGE LES</w>
tr y
be hin
d ar</w>
Arch ite
G H</w>
DF B</w>
sch ien</w>
s ell
con cili
fer ing</w>
Syri a</w>
P etro
cop e</w>
198 0</w>
semi -
Se an</w>
communic ation</w>
G ymnasi
Vor sprung</w>
exp anded</w>
Mehr ere</w>
ge ment</w>
Ronal do</w>
behavi our</w>
K öh
Musli ms</w>
h ire</w>
G E</w>
sch lossen</w>
ne ut
N elson</w>
mo di
schaf tliche</w>
tra de
Spekul ationen</w>
pr ene
break s</w>
l y-
Re formen</w>
any where</w>
W H
in fl
offen en</w>
D ynam
Cap it
schwer er</w>
son sten</w>
J r</w>
dist inc
c ameras</w>
Gel egenheit</w>
S ad
Sch il
Ar th
is si
koh ol
Wim ble
collap sed</w>
Wet ter</w>
Guantan amo</w>
bestimm te</w>
Strat e
F as
par liamentary</w>
opp ed</w>
mean while</w>
Sk y</w>
Connec tic
complain ed</w>
contro ls</w>
Verk ehr</w>
Äußer ungen</w>
be stehen</w>
gener ate</w>
rene w
econom ists</w>
Saf ety</w>
refu ge
ch ose</w>
sud denly</w>
v able</w>
betri eb</w>
gl as</w>
El f</w>
emp ty</w>
ho h
min ing</w>
deli ber
Mitch ell</w>
F lam
restruc turing</w>
proper ly</w>
Insur ance</w>
Ver fassung</w>
ent ar
exc iting</w>
sett led</w>
Fel d
ator in</w>
un ions</w>
H ud
18 0</w>
Camp bell</w>
c tion
U C
sub j
des wegen</w>
Der by</w>
r ence</w>
im posed</w>
Pol and</w>
som ebody</w>
leist ungen</w>
Vor bild</w>
tel n</w>
Bud get</w>
A cker
depos its</w>
som it</w>
an ischer</w>
erinn ern</w>
ve get
won ach</w>
Hoffen heim</w>
Materi al</w>
pol n
har dly</w>
fortun ately</w>
un ver
sch afft</w>
bon uses</w>
rä t</w>
O thers</w>
- of-
fut ures</w>
con tains</w>
schw äch
Sha res</w>
re z</w>
charac ter
si v
stor age</w>
4 3
all en
we alth
Rober ts</w>
ush ing</w>
dead line</w>
smo king</w>
preced ented</w>
Zu ge</w>
fun k
promis es</w>
Al ber
L AN
Süd afrika</w>
Progno se</w>
Ste vens</w>
agre ements</w>
men tion</w>
celebr ity</w>
ger ungen</w>
Aus gaben</w>
c ler
di sag
administ rative</w>
it ure</w>
le un
Noten bank</w>
m ord
For tun
Ti bet
mu g
norm ally</w>
Glas gow</w>
sec ured</w>
nin th</w>
own ership</w>
Quar ter</w>
B ack</w>
Wag ner</w>
reco ver</w>
Ar z
5 0-
cast ing</w>
B ack
Bild .de</w>
Sch uss</w>
For schung</w>
Behand lung</w>
be grenz
tran sportation</w>
def end</w>
stro ke</w>
räum e</w>
C ON
im pressive</w>
pro per</w>
grün e</w>
O ut</w>
ef in</w>
ver ein</w>
recommen ded</w>
Inde pendent</w>
mor al</w>
Simp son</w>
5 000</w>
ach tet</w>
a po
ge ändert</w>
wechsel n</w>
rup t</w>
G lei
inde ed</w>
Frie den</w>
Tok io</w>
vor gestellt</w>
M en</w>
an on</w>
Re form
16 0</w>
f ier
so red</w>
mer ger</w>
Car l</w>
Schwier igkeiten</w>
Ö z
Me yer</w>
p au
lat ter</w>
Connectic ut</w>
Temp o</w>
W y
ger ing
frag te</w>
consu mption</w>
aus reichend</w>
ri g</w>
20 15</w>
moder ate</w>
N on-
Städ te</w>
shir t</w>
Schi ff</w>
R ay</w>
sch icken</w>
Morgen post</w>
mo tor</w>
ent en
Turk ish</w>
Vor teil</w>
H isp
F ris
Arbeit nehmer</w>
Mal ay
Er wachsen
Ex ist
mitglie der</w>
p lot</w>
imag ine</w>
Okl ah
pro vision</w>
mp h</w>
suppor ts</w>
schle chte</w>
trib al</w>
Sa ar
Des ign</w>
proce dures</w>
Biel efel
Spiel tag</w>
Teil en</w>
ton ight</w>
Unter schied</w>
R at</w>
K entu
Sus an</w>
Sp uren</w>
d ale</w>
trans ition</w>
taus ende</w>
prospec ts</w>
dead ly</w>
ex ports</w>
rel ative</w>
Victor ia</w>
or neys</w>
Mon ths</w>
vor gesehen</w>
au st
ble -
g al
athle tes</w>
Ange bote</w>
go al
prote cted</w>
Char lie</w>
promis ing</w>
re iter</w>
all eine</w>
as y</w>
f liegen</w>
B in</w>
Gu ard</w>
bisher ige</w>
bestimm ten</w>
5 9
Demok raten</w>
coff ee</w>
speci alist</w>
che ap</w>
gesch ehen</w>
at om
F red</w>
in di
taxpay ers</w>
ser vers</w>
fi x</w>
ali zation</w>
conven i
Zeit ungs
ver sicher
Loc al</w>
Foot ball</w>
for cing</w>
a res</w>
Vorstand schef</w>
dec lar
Gesund heit</w>
week ly</w>
US -S
m atic</w>
Re venue</w>
ück t</w>
Haush alt</w>
We ber</w>
ung laub
Be gegn
cre di
ar i
kün ftigen</w>
Chin as</w>
M ord</w>
---- ---</w>
Writ er</w>
für chten</w>
bit ter</w>
lossen en</w>
par ks</w>
initi atives</w>
T eu
Giuli ani</w>
Man che</w>
necess arily</w>
I stan
Off iz
vor läu
Bar ry</w>
25 -
et ten</w>
classi c</w>
j ü
einig ung</w>
h oo
co ast
schle chter</w>
2, 5</w>
ex posed</w>
Spr ing
sen ken</w>
j i</w>
o tive</w>
Ex p
umstrit tenen</w>
sa ß</w>
j etz
w alls</w>
w ich</w>
un precedented</w>
Hu ck
höch ste</w>
J ub
pp s</w>
W ood
Ehr en
gas oline</w>
y m</w>
be antwor
p ages</w>
sw ahl
Kre m
bor ne</w>
at t</w>
d ating</w>
R W
Bu reau</w>
Instit uts</w>
We ek</w>
bedro om</w>
PRNewswire- US
suff er</w>
De fiz
k ts</w>
zw ungen</w>
gef lo
Lis a</w>
Balti more</w>
PRNewswire-US Newswire</w>
A re
Ral f</w>
betro ffenen</w>
tt i</w>
C av
ent gegen
journal ist</w>
Berlin s</w>
Stan ford</w>
vers amm
frequ ently</w>
ha b</w>
c lash
ho ck
Aus gabe</w>
lik es</w>
bre iten</w>
Stim m
Mün ster</w>
feat ured</w>
Plat z
ste el</w>
C irc
moun tain</w>
Respe kt</w>
e up</w>
ver trau
Sch wan
Cha vez</w>
St att
arab ischen</w>
is chen
ant i</w>
sc ape</w>
unter dessen</w>
B B
sw im
erk ran
oo th</w>
Contro l</w>
fil ing</w>
men de</w>
dem ic</w>
Mark eting</w>
di verse</w>
San ktionen</w>
Sp ons
fre iheit</w>
Ko sten
tor al</w>
lig a</w>
au sh
st ation
Berlin -
Verbrau cher
ver mein
he dge</w>
lei chter</w>
S av
inter rog
gath ering</w>
ass ist</w>
Argent ina</w>
enttäu scht</w>
it y-
het or
D sch
Bundes republik</w>
sitz ung</w>
zi al</w>
Tor wart</w>
yst al</w>
Fuk ush
h üter</w>
Rei d</w>
Asi en</w>
D R</w>
London er</w>
ursprün glich</w>
Flug zeug</w>
j an</w>
in en
cover s</w>
fo undation</w>
bek räf
H ü
re aders</w>
smo ke</w>
mil k</w>
re la
über nimmt</w>
disclos ed</w>
mb ol
Prof i</w>
out put</w>
vor her
Pri ce</w>
virtu ally</w>
leng th</w>
Just iz</w>
el low</w>
ent spricht</w>
lo cked</w>
Sw itz
quarter back</w>
me -
Pf lan
H at</w>
3 000</w>
D ach</w>
kün ftige</w>
Z ie
un ge</w>
cre ative</w>
ak t</w>
fa x</w>
verhin dert</w>
chi at
3 2
spä ten</w>
Arm strong</w>
fin ds</w>
Bon n</w>
exp anding</w>
Vide o
stol en</w>
M ass
Da ve</w>
Hu gh
T eher
Stuttgar ter</w>
Fred die</w>
co tt</w>
b o</w>
class es</w>
represent atives</w>
gr amm
mel den</w>
reich s</w>
sol e</w>
gu ide</w>
ne ck</w>
iel ds</w>
re luc
st aying</w>
on so</w>
R on</w>
spi rit</w>
on ie</w>
Ver län
Stra fe</w>
wär ts</w>
ver wies</w>
har dt</w>
so unds</w>
k la
woh l
Lebens mittel
Ad just
p it</w>
elig ible</w>
Oklah oma</w>
get au
ent lassen</w>
Schwar z-
er ror</w>
k let
Bre mer</w>
gir l
appoin tment</w>
ger ä
s burger</w>
E he</w>
197 0s</w>
hal ben</w>
jen igen</w>
T ank
integr ated</w>
män n
geb äu
Mar i
j ener</w>
sch ten</w>
k shire</w>
is ation</w>
fin ed</w>
Sin ne</w>
be fre
erfül lt</w>
W ayne</w>
L akers</w>
Statt dessen</w>
l abor
An wäl
scrip tion</w>
H at
di abetes</w>
entsprech enden</w>
c ir
G ig
afford able</w>
thro wn</w>
T yp
Wal d
prä sent
chem ical</w>
P K
li ers</w>
Kon ferenz</w>
Mün te
F.A. Z.</w>
ge prä
oper ative</w>
Fün f
ent lichen</w>
gew ähr
präsen tieren</w>
Matthe w</w>
Ein kommen</w>
Ein kauf
kre u
ul ate</w>
Com eback</w>
or er</w>
Colomb ia</w>
li o
Te ch</w>
convinc ed</w>
tan k</w>
be st-
zu ge
Zw ischen</w>
L ad
K iel</w>
G laub
pos session</w>
dig it
versu chte</w>
With out</w>
Nowitz ki</w>
ri ert</w>
C C
er enden</w>
amp a</w>
Steu er</w>
Tran spar
5 6
massi v</w>
d its</w>
5 7
histor ischen</w>
lo k
ent ering</w>
schei den</w>
Zenti meter</w>
Ge is
ö st
D ame</w>
Frei burg</w>
de z</w>
lu cky</w>
sustain able</w>
ro s</w>
Ver brechen</w>
Sp ä
B ell</w>
zerst ört</w>
betri eb
exper tise</w>
Switz erland</w>
eg ten</w>
behaup tet</w>
vers y</w>
Z ar
ec kl
C ze
wie gend</w>
gesch affen</w>
down town</w>
vi o</w>
zäh lte</w>
Ev ans</w>
D ach
fi gen</w>
ra m</w>
Soli dar
arbeit ete</w>
leh nt</w>
aller y</w>
schätz t</w>
atmosp here</w>
divi dend</w>
gesell schaften</w>
b ars</w>
ar ten</w>
bo ards</w>
in ev
birth day</w>
3 0.
stä tte</w>
Fran zo
R eh
Proje kte</w>
v ig
1. 2</w>
R ick</w>
O tto</w>
s essions</w>
F isch
. uk</w>
S -B
hr t</w>
exclu sive</w>
Stell ung
aus gelöst</w>
DV D</w>
d unk
New castle</w>
nieder län
Finanz ierung</w>
taus end</w>
gegen wär
Var ian
Er inn
Unterneh mer</w>
wichtig ste</w>
Christ ine</w>
pre ferred</w>
r and
ball s</w>
Ca stro</w>
F alle</w>
Auf mer
Leb anon</w>
Ver bot</w>
Un ser</w>
ain s</w>
Arbeitslo sigkeit</w>
gek auft</w>
re forms</w>
inci dents</w>
gere cht</w>
Ne um
Tri bun
Y p
C af
ze i</w>
De al</w>
Wet ter
K eller</w>
str ö
Argent in
C la
Polize is
re sident</w>
Har tz
Fern ando</w>
re v
Ed in
Mut ter
par king</w>
V ati
Um fragen</w>
forder ungen</w>
besch rän
sh or
eb t</w>
tot ally</w>
Kat r
E is</w>
ill ance</w>
10 .000</w>
Al ko
Passag iere</w>
K le
K lub</w>
Vorsitz enden</w>
Pro p
Per haps</w>
los er</w>
Medic are</w>
an nen</w>
K lar
vis its</w>
aufge fordert</w>
Fo to
hin ten</w>
Geh ir
Niger ia</w>
Vol ker</w>
äl t</w>
imp lic
N O
einzel ne</w>
N eil</w>
B üch
suggest ing</w>
Kentu cky</w>
tä tig</w>
M ass</w>
wed ding</w>
ma p</w>
it t
Verstän dnis</w>
t nis</w>
bro ader</w>
di e
B urn
limin ary</w>
P ad
Paul i</w>
Hil fen</w>
Nor th
L ON
rest ore</w>
resol ve</w>
it age</w>
com ed</w>
Commer ce</w>
st rom</w>
D ä
de tention</w>
lan ger</w>
Yp sil
tri eb
s si
b ail</w>
am er</w>
men den</w>
an walt</w>
ch tung</w>
or al</w>
ber at
Pra xis</w>
Fün f</w>
cr unch</w>
grün den</w>
hund red</w>
ri ce</w>
verhand lungen</w>
L oo
her o</w>
pursu e</w>
Auf klärung</w>
mag n
oper ated</w>
wer ben</w>
Stra h
dd p</w>
In genie
Pir aten</w>
Krank heit</w>
äuß erst</w>
m ood</w>
einig es</w>
b and
Sch ne
pre mium</w>
men tioned</w>
bail out</w>
unkno wn</w>
Mc Car
Ab stand</w>
constitu tional</w>
Teil nahme</w>
Koaliti on
Juli a</w>
D ON</w>
sch ol
me at</w>
man ns</w>
M B
mit glied</w>
chec ks</w>
detain ees</w>
tr ends</w>
Per spe
h lt</w>
ee ds</w>
viel er</w>
Ju an</w>
. co
app lied</w>
be er</w>
at o</w>
kit chen</w>
Medi kam
ke en</w>
sett le</w>
G ou
Er kran
All tag</w>
An no
hor se</w>
Franzo sen</w>
- and-
typ ical</w>
Tran sport</w>
investig ate</w>
K rist
rac ing</w>
rap id</w>
l unch</w>
ho her</w>
af en</w>
as -
Rus sell</w>
gefähr det</w>
g le
or te</w>
Weihnach ten</w>
em b
wonder ful</w>
G all
S U
Be at
star ben</w>
Hin weis</w>
repe ated</w>
A U
Aus sicht</w>
w asser
mon itor</w>
Ran de</w>
categ ory</w>
Me da
te urer</w>
Les er</w>
Ve ter
Al bert</w>
B rief
Spe aking</w>
Gesprä chen</w>
er b
tic ally</w>
br illi
bir ds</w>
Kap ital</w>
st em
pl ate</w>
scen es</w>
bro thers</w>
mid d
recogn ition</w>
K lassen
Tig ers</w>
specific ally</w>
Sign al</w>
Spitzenk andid
defin ed</w>
dem anding</w>
Be gründung</w>
ul p
g ungs
dr in</w>
Rück stand</w>
loh n</w>
P lätze</w>
invest ieren</w>
franch ise</w>
Automob il
rü ckt</w>
ben ch</w>
Verlän gerung</w>
Po int</w>
Aff airs</w>
Un i</w>
dre h
with draw
re sidential</w>
our selves</w>
C abinet</w>
bu l</w>
def ending</w>
ru s</w>
Telef on</w>
gen es</w>
ver folgt</w>
blo cked</w>
kom pliz
k unden</w>
scho ol
care fully</w>
she et</w>
Op position
197 9</w>
Aug sburg</w>
eindeu tig</w>
atur ing</w>
pro ven</w>
enorm ous</w>
defe ated</w>
e h</w>
L eben
ak et</w>
grei ft</w>
eigen es</w>
ater al</w>
Lux em
wer ken</w>
deta il</w>
l y
cle ared</w>
Demon str
Beam te</w>
F at
tra dition</w>
magaz in</w>
aband oned</w>
refer red</w>
Beru f</w>
Prinzi p</w>
lo sigkeit</w>
Mul ti
g eist
an geneh
fu sion</w>
impro vements</w>
Or land
erreich te</w>
Hö chst
Strei k</w>
Bir m
prakt isch</w>
Louis iana</w>
si ert</w>
Hol oc
bur gs</w>
Musi ker</w>
fl üch
stie gen</w>
Bo den
wel comed</w>
Di am
stu ck</w>
di str
bas ketball</w>
198 6</w>
rac es</w>
ein ig</w>
ell i</w>
gall on</w>
al o</w>
nach hal
Anno un
encour aging</w>
sto red</w>
Zweit en</w>
Th rough</w>
jo urnal</w>
in ary</w>
auf sicht</w>
mel -
Un fall
Y u
Lie bes
Dar m
au to
Gel ände</w>
Sun ni</w>
blo cks</w>
As se
fän ger</w>
tru g</w>
O ster
sp ie
du s</w>
St ei
O reg
Mad off</w>
episo de</w>
bil d
Car di
bom bs</w>
el ements</w>
Z ul
Leg is
K en</w>
V iel</w>
j ag
türk ische</w>
ger -
sustain ed</w>
E ich
K lu
en ly</w>
Raf ael</w>
hä uf
amaz ing</w>
Gei th
V ik
ras ch</w>
Broo kl
Pots dam</w>
st aff
ow ell</w>
Tra dition</w>
Arbeits markt</w>
s me
W ell
gradu ate</w>
Hus sein</w>
oper ator</w>
kun fts
cros s-
us st</w>
demokrat ischen</w>
oppos ite</w>
Amaz on</w>
cal m</w>
f ed</w>
Sti ch
M ir</w>
contro versy</w>
F und
sil ver</w>
M ord
Bu ck
Radi o
bare ly</w>
An frage</w>
fro h</w>
G ast</w>
cap ture</w>
t owns</w>
Aut oren</w>
lic ens
V an
aff air</w>
f urn
exc ep
Model le</w>
age -
f a</w>
st ill
T s
Lux us
Auto fahrer</w>
7 6
J acqu
Dor f</w>
Li ons</w>
ai des</w>
f ing</w>
K amer
rel s</w>
take over</w>
1 st</w>
j a
sh ouldn</w>
Bang ko
n ich
dem anded</w>
k amp
lic ense</w>
schle chten</w>
hal be</w>
di ck</w>
N ancy</w>
Ehe frau</w>
P ist
Au di</w>
en er
camp s</w>
es h</w>
hö he</w>
ro of</w>
V ent
Exper im
Schick sal</w>
Schwar zen
wes entlich</w>
uncertain ty</w>
t licher</w>
J ak
Indones ia</w>
oblig ation</w>
Gewin ne</w>
p ar</w>
spo ts</w>
in her
Entw ur
Ol mert</w>
keep s</w>
R ic
För derung</w>
Nor mal
dic t
wer ing</w>
d un
Per sön
in spir
inter ven
Ma iland</w>
at tract</w>
man ner</w>
Är ger</w>
ern sthaf
At mosp
represent ative</w>
Ab schied</w>
M ets</w>
Medien berichten</w>
li fest
develop ments</w>
O range</w>
gew icht</w>
gew and
198 7</w>
ion e
drück lich</w>
fe ed</w>
dis covery</w>
enth alten</w>
Char ak
Hunder te</w>
G ruppen
israel ischen</w>
shoo t</w>
durchschnit tlich</w>
Sch reiben</w>
schar f</w>
Er folge</w>
Gerä te</w>
Hugh es</w>
d op
M O
Birm ingham</w>
welt weiten</w>
Edin burgh</w>
G ust
AI DS</w>
pl ain</w>
dest o</w>
s itu
Kir chen
jap anischen</w>
W om
ec kt</w>
pro vin
deter ior
wa ited</w>
Mad onna</w>
Vor haben</w>
sen den</w>
B us</w>
In n
öl l
Bra d</w>
F oc
N ut
en heit</w>
m ack</w>
t one</w>
Gi ven</w>
bri cht</w>
Sch ritte</w>
Lau ra</w>
Rob in</w>
tz u
fiel der</w>
Cha os</w>
I C</w>
mo dest</w>
Prin z</w>
Zeu gen</w>
Fav re</w>
Cont act</w>
at in</w>
inv asion</w>
divi ded</w>
Wohn ungen</w>
seh old</w>
fil m
Ann ual</w>
leist ungs
S eh
S ong</w>
gen er</w>
Beobach ter</w>
dien ste</w>
ori um</w>
M ust
be an</w>
fun ction</w>
purch ased</w>
fun k</w>
at z</w>
Istan bul</w>
se ed</w>
ver geben</w>
recogn ize</w>
spra ch
pak et</w>
invest iert</w>
offici ally</w>
Presse agentur</w>
Wimble don</w>
ge teilt</w>
ep er</w>
Vorgän ger</w>
läs si
R onald</w>
tort ure</w>
besu cht</w>
tr acks</w>
leg s</w>
besser en</w>
Er b
st ir
G B</w>
ri f
hom er</w>
sc ar
heim ischen</w>
S til</w>
Ein wohner</w>
Inter essen
cho ices</w>
Pil ot</w>
any body</w>
her ausge
Integr ation</w>
Capit ol</w>
vor ge
k le
den er</w>
Mil ch
resc u
H aving</w>
am -
home owners</w>
j i
US- Dollar</w>
Ap pe
be droht</w>
do l</w>
F inn
di c</w>
del ays</w>
Laf on
Terror isten</w>
Afghan ist
er geben</w>
st i
Cle mens</w>
advis ers</w>
Mik ro
aceu tical</w>
B ook</w>
trei bt</w>
su r</w>
N ight</w>
Kan ada</w>
frei lich</w>
Haus es</w>
t ool</w>
eg ger</w>
st unden</w>
ar tig</w>
Del ta</w>
el derly</w>
Al b
sal ary</w>
fl ag
statt finden</w>
feh l</w>
Alab ama</w>
T O</w>
ne un
Per ry</w>
bo x
stan z</w>
spon sored</w>
Men sch
persön lichen</w>
wor ten</w>
Geith ner</w>
h ung
ra pe</w>
An lage</w>
begeist ert</w>
j ack
X -
st ürz
re serve</w>
Disk ussi
Gri ff
gegrün det</w>
30 ,000</w>
C amp</w>
Bri dge</w>
G h
1, 6
wei ßen</w>
K und
Fen ster</w>
An grei
scr ut
B li
cou ples</w>
ge startet</w>
cri cket</w>
Bün dnis</w>
Mit teilung</w>
use ful</w>
Lei ch
De v
E hem
Verein ten</w>
Lauf e</w>
Elec tri
Amts zeit</w>
replac ement</w>
C lo
A A</w>
ac re</w>
ti an</w>
E C
k et</w>
ersch üt
li er
ver ne
Insolven z
zw anz
Er do
Grü n</w>
spec tive</w>
schwarz- gel
finanz ielle</w>
St ahl
Gip fel
P far
tim ing</w>
r agen</w>
wel chen</w>
enti ert</w>
lif ted</w>
for um</w>
Bundes staat</w>
fest gestellt</w>
guid elines</w>
sch aut</w>
Me g
ick y</w>
Aufmer ksamkeit</w>
Mann es</w>
rol ling</w>
198 4</w>
ak tiv
il ly</w>
Hawai i</w>
War n
Jahrhunder ts</w>
ü ben</w>
Ro t-
Frank reichs</w>
olog ischen</w>
wenig stens</w>
inst all
perio ds</w>
Ir land</w>
C ancer</w>
spä testens</w>
preci ation</w>
spec tac
Karls ruhe</w>
Ben edi
S mart
Dru g</w>
Ber ichte</w>
bal lot</w>
Im age</w>
on e
conspir acy</w>
Schä den</w>
attrac tive</w>
ran ging</w>
Rei ch
Ver pflich
Ger ät</w>
academ ic</w>
an genommen</w>
R ach
Mis sour
re lie
G H
Res ults</w>
tru cks</w>
s ley</w>
Lincol n</w>
p es</w>
gesch ätz
ab sence</w>
Groß teil</w>
Gemein schaft</w>
An kündig
sag ten</w>
performan ces</w>
e- up</w>
dise ases</w>
Orland o</w>
Spra ch
K f
en k</w>
er forder
und -
gan g
kurz fristig</w>
te aching</w>
te amm
Angeklag ten</w>
b or</w>
B am
vor sich
Ed iting</w>
Köh ler</w>
hö h
k asse</w>
dic tion</w>
pack ed</w>
g ste</w>
contribu tions</w>
le ft-
an hal
no body</w>
p fi
cr ack
Ver trags
ee ded</w>
P ay
sen kungen</w>
organiz ed</w>
g ru
Ver besser
d ging</w>
play off</w>
sex per
X in
for get</w>
schwar ze</w>
f es
O E
Co -
So ur
LON DON</w>
volunte ers</w>
Pro vi
bel on
Uni ons
Zeit ungen</w>
Charlo tte</w>
Arth ur</w>
re sign
b ag
gef ahr</w>
Tun es
elek tron
A z
ma inten
ass ass
Verein bar
lo cker</w>
re bel</w>
Kü ste</w>
gebil det</w>
th us</w>
ra il</w>
di alogue</w>
reli gion</w>
Beschl uss</w>
F alls</w>
cap abilities</w>
priv acy</w>
Huck abe
A mo
Sch aden
K oll
lat ing</w>
gres s
ven ues</w>
Oreg on</w>
radi o
L ook</w>
G am
Bezir ks
Dat a</w>
An schluss</w>
sibil ities</w>
vorsitz enden</w>
st ages</w>
f ishing</w>
instit ute</w>
R ome</w>
är z
unmittel bar</w>
T ampa</w>
har te</w>
am ental</w>
kur zen</w>
b b</w>
i es
swe et</w>
Ries en
ogra phy</w>
Ci vil</w>
a polis</w>
vor über
schul dig</w>
ch i</w>
Menschen rechts
S I
op ens</w>
exhib ition</w>
Stand ort</w>
Bek ann
Braz ilian</w>
Fukush ima</w>
Chef in</w>
Höhe punkt</w>
ra rely</w>
trä gen</w>
co ol
stre iten</w>
g ü
For mel-
Vermö gen
L ust</w>
steu ern</w>
gebe ten</w>
b ility</w>
e he</w>
Univers al</w>
conc ept</w>
Regel ung</w>
Ver izon</w>
ä gyp
the ory</w>
Gar anti
en berg</w>
il es</w>
gi ra
plan et</w>
Arab ia</w>
Ro th</w>
P fund</w>
jud gment</w>
se her</w>
Fr ont</w>
vier tel</w>
Beck ham</w>
la bel</w>
gre es</w>
olog ische</w>
a he</w>
Be ar</w>
b ay</w>
M umb
Bangko k</w>
mainten ance</w>
fei ert</w>
f inger</w>
disp os
phil osoph
com pos
pl ä
du ce</w>
opp ers</w>
ide al</w>
belast et</w>
T ake</w>
Arbeit sk
räum te</w>
ul ous</w>
bew aff
Huckabe e</w>
arri val</w>
ed ings</w>
Münte fering</w>
f ak
tr agt</w>
Z immer</w>
be droh
ch ann
Re view</w>
ten sions</w>
H ab
Hu ber</w>
Hy pothe
kul turel
ent ation</w>
tain er</w>
valu able</w>
bon us</w>
awar eness</w>
ar ts</w>
li erung</w>
ent schul
ich ter</w>
Re present
mis sar</w>
oper ators</w>
teen ager</w>
re serv
Ah med</w>
Ar k
la st
al- Mar
g ie</w>
cre te</w>
moment um</w>
Her zen</w>
dach te</w>
brut al</w>
olog ists</w>
concili ation</w>
bl ack
polit an</w>
appe als</w>
Ö ko
schlim m
ber ücksich
complic ated</w>
Mubar ak</w>
weap on</w>
E i
den -
nie mals</w>
accur ate</w>
sli de</w>
thro wing</w>
aktu ell</w>
ruh ig</w>
fe aturing</w>
1. 3</w>
H P</w>
R ight</w>
pr inci
P C
Park er</w>
K rit
ele gan
clo thing</w>
Internation ale</w>
deutsch land</w>
dre hen</w>
lagen en</w>
wür digkeit</w>
Tri polis</w>
betei ligen</w>
Air ways</w>
pri cing</w>
Met ro</w>
Vor schläge</w>
dau gh
le m</w>
Alex and
Frit z</w>
k ne
Ver öffentlich
je wei
hin ein</w>
I dent
f ungen</w>
Kontrol l
konz erns</w>
Islam abad</w>
win digkeit</w>
Republi kaner</w>
Israel is</w>
H ob
arri ve</w>
Fre unden</w>
at tet</w>
auf gerufen</w>
p om
an treten</w>
ver spricht</w>
ber -
Sie g
st ig
Ter min</w>
P harm
regist er</w>
A stron
lo ck
Partei chef</w>
net working</w>
führ enden</w>
geneh mig
experi ences</w>
Arn old</w>
erfül len</w>
ch rist
The od
au ten</w>
Wieder auf
Militä r</w>
Ar ts</w>
pol lu
se itig</w>
M ut</w>
short- term</w>
Le ader</w>
Schl af
ger ich
em e
bil dungs
F ann
Ton i</w>
ch eng
verur sa
mat h</w>
Techn ologies</w>
1, 5
ro ots</w>
Leu ten</w>
sp rit
ple a</w>
deplo yed</w>
R ow
pl ung
Jam a
Brookl yn</w>
J i
qu it</w>
advert is
y ield</w>
acc us
Ger man
ver lu
z b
Spe k
beobach tet</w>
G ur
5. 000</w>
stam men</w>
deal ers</w>
ier er</w>
them e</w>
Mali ki</w>
ar chi
C in
ep rä
Bun des</w>
j ailed</w>
In fo
fat al</w>
Missour i</w>
1 25</w>
Arbeit er</w>
irgend wo</w>
ex por
long time</w>
di ver
Miss issi
deliver ing</w>
Ch er
kommen de</w>
re ference</w>
C rit
Ministeri um</w>
V el
endor f</w>
ste ady</w>
pf el</w>
G o</w>
ber gs</w>
ac res</w>
zah ler</w>
advis ed</w>
treat y</w>
Con n
befür chtet</w>
ev a</w>
Vorbereit ung</w>
dis ab
Wal ker</w>
Klim asch
Kin o</w>
we hren</w>
f ting</w>
per mission</w>
Ab wehr</w>
inf ection</w>
slow ly</w>
Inde ed</w>
coun ted</w>
Restau rant</w>
E D</w>
vor an</w>
Di ffer
ger et
D own
haup t
bundes weit</w>
pir ates</w>
l ung
Ver träge</w>
Dar in</w>
voll ständig</w>
r ischen</w>
zw ischen
Man fred</w>
af raid</w>
Erinn erung</w>
p ick
ch ap
Fi at</w>
mist akes</w>
im por
ver teilt</w>
D unk
e chte</w>
E A</w>
T anz
os i</w>
b aut</w>
ha dn</w>
com fort</w>
O Ö
fei er</w>
pro hib
veröffentlich ten</w>
olo gi
produ z
Er höhung</w>
re pair</w>
entschei denden</w>
wel cher</w>
foot age</w>
tri ps</w>
M esse</w>
Tre ff
ir r
P on
ver dict</w>
Mittel feld
fund ament
li erte</w>
expec ting</w>
Re gen</w>
ste ten</w>
Ein heit</w>
Klin ik</w>
Ju den</w>
Wis con
Organ ization</w>
b aum</w>
S itz</w>
stra in</w>
bour ne</w>
ution ary</w>
blo g
tr um</w>
in hal
cr ashed</w>
S ind</w>
El tern
forec los
travel ing</w>
österreich ischen</w>
Präsident en
Con c
sub scri
K im
s son</w>
ran king</w>
proc essing</w>
acc o</w>
kno wing</w>
convic tion</w>
ion ships</w>
Blo ck
p ath
Invest ig
he bung</w>
dig ungen</w>
O ak
Prosec utors</w>
ob tain</w>
innov ation</w>
ra dical</w>
Leh mann</w>
correc t</w>
wer ks</w>
fe der
Tsch ech
Gl ad
main tained</w>
wind ows</w>
si eren</w>
par tei</w>
über tragen</w>
Sta ates</w>
hess ischen</w>
Sci enti
erheb lich</w>
Schwe ster</w>
H und
Cur rent</w>
Medic ine</w>
E M
Un gar
D adurch</w>
ay or</w>
Govern or</w>
Blo g</w>
Ver mögen</w>
H ed
w ick</w>
wei b
25 ,
wor ries</w>
e is
Ad v
Z au
bewe gt</w>
heirat et</w>
No tes</w>
z ung</w>
z ö
G rant</w>
de men
Al onso</w>
Clau dia</w>
Coll ins</w>
Bo ss</w>
beobach ten</w>
al lied</w>
w ü
t ance</w>
N omin
decre ased</w>
Entwur f</w>
gef asst</w>
rout ine</w>
diagno sed</w>
pl ätze</w>
M ars</w>
fa -
ra k
Alko hol</w>
ch ter
b -
Be weg
st ö
thir ds</w>
Ad ditional</w>
Stu dium</w>
wat ch
contribu tion</w>
ei ved</w>
tion ally</w>
Verantwor tlichen</w>
Jer ry</w>
all zu</w>
Untersuch ungen</w>
Stra ft
Ver fol
land es
notic ed</w>
alle l</w>
adequ ate</w>
prof it
ange bot</w>
gel aufen</w>
colle cted</w>
u a</w>
Ab end
aus gesetzt</w>
re alize</w>
N ar
St au
Schleswig-Hol stein</w>
rich ten
nach mittag</w>
lad y</w>
oper ational</w>
haus es</w>
n äh
20 .000</w>
Bet reiber</w>
griech ischen</w>
E cke</w>
c ester</w>
Hol dings</w>
opp onent</w>
versu s</w>
celeb rate</w>
rec ording</w>
Com mons</w>
hor ri
möglich keiten</w>
si vely</w>
h ir
bu ch
Tr ennung</w>
o tic</w>
pp ers</w>
att orneys</w>
Ko operation</w>
T .</w>
con struc
fe ared</w>
Se oul</w>
B ib
Z o
Wir d</w>
Adam s</w>
refle cts</w>
hu a</w>
Dou glas</w>
Zu g
pra ised</w>
viel mehr</w>
I II</w>
surve illance</w>
Stellung nahme</w>
No v</w>
F R
rec all</w>
Hartz -I
feh lte</w>
out break</w>
Lan ka</w>
gehör te</w>
F ahn
tro p
ver langen</w>
ts man
entre prene
eff e
er le
mo il</w>
difficul ties</w>
as en</w>
cri min
c on</w>
some what</w>
reve al</w>
hal f
de ckt</w>
persön liche</w>
St un
consul tant</w>
Teher an</w>
ta ste</w>
up coming</w>
gl ück</w>
Mississi ppi</w>
arbeit ung</w>
sol ve</w>
i op
disc re
nach richten
gi o</w>
Swe den</w>
e us</w>
o sexu
Her mann</w>
War ren</w>
Pla st
Verän derungen</w>
er ine</w>
qu e
stri king</w>
invest ing</w>
stopp en</w>
R ente</w>
ro les</w>
po sts</w>
tribu te</w>
Coun try</w>
cop y</w>
kill er</w>
K ä
green house</w>
so lic
Fahr zeug</w>
reg ard</w>
stoff e</w>
c ab
anz ei
an ie</w>
We g
Bl ut</w>
sa al</w>
dro pping</w>
k lein</w>
sprü che</w>
1. 4</w>
c abinet</w>
Paul son</w>
Gro ss</w>
verabschie det</w>
s -K
Bor is</w>
am bassador</w>
so fern</w>
coun c
fün ften</w>
7 7
N on
sch ü
metho ds</w>
z ellen</w>
Iraq is</w>
doub led</w>
sch wachen</w>
land ed</w>
Viz eprä
Mu se
Sk i
Betro ffenen</w>
T SV</w>
organis iert</w>
Rück zug</w>
T ory</w>
Mumb ai</w>
peri or</w>
Pl ak
NP D</w>
ai de</w>
I sa
Po dol
ans wered</w>
Verkauf s
figh ter</w>
rü m
z iner</w>
äum en</w>
eng age</w>
am bul
O -
swit ch</w>
forec asts</w>
Bes itzer</w>
reag ierte</w>
Ha iti</w>
hou sehold</w>
beein fl
F äh
st ressed</w>
Gewin ner</w>
D auer</w>
g rant</w>
ersch einen</w>
ge warnt</w>
ol o</w>
---------------- ----------------
Turn ier</w>
depart ure</w>
US- Regierung</w>
Wo wer
land ing</w>
6 5
Kon gress</w>
bekann t
liquid ity</w>
in ches</w>
ran g
C rist
i Po
ta ine</w>
Vor feld</w>
kü ste</w>
6 4
ten -
fle w</w>
Dutz end</w>
do se</w>
Nat o-
vi ch</w>
ev angel
An dro
streng then</w>
ge wiesen</w>
Hur ricane</w>
west lichen</w>
de grees</w>
girl friend</w>
W ander
sor ge</w>
W al-Mar
Dar ling</w>
surpris ing</w>
Mc Donald</w>
am in
A ber
ti ment</w>
W end
mark et
polit ischer</w>
ben ch
h ate</w>
Um gebung</w>
unabhän gig</w>
gele gen</w>
oun ced</w>
ran ks</w>
no gra
Gr öß
t us</w>
el ite</w>
Ch ase</w>
blei be</w>
T ou
An teile</w>
Jes us</w>
zu erst</w>
Bry ant</w>
Zeit raum</w>
schn elle</w>
li on</w>
Über wach
i den
i a-
wo bei</w>
in te
ü gen</w>
F abri
de pen
gel ingt</w>
Hel fer</w>
ge werk
b acher</w>
conven tional</w>
nor mal
bri d</w>
d um
comm and</w>
In tel</w>
pre liminary</w>
dig ten</w>
Neu en</w>
bab ies</w>
er t
investig ations</w>
T hr
be enden</w>
po sit</w>
land -
are -
ff ed</w>
Bau ern</w>
di sh
Che fs</w>
Brut to
C ab
Z en
Spr ung</w>
asi e
Gen au</w>
Wettbewer bs
ö konom
j äger</w>
le ments</w>
b one</w>
I D</w>
O ct</w>
igh ted</w>
poli zei</w>
Wel tr
Lie bl
Mar g
popul arity</w>
Mur phy</w>
terri ble</w>
k ings</w>
Cro wn</w>
Mein ungs
w age</w>
De an</w>
häuf iger</w>
for sch
schul d</w>
Du ke</w>
qu ie
van gira
Hon dur
member ship</w>
Angel s</w>
3. 5</w>
versu chten</w>
champ ions</w>
it is</w>
strate gies</w>
lin ien</w>
tur moil</w>
cou p</w>
ic als</w>
present ation</w>
Tur ner</w>
absol ut</w>
g .</w>
Abgeord ne
Ts vangira
statist ics</w>
H aben</w>
Regierung schefs</w>
supp liers</w>
b ases</w>
I .
st y
S amm
W ells</w>
descri be</w>
de pression</w>
m i</w>
see ks</w>
daugh ters</w>
ex it</w>
Elec tron
neu er
Da von</w>
Res ol
Champ ions
Test s</w>
en emy</w>
Be für
Akti onen</w>
Hon da</w>
eingel aden</w>
dru ckt</w>
desper ate</w>
sa hen</w>
con crete</w>
po t
optim istic</w>
C oh
Indu stry</w>
uli eren</w>
Ben e
di son</w>
s wi
stre cke</w>
I hren</w>
neh mern</w>
recommend ations</w>
Ro y
Bo sn
198 2</w>
au str
Flug haf
Innen stadt</w>
N eb
v owed</w>
Re chnung</w>
Bern ard</w>
fund amental</w>
democr atic</w>
hand ful</w>
He il
ris es</w>
Ch eney</w>
durch setzen</w>
invest ed</w>
Just in</w>
Every one</w>
m ün
ti fik
.. ..
ru hig
ne ben
An griffe</w>
H öh
R ay
Mag na</w>
col or</w>
Leit ung</w>
Ein kommen
Ren ault</w>
ge holt</w>
tt a</w>
arre sts</w>
succ eed</w>
ent wurf</w>
seven -
i ding</w>
borro wers</w>
1, 9
K lein</w>
id den</w>
er es</w>
brau che</w>
dou ble-
offen se</w>
gen annten</w>
reli able</w>
sor ti
T ier</w>
Bundes finanz
gesch äfts
Be griff</w>
Hit ler</w>
bur ied</w>
j an
om men
Hub schrau
L iz
di erte</w>
power ed</w>
on i</w>
Ste in</w>
ta il</w>
engl ischen</w>
deck ung</w>
ra il
ear ning</w>
kur ze</w>
Mitglie d
iti c</w>
K la
Broad way</w>
Ö kon
Dres dner</w>
v ater</w>
photograph s</w>
gu ess</w>
Auf stän
E state</w>
ersch ossen</w>
gi ble</w>
b lin
et ab
A my</w>
Re alität</w>
Frank -
Poli cy</w>
sp l
enk el</w>
Z üge</w>
Gri ff</w>
er zählen</w>
sch ein</w>
Pro gramme</w>
high ligh
refle cted</w>
Un til</w>
Moun tain</w>
- League-
K assen</w>
Ne ther
Wal-Mar t</w>
Pe er</w>
Tat sache</w>
spe ziel
beau ty</w>
peac eful</w>
Wil helm</w>
ab sur
mach ines</w>
ersch i
exten sion</w>
k einem</w>
stru ktur
Hil f
Sou th
explain s</w>
avail ability</w>
clos ure</w>
Su ch
human itarian</w>
ver handelt</w>
proj ected</w>
Fried rich
inno cent</w>
Arg um
Asse mbly</w>
Gesch ichten</w>
ag a</w>
net z</w>
tour ism</w>
j ob
wen de</w>
R ib
K hal
ail ing</w>
sy mbol</w>
v ity</w>
A ar
W ü
di ch</w>
B ö
t ape</w>
Gem ü
Mast ers</w>
gesch n
Wirtschafts minister</w>
fei erte</w>
Jim my</w>
stri ker</w>
S zen
or n</w>
H .
z ene</w>
I hrer</w>
for scher</w>
finanz iert</w>
H E
pak ist
Seit en
Analy se</w>
Auf stieg</w>
m ien</w>
bel n</w>
med al</w>
remark able</w>
B ie
si ves</w>
Prof ile</w>
Emp lo
M e</w>
jap anische</w>
bl ü
Cze ch</w>
leg acy</w>
K airo</w>
Kabin ett</w>
6 6
GD P</w>
Re ports</w>
z iel</w>
B ar</w>
Nutz ung</w>
fre ig
Wiscon sin</w>
ver ring
bil der</w>
aus sehen</w>
rü cken</w>
al ischen</w>
ent -
appro ached</w>
Mittel punkt</w>
lei det</w>
deut liche</w>
non profit</w>
le ton</w>
ans wers</w>
S ho
ch ol
Dau er
dat ab
vergan gene</w>
gest ürzt</w>
adv ent
ze itigen</w>
fal sche</w>
contribu te</w>
Er satz
Schlag ze
princi ples</w>
verfü gt</w>
govern ment-
sub st
ge gner</w>
y l</w>
cheng lad
her o
Pil oten</w>
schö nen</w>
auff äl
zur zeit</w>
schuss es</w>
zentr alen</w>
ur n</w>
Deut sch</w>
com mit</w>
produ ziert</w>
integr ation</w>
masch ine</w>
priv at
unve iled</w>
K aliforn
Sach sen
J ury</w>
ge zwungen</w>
Pe ace</w>
Studi en</w>
Kat eg
essen tially</w>
Thir d</w>
ch ten
geret tet</w>
O pen
ist en
rac ial</w>
Herausforder ung</w>
Z immer
comp eting</w>
g or
Wei ß
los es</w>
En d</w>
P flicht</w>
ris che</w>
sho es</w>
V A</w>
an st
la in</w>
tr age</w>
lo t
eckl en
Po kal
car di
bay erischen</w>
Lan ge</w>
aff e</w>
Sol utions</w>
finanz iellen</w>
Gün ther</w>
bele gt</w>
Foc us</w>
g län
besch rei
Fann ie</w>
ex ist</w>
Pr inc
b ath
ic ated</w>
do kum
Wh ich</w>
jüng ste</w>
klag te</w>
si del
Sh ow
lang fristig</w>
k auf</w>
Ox ford</w>
Aktion äre</w>
E ag
survi val</w>
Sol che</w>
Tsvangira i</w>
H ills</w>
Kon tin
b innen</w>
Explo sion</w>
gr enzen</w>
proje kt</w>
re geln</w>
wer tet</w>
W ater</w>
p etro
Web site</w>
fac tion</w>
V anc
no ti
fin anci
stellvertre tende</w>
St aff
en ger</w>
w ast
on ally</w>
Jam ie</w>
y ou
J ay</w>
g age</w>
se ment</w>
occ ur</w>
beteilig ung</w>
techn ischen</w>
befür chten</w>
verbesser t</w>
über sch
ho sts</w>
trans actions</w>
bom ber</w>
Sach sen</w>
targe ting</w>
lob te</w>
C are
Lo ck
2, 0
be trägt</w>
bur g
archit ec
s äm
s now</w>
Kil ometern</w>
Pos itionen</w>
w ings</w>
auf nehmen</w>
sin ken</w>
sear ching</w>
L ös
F est</w>
Vor der
Bundes verfassungs
li ked</w>
insi sts</w>
Prote ction</w>
seit dem</w>
Wat son</w>
Nie mand</w>
neighb ors</w>
rug by</w>
krit isch</w>
B P</w>
rob ust</w>
Milliar de</w>
Ro y</w>
ti ble</w>
divor ce</w>
L ine</w>
Eben e</w>
ger ade
Wert pap
o gramm</w>
Chin esen</w>
shut tle</w>
ra w</w>
her unter
König s
ach t
25 .
wieder holt</w>
de v</w>
Masch inen</w>
se g
ger issen</w>
k auft</w>
z ell
s auer</w>
techn ik</w>
consul ting</w>
Vor tag</w>
request s</w>
Zi vi
E del
B in
prote cting</w>
techni ques</w>
ur i</w>
Ser ge
k eln</w>
Frieden s
er fahr
Benedi kt</w>
Po kal</w>
commer ci
19 -
aim s</w>
f meter</w>
Bel gien</w>
w un
Ver mitt
zi p
1, 7
ge äußert</w>
Vor fall</w>
crack down</w>
y ellow</w>
hal t
D ick</w>
Ky i</w>
Durch schnitt</w>
re signed</w>
Kandid at</w>
Gre g</w>
öß t</w>
Jan e</w>
amor tization</w>
f ate</w>
A gr
lu ck</w>
hon est</w>
ici al</w>
stand s
Mex iko</w>
K ürz
hum ans</w>
All -
bes etzt</w>
1, 8
con sen
beg leitet</w>
Mark ets</w>
glob alen</w>
der weil</w>
V .</w>
telef on
ghten ed</w>
sho cked</w>
Klin smann</w>
r ation
Ro ten</w>
ass ur
anci ent</w>
Guar dian</w>
wor e</w>
Off ensive</w>
Hän den</w>
con tra
Lu c
K ell
Ein stieg</w>
Sp äter</w>
univers ities</w>
Ro b</w>
Vor gaben</w>
schwier igen</w>
abo ard</w>
lang frist
liby schen</w>
Atmosp häre</w>
d ressed</w>
H ür
Versicher ungs
S add
is her</w>
mu d</w>
Ad vis
gi es
gesetz ten</w>
Botschaf ter</w>
Mön chenglad
ent schied</w>
a sten</w>
th al</w>
lan gem</w>
ent ist</w>
no tor
D ör
Jung s</w>
har ten</w>
li sts</w>
ber ater</w>
bür ger</w>
4 0-
car ries</w>
dist ur
defend ants</w>
K öp
ent steht</w>
ö die</w>
Bes onder
I -
com promise</w>
um ge
Camp a
fi es</w>
legis lat
ch efs</w>
Su u</w>
ä ck
Grün der</w>
gu est</w>
Ear nings</w>
4 50</w>
M auer</w>
lätz en</w>
Zivi listen</w>
mis sil
I V</w>
el ect</w>
pres s
schn ellen</w>
Zus atz
ges unken</w>
Z it
In si
Lin ks
Gerü chte</w>
ut ility</w>
e be</w>
Corpor ate</w>
100 -
J ung</w>
B ond</w>
an gest
cy c
Ob je
V it
reg arded</w>
Pfle ge
Sp i
Ge wer
Olympi asie
psy chiat
educ ational</w>
he ftig</w>
Ypsil anti</w>
.co .uk</w>
wür dig</w>
F all
Li quid
zeu gung</w>
g om
thous and</w>
bit te</w>
carri er</w>
e ve</w>
bi ke</w>
Sän ger</w>
F ield</w>
Wower eit</w>
inten sive</w>
bo w</w>
B ier</w>
insur gency</w>
auf merk
fun eral</w>
- Zeitung</w>
purch ases</w>
neh me</w>
Netz werk</w>
P ass</w>
Un ruhen</w>
s i</w>
us ch</w>
entschei det</w>
Produ z
Bus h
Halb jahr</w>
cor n</w>
Itali ener</w>
indic ate</w>
afri kanischen</w>
n ights</w>
frü h
he f
commission er</w>
can -
Gou verne
196 0s</w>
än ge</w>
Lafon taine</w>
H oh
le er</w>
demokrat ische</w>
We hr
child hood</w>
pro to
Sch eit
ca ine</w>
ange wiesen</w>
V inc
leh nen</w>
casu alties</w>
Dig ital</w>
Podol ski</w>
dr illing</w>
1. 1</w>
Wahl kampf
P ear
Ke ith</w>
In fl
F las
schri ft
pip eline</w>
ir i</w>
Res our
B aker</w>
def ended</w>
ver wendet</w>
lauf ende</w>
S audi
wor n</w>
fo togra
K ohl</w>
reich te</w>
er ings</w>
Sch lag</w>
f lag</w>
Konz ert</w>
stu died</w>
le ben
gel an
An lagen</w>
an en</w>
100 .000</w>
g y</w>
zul ande</w>
tre mend
be stra
any way</w>
ver bu
ip e</w>
Konz erne</w>
auslän dische</w>
sch aden</w>
Mid d
besch leun
Ty p</w>
ben ach
geb ene</w>
Steuer zahler</w>
drän gen</w>
tz e
v et
Stur z</w>
coun ting</w>
198 3</w>
reta iler</w>
ab geben</w>
sor ry</w>
every where</w>
or chest
Er holung</w>
stell ungs
pl ing</w>
st um</w>
m ass
för dern</w>
o li
N äch
W ood</w>
n un
1. 6</w>
B K
re vers
em ail</w>
bar rels</w>
dram atically</w>
kl eines</w>
moder nen</w>
spark ed</w>
on d
tra fen</w>
c af
om en
Je an</w>
man chen</w>
K ent</w>
exp end
Spe aker</w>
an ium</w>
ch am
Be au
2 4,
al ische</w>
revol ution</w>
m ischen</w>
israel ische</w>
Hud son</w>
N ichts</w>
vorsitz ender</w>
en rich
pic ion</w>
Dop ing
Verein s
ähn liche</w>
se iten</w>
Auf tr
atten ding</w>
withdraw al</w>
vers ity</w>
quali fy</w>
re fin
ard less</w>
L auf</w>
Tor hüter</w>
L ater</w>
größ ter</w>
Chanc ellor</w>
z ig
rati o</w>
Kun den
K äufer</w>
bir d</w>
thou ghts</w>
w esen</w>
ge klärt</w>
Schw ellen
Mah m
Jahre sende</w>
om y</w>
tr aut</w>
vermu tet</w>
vi ously</w>
less ons</w>
Po p</w>
5 3
es co</w>
enn a</w>
Fol lowing</w>
gain ing</w>
denk bar</w>
lifest yle</w>
Rich ard
Angrei fer</w>
Co oper</w>
grei f
Pel osi</w>
K um
p -
Bul gar
stell ers</w>
tre as
Ar m</w>
vor gelegt</w>
Proble men</w>
compar able</w>
Some times</w>
foc using</w>
request ed</w>
T E</w>
Währungs fonds</w>
Quadrat meter</w>
ban k-
al ert</w>
re k
Um welt</w>
W ort
El is
polit ically</w>
wealth y</w>
der er</w>
Vir gin</w>
Flor ian</w>
Schwarzen egger</w>
in ations</w>
Sat ell
k li
Prü fung</w>
document ary</w>
wal ks</w>
ol i</w>
Vanc ou
produ ktion</w>
öh nen</w>
Kil ogramm</w>
Verletz ung</w>
I dol</w>
th al
Bet t</w>
disp uted</w>
er staun
ver steht</w>
Col e</w>
ific ation</w>
te or
hol fen</w>
stei gern</w>
w ag
Cor p</w>
Polizeis precher</w>
5 4
om et
Car l
gram ms</w>
am end
tt eil</w>
stie g
conf lic
tac kl
N ab
T en</w>
T U
ig no
ungl ück
R un
Olymp ia</w>
Comp an
scre ening</w>
fel der</w>
Com mission
N 1</w>
intel lec
streng th
irgend wie</w>
Wal d</w>
d ü
konz ept</w>
prü fung</w>
In fe
Nether lands</w>
slow down</w>
kurz em</w>
Zweit lig
M R
Stand ards</w>
Bahn hof</w>
fil ings</w>
Brun o</w>
versu che</w>
Val en
Wech sel
Eröff nung</w>
Jo s
chec k
zu legen</w>
poli c
Train ing
than k</w>
zum al</w>
ri ck</w>
mo thers</w>
stei genden</w>
dep th</w>
genü gend</w>
10 th</w>
konkre te</w>
y ang</w>
De te
gä ste</w>
H u</w>
e- ma
enter prise</w>
Parlament ar
ent eu
A verage</w>
re form
verlän gert</w>
Sch er
Brit en</w>
198 5</w>
Mc L
clo ck</w>
sem ble</w>
tau ght</w>
in ho</w>
di r
ho sted</w>
test ified</w>
comp liance</w>
m ation</w>
Sch nee</w>
blo ß</w>
St one</w>
ed ure</w>
196 8</w>
ange griffen</w>
Wirk lichkeit</w>
ber ry</w>
gebäu de</w>
t ent
P S
Risik o
ti k
lu sive</w>
20 th</w>
FT D</w>
ber ei
p her</w>
C lick</w>
ex plan
Formel- 1-
t ful</w>
Kon sum
se ktor</w>
ha w
Mitglie dern</w>
att itude</w>
A gri
M E</w>
stär ken</w>
fru it</w>
0 8
Ter min
net te</w>
Ka iser</w>
rep lied</w>
Viertel finale</w>
Whe ther</w>
17 0</w>
o urs</w>
bur ning</w>
2- 1</w>
b ub
G et</w>
bra chten</w>
Ka der</w>
geb ür
assi sts</w>
contr actors</w>
sätz en</w>
Spiel ern</w>
Auf nahme</w>
mi ums</w>
wan del</w>
w aves</w>
entit led</w>
l ah
r amp
kill ings</w>
predic t</w>
co ok
h ase</w>
her um
brief ly</w>
ent weder</w>
eff izi
mutmaß lichen</w>
l ender</w>
H itz
spro du
wi dri
dr außen</w>
ur ging</w>
fir ing</w>
over come</w>
r hetor
st ed
itz en</w>
c lar
sus picion</w>
del ighted</w>
pre dec
v s.</w>
Xin hua</w>
Richard son</w>
As sad</w>
Kom p
intro duce</w>
ver trauen</w>
par lam
Ber eit
Sam sung</w>
floo d</w>
C lubs</w>
kar te</w>
compet itors</w>
schre ck
Sing h</w>
gr aben</w>
Bielefel d</w>
Durch schnit
Gemein den</w>
su l
add ressed</w>
Palästinens er</w>
M ou
Be denken</w>
sop hist
sch alten</w>
survi vors</w>
aufmerk sam</w>
bomb ings</w>
Prote sten</w>
But ton</w>
P GA</w>
teen age</w>
Frank- Walter</w>
Vermögen s
Bo s
B ill
1, 2</w>
al -S
rech tlichen</w>
l assung</w>
Wei ßen</w>
punk ten</w>
Mahm oud</w>
näch st</w>
Her bert</w>
um gesetzt</w>
see ded</w>
zer o</w>
virtu al</w>
lä ch
leh nte</w>
RT L</w>
v end
ju ana</w>
Oc ean</w>
St ellen
Kom pet
tac tics</w>
Law rence</w>
Mar cus</w>
konzentri eren</w>
ge prüft</w>
t ell
K räfte</w>
gri d</w>
DD R-
stä tten</w>
mer ely</w>
inten tion</w>
t ops</w>
Au gu
di et</w>
Sch e
bemü ht</w>
E li
Ma xim
keines wegs</w>
const ant</w>
besitz t</w>
betra chtet</w>
n ör
Veranstal ter</w>
st ap
ie fs</w>
squ ee
Gesetz e</w>
V a</w>
u pper</w>
Feuer wehr
p hr
Acker mann</w>
ment ally</w>
argu ing</w>
bran ch</w>
e ye
E AD
qu ant
Hoff nungen</w>
übri g</w>
25 ,000</w>
2 3,
che aper</w>
midd le-
ß te</w>
verz ichtet</w>
Moh am
om ed</w>
Ar c
Lu is</w>
ten er</w>
ris k
autom atisch</w>
manufactur er</w>
Se e
W ann</w>
Th ous
sub mitted</w>
N ase</w>
re verse</w>
sch rump
mar ine</w>
scheit erte</w>
K ern</w>
finanz ieren</w>
m ord</w>
Fi re
disappe ared</w>
Ener gien</w>
wett bewer
at a</w>
ge öffnet</w>
In ter</w>
ten sion</w>
ger ichts</w>
care ful</w>
Stell ung</w>
übri gen</w>
Ro t</w>
Mor ris</w>
M ich</w>
jun ior</w>
zwei felt</w>
K aum</w>
Duis burg</w>
l as</w>
Verwal tung</w>
n ight
bein ahe</w>
Ha ve</w>
ver spro
di cht</w>
fül lt</w>
borro wing</w>
acquis itions</w>
Pri x</w>
AN D</w>
treat ments</w>
sie he</w>
beschä digt</w>
Pet ra
fiz iert</w>
ver -
Sab ine</w>
ent ran
be aring</w>
te uren</w>
Sän gerin</w>
nerv ous</w>
bestä tigen</w>
erhö hung</w>
el ev
Fo rest</w>
demonstr ated</w>
schütz er</w>
constitu tion</w>
unterschie dlichen</w>
kl in</w>
inter viewed</w>
plat z
promo ting</w>
ing re
S n
zeit weise</w>
Dis zipl
griech ische</w>
S AN</w>
fore st</w>
be stand</w>
govern ing</w>
Re agan</w>
H 1
H aut</w>
ent ru
fer tigt</w>
legisl ative</w>
z z</w>
or a</w>
ti on-
Mont gom
An n</w>
some where</w>
Fig ur</w>
inst alled</w>
offiz ielle</w>
D s</w>
Al kohol
Hein rich</w>
go s</w>
Inform ations
2. 0</w>
advoc ates</w>
P er</w>
Vide os</w>
k öp
st unde</w>
Zel aya</w>
S ah
st ößt</w>
No bel</w>
for th</w>
Analy st</w>
T own</w>
Span ier</w>
ut en
Europä er</w>
Vancou ver</w>
belie b
ri ding</w>
ali zing</w>
F air</w>
missil es</w>
Ver sch
Er inner
ab bau</w>
bur st</w>
Lei den
ma ster
positi ons
chann els</w>
a z</w>
optim istisch</w>
fanta stic</w>
sw ing</w>
fang s</w>
si m
Lebens mittel</w>
tour ist</w>
afgh anischen</w>
Car ib
er möglichen</w>
Bar ro
al arm
ti red</w>
küm mern</w>
f avour</w>
D hab
Euro zone</w>
Legis lat
ra h</w>
gesch ossen</w>
sicher lich</w>
teen agers</w>
Bundes wehr
unterschie dliche</w>
L. A.</w>
ack t</w>
lin er</w>
Te en
Erdo gan</w>
P anz
ren ov
fle et</w>
Man chmal</w>
an k</w>
lo g</w>
co caine</w>
Di alog</w>
Med ve
tze itig</w>
er up
fun ny</w>
Tel evision</w>
6 ,000</w>
li erten</w>
Ant worten</w>
verb ände</w>
Gesund heit
B auer</w>
sich erte</w>
5 00,000</w>
inter vention</w>
ver bo
2 2,
Ger ech
Produ ktions
ambiti ous</w>
Sch re
fr ame</w>
R .
Mar ie</w>
tra il</w>
co o
C lassi
ac es</w>
pup ils</w>
sp olitik</w>
besu chen</w>
Sadd am</w>
techn ische</w>
Aar on</w>
ck es</w>
disab led</w>
helicop ters</w>
Ga al</w>
house holds</w>
D ak
T on</w>
fortun ate</w>
E arly</w>
inter im</w>
Adjust ed</w>
auf gebaut</w>
Ma e</w>
Olympi a-
so il</w>
Nord korea</w>
bre ite</w>
eigh t-
co ck
Um setzung</w>
k und
kl aren</w>
di men
rie be</w>
ion ed</w>
H ack
E FS
guaran te
colle c
sinn voll</w>
hin weg</w>
proc edure</w>
person ally</w>
ätz en</w>
kin ds</w>
under lying</w>
inte gri
me yer</w>
De puty</w>
reich er</w>
jün gst</w>
Sü do
j unger</w>
su gar</w>
Fu sion</w>
quar tered</w>
Wor l
in os</w>
ultim ate</w>
W ende</w>
institu tion</w>
Mo on</w>
ick te</w>
Landes regierung</w>
maxim al</w>
Medve dev</w>
Unter dessen</w>
Ker ry</w>
entschei dende</w>
ange kommen</w>
Dar stellung</w>
er mor
em pl
Un glück</w>
positi ven</w>
Wel sh</w>
are t</w>
wün schen</w>
P ast
IM F</w>
Contin ental</w>
mi x
g her</w>
equ ally</w>
Gut achten</w>
ter er</w>
Petra eus</w>
den y</w>
Do d
Ark ansas</w>
Er z
Theod or</w>
Rei hen</w>
ou ting</w>
ne uro
bo xes</w>
enh ance</w>
C lu
pollu tion</w>
ern den</w>
organ ic</w>
e ter</w>
es cal
r ush</w>
bur ned</w>
P av
sol o</w>
erk ennung</w>
ex press</w>
cre dit
hal le</w>
mat ure</w>
sl ump</w>
Malay sia</w>
attrac ted</w>
or ten</w>
Re isen</w>
Gaddaf is</w>
Meister schaft</w>
1, 4
Kl ar</w>
Sk and
Hu go</w>
sli pped</w>
in ch</w>
L iss
Marc el</w>
provin cial</w>
kontrol liert</w>
Sher iff</w>
Natur al</w>
resi stance</w>
Gel b</w>
be ziehungs
d ying</w>
be vor
K lose</w>
Buil ding</w>
be ur
regi on
Carib bean</w>
ver folgen</w>
nie man
überzeu gen</w>
Tran sportation</w>
sec tors</w>
Tr ag
währ ung</w>
massi ven</w>
st ör
he art
Konz entr
un a</w>
pas ste</w>
abhän gig</w>
B ased</w>
To dd</w>
ri ffen</w>
exclu ding</w>
fl uss
Rod ham</w>
B loo
Ähn lich</w>
M etz
chi p</w>
ben e</w>
develop ers</w>
m ly</w>
K lassi
um fang
15 00</w>
four th-
lig ent</w>
198 1</w>
B and
En tt
Lei che</w>
Hartz-I V-
t all</w>
bro w
gef ä
asse mbly</w>
lau ghter</w>
s .com</w>
re tain</w>
durch zu
k id</w>
Os ama</w>
Pro gramm
dür f
200 ,000</w>
argum ents</w>
Verhand lungs
7 50</w>
ass aul
escap ed</w>
pol itiker</w>
konz erne</w>
Schwar z
Par t</w>
bl ind</w>
spir itu
fire fighters</w>
vor aus</w>
M ör
ri d
ear th</w>
prem ier</w>
st iz
Br us
nar ro
ann ually</w>
Liber al</w>
stie gs
hol m</w>
H ut
gew isse</w>
erschi enen</w>
administ rat
Rat ing
ein heit
ing ers</w>
Champions -League-
Ma th
gen etic</w>
ven tion
appear ances</w>
Man u
ein setzen</w>
C HI
Auf bau</w>
Seit dem</w>
U A
associ ate</w>
Mach th
Ch ile</w>
197 6</w>
favour ite</w>
share holder</w>
Mittel feld</w>
Con vention</w>
entschei dend</w>
He ad
ist ics</w>
Jos é</w>
Veröffentlich ung</w>
Cha p
K az
selbst verständlich</w>
c igare
Sch atten</w>
correspon dent</w>
Pro per
mar gins</w>
Ankündig ung</w>
in tent</w>
mp tions</w>
Op positions
ak u
Fre il
gefüh l</w>
id -
kno cked</w>
M ick
Ne arly</w>
tern al</w>
Jahrzeh nte</w>
im m
Tim es.com</w>
ar ance</w>
D O
C inc
l ake</w>
um welt
conclu sion</w>
P ed
Ar men
stri ch</w>
Sul li
consider ation</w>
in ely</w>
196 7</w>
pur poses</w>
war s</w>
in t
tr äch
Am ster
electron ics</w>
Kompromis s</w>
Con gressional</w>
H ous
NY Times.com</w>
ord entlich</w>
Ak adem
Car din
be weisen</w>
metho d</w>
per n</w>
Gew icht</w>
D anny</w>
Ab kommen</w>
od ds</w>
ür t</w>
To tten
Cott bus</w>
resign ation</w>
dr an</w>
is mus
eh ow</w>
v olle
w affen</w>
dam alige</w>
H oo
cour age</w>
Versor gung</w>
Schrift steller</w>
a .</w>
Stu dent</w>
è re</w>
resu me</w>
u ti
ab sor
Landtag swahl</w>
re ver
gel d
Be darf</w>
Angeklag te</w>
Dhab i</w>
Schl üssel
land scape</w>
wor ben</w>
indic ation</w>
GD L</w>
Nic ole</w>
M ort
el ings</w>
Hil ton</w>
p ione
K id
6 9
Hin zu</w>
ne -
no ting</w>
aus drücklich</w>
ah u</w>
g ood
Sie ben</w>
6 7
bre a
the ft</w>
Oper ations</w>
com mon
An schläge</w>
enti ves</w>
Gir l</w>
h unt</w>
Wel tre
or ien</w>
Mon tagabend</w>
Tor ies</w>
Premier minister</w>
ol dest</w>
ed it
Sil vio</w>
r s</w>
L icht
Mitt lerweile</w>
kir chen</w>
Stad tteil</w>
Wachst ums
An schließend</w>
su chten</w>
pro pri
Cl ass</w>
conne ct</w>
Überrasch ung</w>
col on
geb ühren</w>
challeng ed</w>
sp anische</w>
Ein zug</w>
Mo de
re siden
b ands</w>
2 nd</w>
auf gestellt</w>
um ps</w>
beziehungs weise</w>
zu ständige</w>
Ch ri
Schlagze ilen</w>
Environ mental</w>
Mittwoch abend</w>
schaff te</w>
I G</w>
di am
CO 2</w>
foreclos ure</w>
ner -
dis order</w>
enk ap
fal schen</w>
ar ia</w>
amm ar</w>
sex y</w>
N. J.</w>
Rober to</w>
sur ing</w>
P R</w>
Cardi ff</w>
nam ens</w>
fän gt</w>
de struction</w>
Auseinander setzung</w>
kolle gen</w>
Ne on
a bel</w>
Hoch schul
nar row</w>
urg ent</w>
Dä ne
sorti um</w>
mel det</w>
Ver eine</w>
l ington</w>
compar ison</w>
H und</w>
urs ing</w>
ro unds</w>
Ho f
Schätz ungen</w>
Autob ahn</w>
I P</w>
Rett ungsp
k icked</w>
zu stimmen</w>
Aut oh
ne sty</w>
fl üs
c ann
B R
ff ene</w>
ed ition</w>
Bul l</w>
einer lei</w>
politici an</w>
hier zulande</w>
gesto ßen</w>
k ow
n ütz
ban kers</w>
tag es
h idden</w>
ver einigung</w>
bo ats</w>
ch ur
sing ing</w>
haf tet</w>
gn is
d ark
high- profile</w>
scri pt</w>
un fair</w>
L as
wel fare</w>
Lloy ds</w>
lei ster</w>
ges amm
Ax el</w>
ro t</w>
distrib uted</w>
exc ess</w>
bur den</w>
K ann</w>
th aus</w>
L ein
Di ana</w>
Um fang</w>
Sulli van</w>
Mönchenglad bach</w>
2- 0</w>
h ill</w>
rec yc
don ations</w>
wo che</w>
äl tere</w>
t down</w>
P enn</w>
län ger
K night</w>
pul ling</w>
kandid at</w>
s amt</w>
Ko st
fre e-
opp t</w>
fü gt</w>
cont acted</w>
R ing</w>
o ci
consen sus</w>
sing le-
Tra vel</w>
h oods</w>
d an</w>
wir kte</w>
swim ming</w>
Ver wand
zuver sichtlich</w>
ik es</w>
Produ kt</w>
Quar tal
Lie ber
kul tur</w>
L ight</w>
vertei digt</w>
akzep tieren</w>
er ts</w>
da -
K yo
rol le</w>
Fran z
dien ces</w>
Nor we
un ity</w>
gra ve</w>
Rück en
Nahr ungs
dr ag
por nogra
ro t
j ets</w>
sch em
re det</w>
proce edings</w>
gew ün
defin ition</w>
Angehöri gen</w>
S ac
deut lichen</w>
vac ation</w>
lö st</w>
Staat sh
Staat schef</w>
read s</w>
statt dessen</w>
b ungs
W and</w>
incor por
I N</w>
E U
Se el
trans l
Al z
hin zu
Ver ur
fu els</w>
Dro h
no vel
la stung</w>
at tered</w>
Wor kers</w>
bewer tet</w>
verän dern</w>
D own</w>
sub sequent</w>
ur anium</w>
cre ws</w>
audi o</w>
Totten ham</w>
pr on
Be fragten</w>
ar ian</w>
spr ingen</w>
nut r
Clau de</w>
D oll
zu stand</w>
assu me</w>
Ex por
i que</w>
1- 0</w>
si de
re lating</w>
ent sp
Dr ama</w>
min ds</w>
Schl us
Geb urt</w>
consci ous</w>
Moo dy</w>
L op
ak a</w>
ein stellen</w>
refer endum</w>
dete c
N B
valu ed</w>
cop ies</w>
prem iere</w>
' Ne
su ed</w>
earth quake</w>
D R
ausge zeichnet</w>
Ern ähr
tra ins</w>
Kolle ge</w>
H D</w>
bet rug</w>
Eigent ümer</w>
Commission er</w>
er weit
ir on</w>
Kor ruption</w>
br on
H all
re de</w>
fol gten</w>
taxpay er</w>
S hei
S W
con taining</w>
Mann schaften</w>
Stabil ität</w>
Liber alen</w>
pl au
Liss ab
Man ag
Erst mals</w>
carri ers</w>
hang ing</w>
pf lan
oblig ations</w>
with draw</w>
Thür ingen</w>
ge on</w>
ent ing</w>
sie ger</w>
nis ses</w>
umstrit tene</w>
bli cken</w>
verkauf ten</w>
ex emp
inten ds</w>
accompan ied</w>
. go
V ision</w>
1, 3</w>
Nik ol
Freitag abend</w>
per spective</w>
benö tigt</w>
de cken</w>
l un
g ged</w>
emb assy</w>
begrün dete</w>
Scha eff
Gar den</w>
L ap
G ute</w>
co aches</w>
P owell</w>
reg ung</w>
att ack
Tat ort</w>
Viz e-
cir cul
ar tigen</w>
we ilen</w>
floo ding</w>
1. 8</w>
inst al
beschrei bt</w>
un like</w>
ti v</w>
sud den</w>
par ade</w>
X V
Co ck
bege g
comp onents</w>
Gegen zug</w>
Conserv atives</w>
Aus nahme</w>
Zeh n</w>
A pothe
rech tzeitig</w>
norm alen</w>
alis ieren</w>
surro unded</w>
Tra ff
wh ere
k w</w>
men ten</w>
et ta</w>
ra ises</w>
Valen cia</w>
Rus sen</w>
Gib bs</w>
Bes atz
Auf schwung</w>
demonstr ate</w>
Thom son</w>
an th
e x</w>
erk enn
in ts</w>
wechsel te</w>
J P
19 45</w>
H yp
form at</w>
ver passt</w>
tr ennen</w>
shi p
att ached</w>
Bou le
jewei ligen</w>
E ch
disku tieren</w>
pre fer</w>
San ierung</w>
rä ften</w>
kni fe</w>
Lu kas</w>
Equ ity</w>
Auf enth
schi ff</w>
U E
perf ec
b les</w>
question ing</w>
S G</w>
plan en</w>
c en
mem orial</w>
m esse</w>
re al-
rene wed</w>
sp iegel</w>
Mu ch</w>
E- Ma
Entt äu
pal ästinens
hinter her</w>
Bang lad
hop eful</w>
wehr t</w>
Beteilig ten</w>
it ar</w>
D mit
bre cher</w>
Thous ands</w>
Her ren</w>
ex port</w>
197 2</w>
erhöh te</w>
e y-
ö l</w>
sy mbol
nach zu
Kur se</w>
Demon stration</w>
acc ord
8 7
suspen sion</w>
Bo li
Straus s-K
inform ieren</w>
di scher</w>
r ushed</w>
F O</w>
sci entist</w>
einge führt</w>
En th
Jo sh</w>
rei ßen</w>
Verl auf</w>
Merce des
ser ver</w>
pas sion</w>
war nings</w>
prac tical</w>
er wäh
Ro te</w>
bede uten</w>
th ri
ser vic
C lim
Eng ine
achie vement</w>
at ar</w>
vill ages</w>
rec ord
über nahm</w>
eh mig
secon d
O mar</w>
sp lan
Rend ite</w>
z eln</w>
Offen bar</w>
dies el</w>
Serb ia</w>
def ender</w>
trage dy</w>
diti ons
Flu g</w>
Je ws</w>
Mittel n</w>
du l</w>
Per forman
ex t
Ungar n</w>
Bundes präsident</w>
Frü her</w>
Gott es
auslän dischen</w>
d .de</w>
L em
me ters</w>
Bl um
ur i
besonder en</w>
nor thwest</w>
Fun ktion
co st-
qu is
Sa id</w>
Cinc inn
expl oration</w>
Katr ina</w>
Ch u
erlit ten</w>
Basi c</w>
fol genden</w>
zw ingen</w>
diplom ats</w>
resol ved</w>
k einerlei</w>
inc entives</w>
A ction</w>
ta il
temper atures</w>
v est</w>
Rei ch</w>
Sk y
au ton
Unabhän gigkeit</w>
Er wer
clash es</w>
Gen ehmig
Aktiv itäten</w>
conserv atives</w>
an bieten</w>
in der</w>
gen ommen
bereit schaft</w>
fil es</w>
ap ologi
Dien stagabend</w>
ous ness</w>
c at</w>
chec ked</w>
Unter schie
lossen e</w>
priv ately</w>
B lei
com pound</w>
erfolgreich en</w>
ei ster</w>
a j
ti ps</w>
5 0s</w>
fir men</w>
ster o
hand elte</w>
K asse</w>
en en
freiwilli g</w>
P .
br enn
Finanz märkte</w>
sha dow</w>
don ors</w>
Compan ies</w>
lan dete</w>
S ens
ho b</w>
drin ks</w>
mittel t</w>
8 ,000</w>
k h</w>
critic ised</w>
renew able</w>
ess ors</w>
li qu
tou ched</w>
on ate</w>
Infra struktur</w>
m ere</w>
Co sta</w>
tre ating</w>
führ ende</w>
sto l</w>
frequ ent</w>
T .
ball er</w>
r ab
Zum indest</w>
Mitglie ds
Aust in</w>
stün den</w>
sub prime</w>
Georgi an</w>
J essi
D amen</w>
tremend ous</w>
Sk andal</w>
Op tion</w>
Weltr ang
Haf en</w>
Ober bürger
re b
wün scht</w>
Train ings
spot ted</w>
n ik</w>
te a</w>
kl assi
Naz is</w>
co s</w>
Patri ots</w>
sam ples</w>
pri ced</w>
boy friend</w>
De pression</w>
Ir gend
ko vic</w>
Ehem ann</w>
se em
-J ähriger</w>
Extre m
re play</w>
trans ferred</w>
kar ten</w>
pl äne</w>
elec toral</w>
invol ves</w>
Holoc aust</w>
v ie</w>
Verteidig ung</w>
organis ationen</w>
lie ger</w>
9 9
ur ge</w>
Bür gern</w>
sam e-
leb ten</w>
IB M</w>
Wei ß</w>
kan ische</w>
Jub il
energ ie</w>
Announ ces</w>
E D
vern ün
ter ly</w>
ak teur</w>
so ver
celebr ated</w>
tox ic</w>
c ular</w>
sen ators</w>
Bas ket
geflo gen</w>
dis rup
accus ations</w>
Son gs</w>
getr ennt</w>
Gre e
Kontak te</w>
F ash
mar sch</w>
ver he
Min destens</w>
the o
hy dro
swahl en</w>
olog ie
Del hi</w>
zul äs
R av
Da vies</w>
s ells</w>
ash es</w>
Fo ster</w>
lie fert</w>
Menschen rechte</w>
ß ig</w>
Bob by</w>
Bus ch</w>
e ager</w>
Hisp anic</w>
Electri c</w>
An g
wor fen</w>
consider able</w>
ar o</w>
dr auf</w>
ban ker</w>
P end
der art</w>
mar ke</w>
ett i</w>
tro op</w>
immun e</w>
exper te</w>
particip ation</w>
G P</w>
lash ed</w>
An erkennung</w>
rob bery</w>
hä usern</w>
bor ough</w>
Eig enkap
Ein richtung</w>
wir bt</w>
Dist anz</w>
Be frei
Strei ks</w>
Bahn -
mit geteilt</w>
r as</w>
tan e
broad band</w>
Pf licht
F inger</w>
pain ting</w>
Ausland s
com eback</w>
ein geb
viel es</w>
Mark et
leb enden</w>
tou gher</w>
Li v
kommun ik
6- 3</w>
Sch ül
st ently</w>
ob serv
Lan e</w>
Riv alen</w>
indic tment</w>
t ale</w>
am mer</w>
pen alties</w>
woh nern</w>
fe elings</w>
Al ger
dest ination</w>
clim bed</w>
TH E</w>
Pro min
war rant</w>
repe at</w>
lie fen</w>
wirtschaf tlich</w>
stärk sten</w>
3, 5</w>
w äch
Ab it
cre dits</w>
trib un
schnei den</w>
fin ishing</w>
fahr t
d ness</w>
L ich
la b</w>
scop e</w>
D in
ch est</w>
moder ne</w>
B ade
Bur ma</w>
gestri chen</w>
mar i
Fo ur
pre v
weak ness</w>
ins zen
au diences</w>
schmer z
to b
mem ories</w>
Beh in
ch ersch
po sten</w>
Jo int</w>
colle ct</w>
an gered</w>
den ies</w>
gef ör
Spann ung</w>
vereinbar t</w>
m essen</w>
on ia</w>
mig ration</w>
Z igare
üs sel</w>
m m</w>
Euro- Zone</w>
travel ers</w>
www. ft
al arm</w>
Kom mand
Steph an</w>
ges enkt</w>
appro ve</w>
Un like</w>
Lo ss</w>
lich sten</w>
Zahl ungs
My Space</w>
beschäf tigen</w>
Se chs</w>
erklär ten</w>
de emed</w>
Ber ichten</w>
Dun can</w>
alle t</w>
t chen</w>
Kamp agne</w>
disag re
zeich neten</w>
Gemein schafts
z yn
K .
Ban ks</w>
pain ful</w>
1. 7</w>
Intel ligence</w>
per si
sp an</w>
Pu er
redu ziert</w>
Tal ent</w>
wei chen</w>
list ening</w>
t y-
F lan
ch tes</w>
Relig ion</w>
negoti ate</w>
ber gen</w>
dire kten</w>
un expected</w>
ent liche</w>
te ens</w>
Lie b
A achen</w>
aus fallen</w>
fu hren</w>
gewoh nt</w>
Jessi ca</w>
high way</w>
Aus druck</w>
pil ots</w>
197 7</w>
al iger</w>
zusätz lichen</w>
3 60</w>
tho do
Stu art</w>
ep i
form ally</w>
Lab or
ab rü
hand ele</w>
Cro s
e v</w>
r ist</w>
C iti
fin ances</w>
syst eme</w>
ge p
swe pt</w>
T ed</w>
M all
dis count</w>
Sam uel</w>
life time</w>
Sh ell</w>
Cincinn ati</w>
F oul
Wirtschaf t
Be weis</w>
st range</w>
de br
wei ße</w>
je w</w>
produc tive</w>
E ast
B eng
Zentr ale</w>
W är
nomin ated</w>
fal z</w>
clin ic</w>
vergleich sweise</w>
Gün ter</w>
er wis
asp ects</w>
Koh len
auth ors</w>
abgeord nete</w>
B aum</w>
fol k</w>
Gar ten</w>
ro ck
stit ute</w>
tur bul
0. 5</w>
air ports</w>
ren nen</w>
M TV</w>
ra h
sp ur
pos ing</w>
Ab sturz</w>
1, 500</w>
tig ungs
cra zy</w>
be ster</w>
sm ile</w>
ens wert</w>
c ats</w>
ex hau
Funk tion</w>
Flücht linge</w>
om ers</w>
groß em</w>
über wiegend</w>
an schlag</w>
attemp ting</w>
t ability</w>
j enen</w>
sel ect</w>
life -
ä ss
ü t</w>
Lud wig</w>
d al</w>
disap pointing</w>
L i</w>
M ecklen
ein satz</w>
tra pped</w>
Kon tra
du b
over haul</w>
So ci
f ließen</w>
D jok
schri eben</w>
üb lich</w>
G .
samm eln</w>
att acking</w>
emer ge</w>
den heit</w>
s ang</w>
2 6,
ow e</w>
Aus stieg</w>
kan adi
descri bes</w>
Liter atur</w>
Moh amed</w>
Auf steiger</w>
ple dge</w>
public ation</w>
ver an
Grün dung</w>
n ah</w>
ass ess</w>
igno red</w>
Kaliforn ien</w>
B eine</w>
st om
co inci
begrün det</w>
Bern hard</w>
gew iss</w>
gef angen</w>
imple ment</w>
I K
ge einigt</w>
P ort</w>
30 ,
sch er
So ftw
Aktiv isten</w>
Rak et
w ol
and re
go -
A qu
Sch mit
Studi o</w>
Cam bridge</w>
O sn
Mem orial</w>
ac o</w>
streit et</w>
per -
teil nehmen</w>
ank le</w>
Lag er
ger inger</w>
gän ger</w>
R ho
ich er
pl u
pre cherin</w>
Inter ior</w>
S ä
Mindest lohn</w>
S N
st an</w>
för derung</w>
kl ang</w>
ob s
ish -
bor ders</w>
Ermitt lungs
itali zed</w>
occ asion</w>
ol en</w>
Pl attform</w>
zwanz ig</w>
ar zt</w>
Fest nahme</w>
hi p</w>
www.ft d.de</w>
im pose</w>
el em
con text</w>
play offs</w>
pic king</w>
I CE</w>
Mo de</w>
G 20</w>
proc eeds</w>
bench mark</w>
M af
öff nen</w>
6- 4</w>
Öl preis</w>
Mich el</w>
foo ds</w>
Mo del</w>
Tri ko
Kin d
nat ür
J azz</w>
demo gra
de fiz
k ette</w>
Resol ution</w>
Ro stock</w>
lau tete</w>
quali fying</w>
celeb ration</w>
war nen</w>
Ma x
Nob el
Lloy d</w>
K ey</w>
zeit lich</w>
occup ied</w>
Dies el</w>
ries igen</w>
Varian te</w>
Haush alte</w>
on aire</w>
assu mptions</w>
programm ing</w>
Ar cand
re m
betre u
G ep
hin nehmen</w>
ro ok
lo ads</w>
subst anti
ge ber
inde pend
197 8</w>
Allgem einen</w>
do s</w>
Sonn tagabend</w>
in land
kam mer</w>
um so</w>
off ene</w>
crow ds</w>
cau tion</w>
mand ate</w>
fast est</w>
mo m</w>
me ets</w>
Gal ax
f ache</w>
refuge es</w>
condem ned</w>
Free dom</w>
Organis ationen</w>
be merk
op fer</w>
cr ack</w>
scho ss</w>
Kom pon
Boo t</w>
Bil dern</w>
Hol ger</w>
Coh en</w>
um ph
etz ung</w>
geprä gt</w>
off shore</w>
sor gten</w>
Donnerstag abend</w>
er ende</w>
fast -
P oll
g sten</w>
Ne un
T sun
reluc tant</w>
Voraus setzung</w>
erziel en</w>
Brutto inland
He zb
Ter ror</w>
ter ten</w>
Alp ha
l or
T aten</w>
discrimin ation</w>
ger ichtshof</w>
dem nächst</w>
R BS</w>
ger ichtet</w>
Stra ß
pit ched</w>
H1 N1</w>
Hä ft
F C
ay -
c eas
Mär kten</w>
Russ lands</w>
T rop
si v</w>
V au
Ul tim
am tes</w>
w au
iti ons
lit z</w>
Scho ck</w>
L E</w>
ger iet</w>
b zw
Cor ps</w>
War en</w>
Feder ation</w>
-S ti
Mo z
co urses</w>
arran gements</w>
Zer tifik
are st</w>
Op fern</w>
stei gende</w>
reduc tions</w>
Vor stellungen</w>
bal lo
BS C</w>
E mb
stab ili
su per</w>
In f
Com mon</w>
[...]
