{
  "!</w>": 249,
  "\"</w>": 17,
  "#</w>": 3564,
  "$</w>": 148,
  "%</w>": 498,
  "&</w>": 528,
  "'": 364,
  "'</w>": 87,
  "'Brien</w>": 19067,
  "'Connell</w>": 52514,
  "'Connor</w>": 30342,
  "'Donnell</w>": 40088,
  "'I</w>": 7658,
  "'Malley</w>": 38201,
  "'Ne": 59282,
  "'Neal</w>": 48128,
  "'Neill</w>": 23629,
  "'Reilly</w>": 41510,
  "'S</w>": 24300,
  "'clock</w>": 51566,
  "'d</w>": 1229,
  "'ll</w>": 1061,
  "'m</w>": 568,
  "'re</w>": 369,
  "'s</w>": 29,
  "'t</w>": 115,
  "'ve</w>": 502,
  "(</w>": 38,
  ")</w>": 36,
  "*</w>": 2117,
  "+</w>": 762,
  ",": 35666,
  ",000</w>": 10647,
  ",</w>": 14,
  "-": 110,
  "--": 14082,
  "----": 59393,
  "--------": 57617,
  "----------------": 50378,
  "--------------------------------": 58287,
  "----------------------------------------------------------------": 59063,
  "-------------------------------------------------------------------------</w>": 58349,
  "-------------</w>": 58040,
  "------------</w>": 57575,
  "-----------</w>": 57520,
  "----------</w>": 55847,
  "---------</w>": 51677,
  "--------</w>": 52000,
  "-------</w>": 39941,
  "------</w>": 33666,
  "-----</w>": 39636,
  "----</w>": 36139,
  "---</w>": 31931,
  "--</w>": 298,
  "-10</w>": 56401,
  "-</w>": 28,
  "-A": 26566,
  "-Agentur</w>": 56010,
  "-An": 4308,
  "-B": 1983,
  "-Band</w>": 31603,
  "-Bericht</w>": 49044,
  "-Best": 47198,
  "-Bon": 41489,
  "-Branche</w>": 46174,
  "-Brü": 35639,
  "-Bud": 55526,
  "-Bund</w>": 58032,
  "-Chef</w>": 4990,
  "-Erfolg</w>": 43762,
  "-F": 3656,
  "-Fi</w>": 59139,
  "-Fonds</w>": 56267,
  "-Gruppe</w>": 38391,
  "-I": 22284,
  "-Index</w>": 55425,
  "-J": 4482,
  "-Jah": 40305,
  "-Jahres": 53980,
  "-Jahres-": 47247,
  "-Jon": 59361,
  "-Jährige</w>": 1869,
  "-Jährigen</w>": 2379,
  "-Jähriger</w>": 5654,
  "-Jürgen</w>": 53132,
  "-K": 1137,
  "-Kader</w>": 38293,
  "-Kampagne</w>": 43546,
  "-Kampf</w>": 47483,
  "-Kandid": 27334,
  "-Kandidaten</w>": 41038,
  "-Kap": 40737,
  "-Kapitän</w>": 27503,
  "-Kat": 45918,
  "-Katastrophe</w>": 53942,
  "-Keeper</w>": 25558,
  "-Kil": 28936,
  "-Klasse</w>": 16794,
  "-Klassi": 39016,
  "-Klin": 36185,
  "-Klinik</w>": 36787,
  "-Kol": 41458,
  "-Kolle": 36780,
  "-Kollegen</w>": 41251,
  "-Kop": 53359,
  "-Kopf-": 37289,
  "-Kor": 33770,
  "-Kr": 29943,
  "-Krie": 51986,
  "-Krieg</w>": 54779,
  "-Krise</w>": 30668,
  "-Kul": 32447,
  "-Kunden</w>": 39551,
  "-Kur": 33289,
  "-Kurs</w>": 31215,
  "-Kämpfer</w>": 35342,
  "-Kön": 40235,
  "-League-": 50526,
  "-P": 7473,
  "-Pack": 58826,
  "-Präsident</w>": 50425,
  "-S": 935,
  "-Sah": 52914,
  "-Saison</w>": 23747,
  "-San": 36359,
  "-Sau": 54676,
  "-Seite</w>": 14829,
  "-Seiten</w>": 53315,
  "-Sen": 35567,
  "-Sendung</w>": 34979,
  "-Sep": 59463,
  "-September</w>": 53376,
  "-Ser": 24787,
  "-Serie</w>": 16934,
  "-Sh": 30005,
  "-Shir": 52165,
  "-Show</w>": 15095,
  "-Sicher": 53049,
  "-Sicherheits": 47184,
  "-Sie": 13002,
  "-Sieg</w>": 9638,
  "-Sieger</w>": 25286,
  "-Sk": 31497,
  "-Skandal</w>": 23427,
  "-So": 19610,
  "-Software</w>": 47127,
  "-Soldaten</w>": 51578,
  "-Sonder": 35434,
  "-Spar": 50970,
  "-Sparte</w>": 49066,
  "-Spe": 32306,
  "-Sper": 49299,
  "-Spezial": 31815,
  "-Sport": 17574,
  "-Sportdirektor</w>": 46222,
  "-Spre": 41483,
  "-Sprecher</w>": 9376,
  "-Sprecherin</w>": 22755,
  "-Star</w>": 33353,
  "-Ster": 55040,
  "-Sterne-": 39071,
  "-Sti": 29288,
  "-Stiftung</w>": 13852,
  "-Stim": 27228,
  "-Su": 26110,
  "-Super": 35978,
  "-Syn": 42239,
  "-Syst": 50679,
  "-System</w>": 19972,
  "-Systems</w>": 53222,
  "-Szene</w>": 26375,
  "-Sänger</w>": 43774,
  "-Sü": 23268,
  "-T": 2053,
  "-TV</w>": 50199,
  "-Tal": 29677,
  "-Team</w>": 32355,
  "-Terr": 59208,
  "-Terror": 38471,
  "-Terror-": 60054,
  "-Terroristen</w>": 53543,
  "-Test</w>": 35007,
  "-Ti": 50655,
  "-Tick": 34305,
  "-Tor</w>": 36931,
  "-Tour</w>": 27705,
  "-Truppen</w>": 56601,
  "-Turn": 33840,
  "-Turnier</w>": 19510,
  "-Zeitung</w>": 11554,
  "-and-": 13303,
  "-backed</w>": 51621,
  "-based</w>": 5773,
  "-fi</w>": 36557,
  "-free</w>": 27242,
  "-in-": 22288,
  "-in-law</w>": 27995,
  "-in</w>": 23635,
  "-like</w>": 31326,
  "-long</w>": 36941,
  "-of-": 15700,
  "-off</w>": 13500,
  "-out</w>": 24726,
  "-related</w>": 34530,
  "-start</w>": 52128,
  "-style</w>": 39923,
  "-to-": 13108,
  "-to-date</w>": 54623,
  "-to-market</w>": 58311,
  "-up</w>": 6230,
  "-ups</w>": 45852,
  "-year-old</w>": 3281,
  ".": 813,
  ".-": 17051,
  ".-based</w>": 55150,
  "..": 54830,
  "....": 55412,
  "........": 56643,
  "....</w>": 13620,
  "...</w>": 292,
  "..</w>": 9489,
  ".0": 22329,
  ".000</w>": 55346,
  ".01.": 37399,
  ".01.2008</w>": 58734,
  ".02.": 32884,
  ".02.2008</w>": 58698,
  ".02.2009</w>": 59036,
  ".03.": 28974,
  ".03.2008</w>": 58703,
  ".03.2009</w>": 58708,
  ".04.": 34603,
  ".04.2008</w>": 58886,
  ".04.2009</w>": 59044,
  ".05.": 30697,
  ".05.2008</w>": 58955,
  ".06.": 32206,
  ".07.": 32637,
  ".07.2008</w>": 58833,
  ".08.": 31193,
  ".09.": 32218,
  ".09.2007</w>": 58962,
  ".1</w>": 36788,
  ".</w>": 15,
  ".D.</w>": 59251,
  ".Die</w>": 35542,
  ".N</w>": 49133,
  ".a.</w>": 55614,
  ".at</w>": 8613,
  ".c": 53164,
  ".cfm</w>": 57637,
  ".co": 59487,
  ".co.": 52196,
  ".co.uk</w>": 13411,
  ".com": 57549,
  ".com.": 19335,
  ".com.</w>": 7002,
  ".com</w>": 1809,
  ".de.</w>": 14318,
  ".de</w>": 898,
  ".di</w>": 60821,
  ".go": 55417,
  ".gov.</w>": 56879,
  ".gov</w>": 34698,
  ".html</w>": 18907,
  ".m.</w>": 59658,
  ".net</w>": 32906,
  ".or": 59497,
  ".org": 46056,
  ".org.</w>": 28737,
  ".org</w>": 11580,
  ".scotsman.com</w>": 60259,
  ".uk</w>": 43229,
  "/</w>": 79,
  "0": 1239,
  "0,": 3460,
  "0,000</w>": 11303,
  "0,1</w>": 26605,
  "0,2</w>": 25839,
  "0,3</w>": 25952,
  "0,4</w>": 31752,
  "0,5</w>": 20806,
  "0,6</w>": 34347,
  "0,7</w>": 34933,
  "0,8</w>": 35073,
  "0,9</w>": 40386,
  "0-": 4095,
  "0-0</w>": 36769,
  "0-1</w>": 48500,
  "0-2</w>": 53107,
  "0-3</w>": 56448,
  "0-Führung</w>": 31426,
  "0-Sieg</w>": 24831,
  "0.": 3570,
  "0.0": 56028,
  "0.000</w>": 9238,
  "0.00</w>": 50912,
  "0.01</w>": 54925,
  "0.02</w>": 56734,
  "0.03</w>": 56962,
  "0.04</w>": 57243,
  "0.05</w>": 56188,
  "0.06</w>": 57596,
  "0.07</w>": 57641,
  "0.08</w>": 57219,
  "0.09</w>": 57969,
  "0.0</w>": 56377,
  "0.10</w>": 57562,
  "0.15</w>": 56538,
  "0.1</w>": 20676,
  "0.25</w>": 54165,
  "0.2</w>": 21676,
  "0.3</w>": 22346,
  "0.4</w>": 24551,
  "0.5</w>": 19667,
  "0.6</w>": 26917,
  "0.7</w>": 27859,
  "0.8</w>": 30240,
  "0.9</w>": 34101,
  "0.html</w>": 55018,
  "00": 6724,
  "00,000</w>": 52596,
  "00-": 19149,
  "00.000</w>": 56507,
  "000": 16554,
  "000,000</w>": 54689,
  "000-": 9825,
  "000-square-foot</w>": 55165,
  "0000</w>": 38634,
  "000</w>": 679,
  "001</w>": 46217,
  "007</w>": 50676,
  "00</w>": 1465,
  "00AM</w>": 58071,
  "00s</w>": 45072,
  "01.": 9807,
  "01.2008</w>": 56134,
  "01.2010</w>": 58460,
  "01</w>": 6412,
  "02.": 9873,
  "02.2008</w>": 56444,
  "02.2009</w>": 58561,
  "02.2010</w>": 58592,
  "020</w>": 52045,
  "02</w>": 7044,
  "03": 40368,
  "03.": 8489,
  "03.2008</w>": 56532,
  "03.2009</w>": 56764,
  "03.2010</w>": 58205,
  "03</w>": 7417,
  "04": 34746,
  "04.": 8560,
  "04.2008</w>": 56738,
  "04.2009</w>": 57042,
  "04</w>": 3826,
  "05": 23032,
  "05.": 8717,
  "05.2008</w>": 56752,
  "05.2009</w>": 57489,
  "05</w>": 4140,
  "06": 19277,
  "06.": 9307,
  "06.2008</w>": 57374,
  "06.2009</w>": 57503,
  "06</w>": 6640,
  "07": 20964,
  "07.": 8583,
  "07.2008</w>": 56923,
  "07.2009</w>": 57816,
  "07</w>": 5866,
  "08": 16344,
  "08.": 8773,
  "08.2008</w>": 57200,
  "08.2009</w>": 58469,
  "08.2011</w>": 58480,
  "0800</w>": 45990,
  "08</w>": 4270,
  "09": 25596,
  "09.": 8220,
  "09.2007</w>": 56980,
  "09.2008</w>": 57808,
  "09.2011</w>": 58105,
  "09</w>": 4055,
  "0</w>": 336,
  "0er</w>": 17523,
  "0m</w>": 31277,
  "0s</w>": 36265,
  "1": 1547,
  "1,": 1618,
  "1,0": 16767,
  "1,00": 56140,
  "1,000</w>": 5283,
  "1,0</w>": 39402,
  "1,100</w>": 47582,
  "1,1</w>": 18019,
  "1,2": 46477,
  "1,200</w>": 29306,
  "1,25</w>": 51686,
  "1,2</w>": 13829,
  "1,3": 29045,
  "1,300</w>": 43441,
  "1,3</w>": 15916,
  "1,4": 31546,
  "1,400</w>": 43174,
  "1,4</w>": 17484,
  "1,5": 26408,
  "1,500</w>": 19668,
  "1,50</w>": 42516,
  "1,5</w>": 7949,
  "1,6": 27220,
  "1,600</w>": 45029,
  "1,6</w>": 16459,
  "1,7": 29381,
  "1,700</w>": 51324,
  "1,7</w>": 19303,
  "1,8": 28517,
  "1,800</w>": 49178,
  "1,8</w>": 18137,
  "1,9": 28687,
  "1,9</w>": 24277,
  "1-": 3032,
  "1-0</w>": 15671,
  "1-1</w>": 22916,
  "1-2</w>": 39306,
  "1-3</w>": 46782,
  "1-4</w>": 56496,
  "1-800-": 56318,
  "1-</w>": 41692,
  "1-Jährige</w>": 17079,
  "1-Sieg</w>": 28178,
  "1-year-old</w>": 22382,
  "1.": 1402,
  "1.0": 45421,
  "1.000</w>": 18933,
  "1.0</w>": 43503,
  "1.1</w>": 18426,
  "1.25</w>": 49944,
  "1.2</w>": 14692,
  "1.3</w>": 16906,
  "1.4": 52333,
  "1.4</w>": 18170,
  "1.5": 41684,
  "1.50</w>": 54253,
  "1.5</w>": 10373,
  "1.6</w>": 18421,
  "1.7</w>": 21475,
  "1.8</w>": 21084,
  "1.9</w>": 26651,
  "1.</w>": 899,
  "1.html</w>": 53681,
  "10": 2152,
  "10,": 7986,
  "10,000</w>": 7734,
  "10-": 5183,
  "10-K</w>": 53223,
  "10-Q</w>": 56839,
  "10-year-old</w>": 41462,
  "10-year</w>": 19506,
  "10.": 2705,
  "10.000</w>": 11055,
  "10.1</w>": 55250,
  "10.2007</w>": 55381,
  "10.2008</w>": 56057,
  "10.2009</w>": 57775,
  "10.2011</w>": 56725,
  "10.2</w>": 55964,
  "10.4</w>": 56214,
  "10.5</w>": 53576,
  "10.6</w>": 56319,
  "10.</w>": 4204,
  "100": 8866,
  "100,": 52905,
  "100,000</w>": 8561,
  "100-": 12249,
  "100.": 55956,
  "100.000</w>": 14055,
  "100.0</w>": 58800,
  "1000</w>": 3692,
  "100</w>": 582,
  "100m</w>": 24335,
  "100th</w>": 42456,
  "101</w>": 15626,
  "102</w>": 22387,
  "103</w>": 21733,
  "104</w>": 22580,
  "105</w>": 18409,
  "106</w>": 25498,
  "107</w>": 25675,
  "108</w>": 23976,
  "109</w>": 26326,
  "10</w>": 299,
  "10m</w>": 41783,
  "10th</w>": 15488,
  "11": 8821,
  "11,": 9641,
  "11,000</w>": 38737,
  "11-": 9496,
  "11-year-old</w>": 42885,
  "11.": 2648,
  "11.000</w>": 45342,
  "11.2007</w>": 56187,
  "11.2008</w>": 55777,
  "11.2009</w>": 57731,
  "11.2011</w>": 56817,
  "11.5</w>": 54124,
  "11.</w>": 4213,
  "110": 30865,
  "1100</w>": 30928,
  "110</w>": 9412,
  "111</w>": 18969,
  "112</w>": 22292,
  "113</w>": 27870,
  "114</w>": 28084,
  "115</w>": 18474,
  "116</w>": 27412,
  "117</w>": 28413,
  "118</w>": 29497,
  "119</w>": 32817,
  "11</w>": 533,
  "11th</w>": 19839,
  "12": 3387,
  "12,": 10026,
  "12,000</w>": 27223,
  "12,5</w>": 49330,
  "12-": 7579,
  "12-month</w>": 50447,
  "12-year-old</w>": 36115,
  "12.": 2975,
  "12.000</w>": 34260,
  "12.2007</w>": 58927,
  "12.2011</w>": 56321,
  "12.5</w>": 49557,
  "12.</w>": 4733,
  "120": 30655,
  "120,000</w>": 46276,
  "120.000</w>": 51388,
  "1200</w>": 16438,
  "120</w>": 5016,
  "121</w>": 31595,
  "122</w>": 29521,
  "123</w>": 27557,
  "124</w>": 30152,
  "125</w>": 12962,
  "126</w>": 31161,
  "127</w>": 30924,
  "128</w>": 28193,
  "129</w>": 30493,
  "12</w>": 514,
  "12th</w>": 22078,
  "13": 3207,
  "13,": 11563,
  "13,000</w>": 39231,
  "13-": 8968,
  "13-year-old</w>": 36023,
  "13.": 4563,
  "13.000</w>": 48098,
  "13.5</w>": 55213,
  "13.</w>": 4119,
  "130": 47859,
  "130,000</w>": 53601,
  "1300</w>": 25977,
  "130</w>": 7867,
  "131</w>": 30821,
  "132</w>": 30976,
  "133</w>": 31882,
  "134</w>": 34650,
  "135</w>": 22114,
  "136</w>": 32598,
  "137</w>": 33498,
  "138</w>": 35212,
  "139</w>": 37033,
  "13</w>": 574,
  "13th</w>": 23526,
  "14": 2832,
  "14,": 11293,
  "14,000</w>": 40256,
  "14-": 8134,
  "14-year-old</w>": 32207,
  "14.": 6680,
  "14.000</w>": 49564,
  "14.30</w>": 19171,
  "14.</w>": 4373,
  "140,000</w>": 54210,
  "1400</w>": 27885,
  "140</w>": 9474,
  "141</w>": 36131,
  "142</w>": 35211,
  "143</w>": 35814,
  "144</w>": 31593,
  "145</w>": 26694,
  "146</w>": 39054,
  "147</w>": 36015,
  "148</w>": 39950,
  "149</w>": 36950,
  "14</w>": 527,
  "14th</w>": 25197,
  "15": 2600,
  "15,": 11646,
  "15,000</w>": 18491,
  "15-": 6925,
  "15-year-old</w>": 28326,
  "15-year</w>": 51746,
  "15.": 7151,
  "15.000</w>": 23151,
  "15.30</w>": 15607,
  "15.</w>": 3861,
  "150": 36171,
  "150,000</w>": 24908,
  "150-": 43028,
  "150.000</w>": 37810,
  "1500</w>": 10407,
  "150</w>": 2791,
  "151</w>": 32622,
  "152</w>": 35963,
  "153</w>": 38982,
  "154</w>": 37605,
  "155</w>": 27551,
  "156</w>": 34704,
  "157</w>": 39598,
  "158</w>": 41046,
  "159</w>": 33845,
  "15</w>": 335,
  "15th</w>": 24653,
  "16": 2635,
  "16,": 12469,
  "16,000</w>": 41187,
  "16-": 8697,
  "16-year-old</w>": 27634,
  "16.": 5626,
  "16.000</w>": 49520,
  "16.</w>": 4629,
  "1600</w>": 26888,
  "160</w>": 9784,
  "161</w>": 42184,
  "162</w>": 37743,
  "163</w>": 42039,
  "164</w>": 42756,
  "165</w>": 28335,
  "166</w>": 40065,
  "167</w>": 43092,
  "168</w>": 39825,
  "169</w>": 43533,
  "16</w>": 534,
  "16th</w>": 24666,
  "17": 2499,
  "17,": 11358,
  "17,000</w>": 41420,
  "17-": 8629,
  "17-Jährige</w>": 34955,
  "17-year-old</w>": 24694,
  "17.": 7824,
  "17.000</w>": 51093,
  "17.30</w>": 19045,
  "17.5</w>": 56088,
  "17.</w>": 4514,
  "1700</w>": 32018,
  "170</w>": 12755,
  "171</w>": 40191,
  "172</w>": 39891,
  "173</w>": 39540,
  "174</w>": 44727,
  "175</w>": 20269,
  "176</w>": 39621,
  "177</w>": 42050,
  "178</w>": 42849,
  "179</w>": 42230,
  "17</w>": 577,
  "17th</w>": 24519,
  "18": 1223,
  "18,": 14955,
  "18,000</w>": 40158,
  "18-": 7850,
  "18-Jährige</w>": 28606,
  "18-year-old</w>": 24372,
  "18.": 7509,
  "18.000</w>": 49748,
  "18.30</w>": 14142,
  "18.</w>": 4391,
  "1800</w>": 21710,
  "180</w>": 9060,
  "181</w>": 42179,
  "182</w>": 42817,
  "183</w>": 44157,
  "184</w>": 42901,
  "185</w>": 30616,
  "1860</w>": 11341,
  "186</w>": 44797,
  "187</w>": 45378,
  "188</w>": 43244,
  "1899</w>": 22747,
  "189</w>": 44269,
  "18</w>": 536,
  "18th</w>": 19532,
  "19": 2562,
  "19,": 14514,
  "19,000</w>": 52290,
  "19-": 11042,
  "19-Jährige</w>": 27480,
  "19-year-old</w>": 23604,
  "19.": 7791,
  "19.30</w>": 9697,
  "19.</w>": 4169,
  "1900</w>": 26813,
  "1908</w>": 49978,
  "190</w>": 19937,
  "1910</w>": 46308,
  "1911</w>": 48235,
  "1912</w>": 41634,
  "1913</w>": 42085,
  "1914</w>": 29758,
  "1915</w>": 40364,
  "1917</w>": 38856,
  "1918</w>": 36159,
  "1919</w>": 41508,
  "191</w>": 42913,
  "1920</w>": 38150,
  "1920s</w>": 43855,
  "1922</w>": 44707,
  "1923</w>": 43477,
  "1924</w>": 43710,
  "1925</w>": 42664,
  "1926</w>": 44417,
  "1927</w>": 41303,
  "1928</w>": 41377,
  "1929</w>": 36695,
  "192</w>": 41186,
  "1930</w>": 35798,
  "1930s</w>": 29964,
  "1931</w>": 44193,
  "1932</w>": 39858,
  "1933</w>": 23718,
  "1934</w>": 33477,
  "1935</w>": 38929,
  "1936</w>": 31324,
  "1937</w>": 33920,
  "1938</w>": 25063,
  "1939</w>": 27002,
  "193</w>": 43592,
  "1940</w>": 29220,
  "1940s</w>": 44717,
  "1941</w>": 28811,
  "1942</w>": 28818,
  "1943</w>": 29774,
  "1944</w>": 21893,
  "1945</w>": 11682,
  "1946</w>": 27473,
  "1947</w>": 25118,
  "1948</w>": 23234,
  "1949</w>": 24916,
  "194</w>": 47033,
  "1950</w>": 21492,
  "1950s</w>": 20498,
  "1951</w>": 29813,
  "1952</w>": 26541,
  "1953</w>": 22861,
  "1954</w>": 24409,
  "1955</w>": 25079,
  "1956</w>": 23952,
  "1957</w>": 24460,
  "1958</w>": 24642,
  "1959</w>": 22925,
  "195</w>": 32290,
  "196": 20428,
  "1960</w>": 18215,
  "1960s</w>": 14420,
  "1961</w>": 20164,
  "1962</w>": 18815,
  "1963</w>": 17148,
  "1964</w>": 16880,
  "1965</w>": 17735,
  "1966</w>": 18162,
  "1967</w>": 14114,
  "1968</w>": 14803,
  "1969</w>": 15461,
  "196</w>": 47764,
  "197": 17168,
  "1970</w>": 14680,
  "1970s</w>": 11474,
  "1971</w>": 17084,
  "1972</w>": 13807,
  "1973</w>": 15050,
  "1974</w>": 13927,
  "1975</w>": 14342,
  "1976</w>": 14054,
  "1977</w>": 14639,
  "1978</w>": 14835,
  "1979</w>": 12163,
  "197</w>": 50203,
  "198": 16160,
  "1980</w>": 10935,
  "1980s</w>": 10237,
  "1981</w>": 14158,
  "1982</w>": 12894,
  "1983</w>": 13560,
  "1984</w>": 11760,
  "1985</w>": 12670,
  "1986</w>": 11307,
  "1987</w>": 12040,
  "1988</w>": 10725,
  "1989</w>": 7541,
  "198</w>": 47370,
  "199": 15925,
  "1990</w>": 6664,
  "1990er</w>": 35967,
  "1990s</w>": 10230,
  "1991</w>": 8321,
  "1992</w>": 7621,
  "1993</w>": 8528,
  "1994</w>": 7239,
  "1995</w>": 6978,
  "1996</w>": 7099,
  "1997</w>": 6405,
  "1998</w>": 5765,
  "1999</w>": 5140,
  "199</w>": 37977,
  "19</w>": 769,
  "19th-century</w>": 48566,
  "19th</w>": 18941,
  "1</w>": 161,
  "1bn</w>": 25275,
  "1m</w>": 21161,
  "1st</w>": 15196,
  "2": 1604,
  "2,": 3053,
  "2,0": 31100,
  "2,000</w>": 7671,
  "2,0</w>": 42591,
  "2,1</w>": 27945,
  "2,200</w>": 55137,
  "2,2</w>": 23582,
  "2,3": 47413,
  "2,300</w>": 55382,
  "2,3</w>": 23366,
  "2,4": 43981,
  "2,4</w>": 24048,
  "2,5": 39533,
  "2,500</w>": 25083,
  "2,5</w>": 10694,
  "2,6": 46480,
  "2,6</w>": 25676,
  "2,7": 42816,
  "2,7</w>": 26147,
  "2,8": 42395,
  "2,8</w>": 26844,
  "2,9": 43262,
  "2,9</w>": 33068,
  "2-": 3557,
  "2-0</w>": 15741,
  "2-1</w>": 14754,
  "2-2</w>": 34313,
  "2-3</w>": 38120,
  "2-4</w>": 55704,
  "2-year-old</w>": 18715,
  "2.": 2275,
  "2.000</w>": 20161,
  "2.0</w>": 23968,
  "2.1</w>": 26266,
  "2.2</w>": 22955,
  "2.3</w>": 24046,
  "2.4</w>": 24839,
  "2.5</w>": 12591,
  "2.6</w>": 26348,
  "2.7</w>": 27187,
  "2.8</w>": 28189,
  "2.9</w>": 32984,
  "2.</w>": 1844,
  "2.html</w>": 53250,
  "20": 1385,
  "20,": 17050,
  "20,000</w>": 11536,
  "20-": 5261,
  "20-Jährige</w>": 28362,
  "20-year-old</w>": 24260,
  "20-year</w>": 50145,
  "20.": 9975,
  "20.000</w>": 15300,
  "20.15</w>": 20925,
  "20.30</w>": 22135,
  "20.45</w>": 31623,
  "20.</w>": 3744,
  "200": 7904,
  "200,000</w>": 16001,
  "200-": 27596,
  "200.000</w>": 24732,
  "2000</w>": 2250,
  "2001</w>": 3302,
  "2002</w>": 3455,
  "2003</w>": 3113,
  "2004</w>": 2619,
  "2005-": 54655,
  "2005</w>": 2193,
  "2006-": 52233,
  "2006</w>": 1668,
  "2007-": 44126,
  "2007</w>": 1091,
  "2008": 58552,
  "2008-": 45609,
  "20080": 58356,
  "2008</w>": 719,
  "2009-": 45930,
  "20090": 58409,
  "2009</w>": 739,
  "200</w>": 1288,
  "200m</w>": 34069,
  "2010</w>": 770,
  "2011</w>": 664,
  "2012</w>": 538,
  "2013</w>": 445,
  "2014</w>": 428,
  "2015</w>": 507,
  "2016</w>": 684,
  "2017</w>": 997,
  "2018</w>": 3239,
  "2019</w>": 9165,
  "201</w>": 41977,
  "2020</w>": 4954,
  "2022</w>": 17989,
  "2025</w>": 24768,
  "202</w>": 38281,
  "2030</w>": 16711,
  "203</w>": 46125,
  "204</w>": 45501,
  "2050</w>": 28133,
  "205</w>": 38513,
  "206</w>": 43636,
  "207</w>": 43907,
  "208</w>": 43451,
  "209</w>": 44088,
  "20</w>": 278,
  "20m</w>": 45906,
  "20s</w>": 20019,
  "20th</w>": 14052,
  "21": 11620,
  "21,": 40793,
  "21,000</w>": 54079,
  "21-": 10805,
  "21-Jährige</w>": 27564,
  "21-year-old</w>": 24738,
  "21.": 6264,
  "21.</w>": 4807,
  "2100</w>": 44441,
  "210</w>": 23387,
  "211</w>": 43954,
  "212-": 55248,
  "212</w>": 30350,
  "213</w>": 48497,
  "214</w>": 47703,
  "215</w>": 38386,
  "216</w>": 49532,
  "217</w>": 49521,
  "218</w>": 48284,
  "219</w>": 51247,
  "21</w>": 787,
  "21E</w>": 58382,
  "21st</w>": 17096,
  "22": 9733,
  "22,": 21678,
  "22,000</w>": 50616,
  "22-": 13932,
  "22-Jährige</w>": 26341,
  "22-year-old</w>": 24245,
  "22.": 6574,
  "22.</w>": 5246,
  "2200</w>": 45259,
  "220</w>": 18000,
  "221</w>": 45884,
  "222</w>": 45923,
  "223</w>": 52314,
  "224</w>": 43814,
  "225</w>": 21426,
  "226</w>": 52085,
  "227</w>": 52034,
  "228</w>": 45977,
  "229</w>": 51871,
  "22</w>": 914,
  "22nd</w>": 49020,
  "23": 7388,
  "23,": 21278,
  "23,000</w>": 52006,
  "23-": 12724,
  "23-Jährige</w>": 25629,
  "23-year-old</w>": 23992,
  "23.": 7820,
  "23.</w>": 5604,
  "2300</w>": 47982,
  "230</w>": 20100,
  "231</w>": 50119,
  "232</w>": 51724,
  "233</w>": 52339,
  "234</w>": 52292,
  "235</w>": 41437,
  "236</w>": 52550,
  "237</w>": 52618,
  "238</w>": 51626,
  "239</w>": 45940,
  "23</w>": 1045,
  "23rd</w>": 46796,
  "24": 4830,
  "24,": 20494,
  "24,000</w>": 52601,
  "24-": 10253,
  "24-Jährige</w>": 24577,
  "24-hour</w>": 35826,
  "24-year-old</w>": 24878,
  "24.": 10100,
  "24.</w>": 5421,
  "24.at</w>": 59978,
  "240</w>": 17747,
  "241</w>": 45647,
  "242</w>": 50493,
  "243</w>": 51610,
  "244</w>": 51471,
  "245</w>": 45778,
  "246</w>": 50696,
  "247</w>": 52029,
  "248</w>": 52108,
  "249</w>": 49927,
  "24</w>": 879,
  "24th</w>": 49139,
  "25": 3734,
  "25,": 19813,
  "25,000</w>": 15756,
  "25-": 7962,
  "25-Jährige</w>": 24564,
  "25-year-old</w>": 24521,
  "25.": 17651,
  "25.000</w>": 26059,
  "25.</w>": 4751,
  "250": 43329,
  "250,000</w>": 20571,
  "250.000</w>": 39135,
  "2500</w>": 16708,
  "250</w>": 4226,
  "251</w>": 48496,
  "252</w>": 45032,
  "253</w>": 49602,
  "254</w>": 51049,
  "255</w>": 44213,
  "256</w>": 46600,
  "257</w>": 52103,
  "258</w>": 50477,
  "259</w>": 52743,
  "25</w>": 563,
  "25th</w>": 35412,
  "26": 6175,
  "26,": 21462,
  "26,000</w>": 53290,
  "26-": 16569,
  "26-Jährige</w>": 25191,
  "26-year-old</w>": 25404,
  "26.": 11067,
  "26.</w>": 5881,
  "260</w>": 22848,
  "261</w>": 50404,
  "262</w>": 52471,
  "263</w>": 53067,
  "264</w>": 50511,
  "265</w>": 44011,
  "266</w>": 51823,
  "267</w>": 53230,
  "268</w>": 51816,
  "269</w>": 52357,
  "26</w>": 1352,
  "26th</w>": 51051,
  "27": 6132,
  "27,": 22817,
  "27,000</w>": 53115,
  "27-": 15752,
  "27-Jährige</w>": 24953,
  "27-year-old</w>": 27403,
  "27.": 11132,
  "27.</w>": 5805,
  "270</w>": 21997,
  "271</w>": 51744,
  "272</w>": 50067,
  "273</w>": 52818,
  "274</w>": 53275,
  "275</w>": 35018,
  "276</w>": 52104,
  "277</w>": 52750,
  "278</w>": 53374,
  "279</w>": 52940,
  "27</w>": 1334,
  "27th</w>": 51586,
  "28": 6158,
  "28,": 24657,
  "28,000</w>": 54039,
  "28-": 16100,
  "28-Jährige</w>": 26236,
  "28-year-old</w>": 28555,
  "28.": 11350,
  "28.</w>": 5770,
  "280</w>": 22715,
  "281</w>": 51768,
  "282</w>": 53259,
  "283</w>": 53808,
  "284</w>": 53559,
  "285</w>": 46367,
  "286</w>": 51460,
  "287</w>": 53038,
  "288</w>": 50335,
  "289</w>": 52779,
  "28</w>": 1348,
  "28th</w>": 52572,
  "29": 7482,
  "29,": 24362,
  "29-": 19604,
  "29-Jährige</w>": 27370,
  "29-year-old</w>": 29621,
  "29.": 11737,
  "29.</w>": 6277,
  "290</w>": 34560,
  "291</w>": 53357,
  "292</w>": 53567,
  "293</w>": 54781,
  "294</w>": 53326,
  "295</w>": 46639,
  "296</w>": 54738,
  "297</w>": 54703,
  "298</w>": 48080,
  "299</w>": 45338,
  "29</w>": 1662,
  "29th</w>": 53406,
  "2</w>": 206,
  "2B</w>": 56561,
  "2bn</w>": 29989,
  "2m</w>": 24213,
  "2nd</w>": 18222,
  "3": 872,
  "3,": 4266,
  "3,0": 45845,
  "3,000</w>": 9061,
  "3,0</w>": 51374,
  "3,1</w>": 36581,
  "3,2</w>": 29281,
  "3,3": 54176,
  "3,3</w>": 29403,
  "3,4": 52249,
  "3,4</w>": 30636,
  "3,5": 48693,
  "3,500</w>": 40342,
  "3,5</w>": 14759,
  "3,6": 51520,
  "3,6</w>": 28951,
  "3,7": 49910,
  "3,7</w>": 31246,
  "3,8": 46998,
  "3,8</w>": 31483,
  "3,9": 50011,
  "3,9</w>": 39188,
  "3-": 3770,
  "3-0</w>": 20443,
  "3-1</w>": 19620,
  "3-2</w>": 25014,
  "3-3</w>": 45885,
  "3-4</w>": 51656,
  "3-6</w>": 50272,
  "3-D</w>": 35296,
  "3-point</w>": 47439,
  "3-pointer</w>": 38296,
  "3-pointers</w>": 48696,
  "3-year-old</w>": 49081,
  "3.": 2912,
  "3.000</w>": 22187,
  "3.0</w>": 42552,
  "3.1</w>": 30811,
  "3.2</w>": 28622,
  "3.3</w>": 29155,
  "3.4</w>": 30790,
  "3.5</w>": 17992,
  "3.6</w>": 30012,
  "3.7</w>": 33142,
  "3.8</w>": 33240,
  "3.9</w>": 38052,
  "3.</w>": 2485,
  "3.html</w>": 53118,
  "30": 4371,
  "30,": 24039,
  "30,000</w>": 13561,
  "30-": 6875,
  "30-Jährige</w>": 28504,
  "30-year-old</w>": 29343,
  "30-year</w>": 42379,
  "30.": 12942,
  "30.000</w>": 21384,
  "30.</w>": 4355,
  "300": 20097,
  "300,000</w>": 20536,
  "300-": 44617,
  "300.000</w>": 29836,
  "3000</w>": 8166,
  "300</w>": 1904,
  "301</w>": 50474,
  "302</w>": 53011,
  "303</w>": 47226,
  "304</w>": 51741,
  "305</w>": 49311,
  "306</w>": 52181,
  "307</w>": 53127,
  "308</w>": 50465,
  "309</w>": 53868,
  "30</w>": 311,
  "30pm</w>": 20804,
  "30s</w>": 27567,
  "30th</w>": 41576,
  "31": 36528,
  "31,": 51629,
  "31-": 21743,
  "31-Jährige</w>": 30860,
  "31-year-old</w>": 33811,
  "31.": 19707,
  "31.</w>": 6475,
  "310</w>": 36456,
  "311</w>": 52653,
  "312</w>": 53460,
  "315</w>": 49914,
  "31</w>": 1512,
  "32": 16627,
  "32,": 34135,
  "32-": 21813,
  "32-Jährige</w>": 32737,
  "32-year-old</w>": 34091,
  "32.": 48171,
  "32.</w>": 24604,
  "320</w>": 25380,
  "323</w>": 53773,
  "325</w>": 45730,
  "32</w>": 2009,
  "33": 11977,
  "33,": 51847,
  "33-": 23483,
  "33-Jährige</w>": 34542,
  "33-year-old</w>": 37698,
  "33.": 49769,
  "33.</w>": 25393,
  "330</w>": 27134,
  "333</w>": 39793,
  "33</w>": 2242,
  "34": 8972,
  "34,": 30964,
  "34-": 23786,
  "34-Jährige</w>": 37632,
  "34-year-old</w>": 39031,
  "34.": 48969,
  "34.</w>": 25651,
  "340</w>": 32890,
  "34</w>": 2393,
  "35": 6869,
  "35,": 31865,
  "35,000</w>": 38558,
  "35-": 18462,
  "35-year-old</w>": 38918,
  "35.": 51848,
  "35.000</w>": 50329,
  "35.</w>": 23208,
  "350,000</w>": 48589,
  "3500</w>": 27172,
  "350</w>": 8448,
  "35</w>": 1349,
  "36": 5689,
  "36,": 30255,
  "36,000</w>": 54714,
  "36-": 25590,
  "36-year-old</w>": 43035,
  "36.": 34479,
  "36.</w>": 27510,
  "360</w>": 16793,
  "361</w>": 52327,
  "364</w>": 53879,
  "365</w>": 35123,
  "366</w>": 54080,
  "368</w>": 54073,
  "36</w>": 2389,
  "37": 5751,
  "37,": 30647,
  "37-": 29427,
  "37-Jährige</w>": 40835,
  "37-year-old</w>": 43674,
  "37.": 33634,
  "37.</w>": 28016,
  "370</w>": 19110,
  "373</w>": 55129,
  "375</w>": 43804,
  "37</w>": 2778,
  "38": 6641,
  "38,": 28753,
  "38-": 27581,
  "38-Jährige</w>": 42421,
  "38-year-old</w>": 46446,
  "38.": 36566,
  "38.</w>": 27078,
  "380</w>": 31361,
  "381</w>": 52558,
  "382</w>": 54454,
  "384</w>": 54031,
  "388</w>": 54171,
  "38</w>": 2673,
  "39": 7229,
  "39,": 28791,
  "39-": 31325,
  "39-Jährige</w>": 42729,
  "39-year-old</w>": 47191,
  "39.": 33335,
  "39.</w>": 29729,
  "390</w>": 46961,
  "399</w>": 53768,
  "39</w>": 3037,
  "3</w>": 285,
  "3D-": 31018,
  "3D</w>": 17648,
  "3G</w>": 45295,
  "3bn</w>": 34222,
  "3m</w>": 28515,
  "3rd</w>": 31006,
  "4": 820,
  "4,": 4905,
  "4,0": 50824,
  "4,000</w>": 12795,
  "4,1</w>": 41640,
  "4,2</w>": 35641,
  "4,3": 56675,
  "4,3</w>": 35424,
  "4,4": 55516,
  "4,4</w>": 36477,
  "4,5": 54452,
  "4,500</w>": 48316,
  "4,5</w>": 18818,
  "4,6": 54178,
  "4,6</w>": 35579,
  "4,7": 53441,
  "4,7</w>": 38017,
  "4,8": 52540,
  "4,8</w>": 38501,
  "4,9": 51857,
  "4,9</w>": 44225,
  "4-": 4478,
  "4-0</w>": 29350,
  "4-1</w>": 30573,
  "4-2</w>": 32024,
  "4-3</w>": 39342,
  "4-4</w>": 55562,
  "4-6</w>": 46712,
  "4-year-old</w>": 50551,
  "4.": 3704,
  "4.000</w>": 25947,
  "4.0</w>": 36917,
  "4.1</w>": 35565,
  "4.2</w>": 32723,
  "4.3</w>": 34042,
  "4.4</w>": 34119,
  "4.5</w>": 21996,
  "4.6</w>": 35715,
  "4.7</w>": 38288,
  "4.8</w>": 38304,
  "4.9</w>": 41439,
  "4.</w>": 3539,
  "4.html</w>": 53310,
  "40": 6857,
  "40,": 36992,
  "40,000</w>": 20416,
  "40-": 10246,
  "40-Jährige</w>": 41297,
  "40-year-old</w>": 42056,
  "40.000</w>": 28285,
  "40.</w>": 18063,
  "400": 31317,
  "400,000</w>": 27163,
  "400-": 43745,
  "400.000</w>": 40173,
  "4000</w>": 12516,
  "400</w>": 2413,
  "400m</w>": 45494,
  "401</w>": 40652,
  "402</w>": 55350,
  "403</w>": 55329,
  "404</w>": 53869,
  "405</w>": 52321,
  "406</w>": 55396,
  "407</w>": 55062,
  "408</w>": 55191,
  "40</w>": 606,
  "40s</w>": 34160,
  "40th</w>": 49291,
  "41": 45082,
  "41-": 30850,
  "41.</w>": 30102,
  "410</w>": 50723,
  "41</w>": 2926,
  "42": 30130,
  "42,": 44864,
  "42-": 29452,
  "42-Jährige</w>": 43378,
  "42.": 52698,
  "42.</w>": 29178,
  "420</w>": 37038,
  "425</w>": 53331,
  "42</w>": 2789,
  "43": 10937,
  "43,": 52398,
  "43-": 32221,
  "43.</w>": 29037,
  "430</w>": 40069,
  "43</w>": 3047,
  "44": 9654,
  "44,": 54070,
  "44-": 30691,
  "44.</w>": 28367,
  "440</w>": 38902,
  "447</w>": 55405,
  "44</w>": 2745,
  "45": 6608,
  "45,": 43815,
  "45,000</w>": 48722,
  "45-": 20290,
  "45-year-old</w>": 51016,
  "45.</w>": 20113,
  "4500</w>": 37434,
  "450</w>": 12377,
  "45</w>": 1270,
  "46": 5290,
  "46,": 44169,
  "46-": 33877,
  "46.</w>": 18600,
  "460</w>": 44078,
  "46</w>": 3225,
  "47": 9159,
  "47,": 38592,
  "47-": 32589,
  "47.": 40577,
  "47.</w>": 31387,
  "470</w>": 45784,
  "47</w>": 3313,
  "48": 6483,
  "48,": 35463,
  "48-": 27356,
  "48.": 39585,
  "48.</w>": 29617,
  "480</w>": 38745,
  "48</w>": 2702,
  "49": 6862,
  "49,": 36475,
  "49-": 32948,
  "49.": 38098,
  "49.</w>": 31550,
  "49</w>": 3208,
  "49ers</w>": 31993,
  "4</w>": 394,
  "4bn</w>": 39254,
  "4m</w>": 33290,
  "4th</w>": 33218,
  "4x": 36918,
  "5": 766,
  "5,": 5997,
  "5,0": 52900,
  "5,000</w>": 6437,
  "5,1</w>": 46699,
  "5,2</w>": 43186,
  "5,3": 57411,
  "5,3</w>": 42482,
  "5,4": 56277,
  "5,4</w>": 42310,
  "5,5": 55009,
  "5,5</w>": 24282,
  "5,6": 55026,
  "5,6</w>": 41822,
  "5,7": 52996,
  "5,7</w>": 44482,
  "5,8": 51453,
  "5,8</w>": 44913,
  "5,9": 54528,
  "5,9</w>": 48757,
  "5-": 4934,
  "5-0</w>": 38349,
  "5-1</w>": 41109,
  "5-2</w>": 46346,
  "5-3</w>": 51217,
  "5-4</w>": 44645,
  "5-year-old</w>": 51136,
  "5.": 4345,
  "5.000</w>": 13519,
  "5.0</w>": 53809,
  "5.1</w>": 39429,
  "5.2</w>": 38163,
  "5.3</w>": 38563,
  "5.4</w>": 39214,
  "5.5</w>": 26830,
  "5.6</w>": 38615,
  "5.7</w>": 39377,
  "5.8</w>": 40836,
  "5.9</w>": 45490,
  "5.</w>": 3780,
  "5.html</w>": 53427,
  "50": 4887,
  "50,": 38996,
  "50,000</w>": 10987,
  "50-": 8343,
  "50-Jährige</w>": 40619,
  "50-year-old</w>": 48853,
  "50.000</w>": 20043,
  "50.</w>": 14644,
  "500": 18408,
  "500,000</w>": 16791,
  "500-": 30944,
  "500.000</w>": 31055,
  "5000</w>": 7930,
  "500</w>": 1140,
  "501</w>": 48708,
  "504</w>": 55644,
  "505</w>": 54525,
  "50</w>": 463,
  "50er</w>": 31753,
  "50m</w>": 29407,
  "50s</w>": 29930,
  "50th</w>": 33656,
  "51": 45827,
  "51-": 34158,
  "51.</w>": 29711,
  "510</w>": 53421,
  "51</w>": 3379,
  "52": 23431,
  "52,": 54730,
  "52-": 30037,
  "52.</w>": 28416,
  "520</w>": 47971,
  "52</w>": 3304,
  "53": 14381,
  "53-": 36031,
  "53.</w>": 28675,
  "530</w>": 50662,
  "53</w>": 3708,
  "54": 13874,
  "54-": 35457,
  "54.</w>": 29328,
  "540</w>": 49511,
  "54</w>": 3580,
  "55": 9956,
  "55,": 55259,
  "55-": 31809,
  "55.</w>": 23420,
  "550</w>": 21344,
  "55</w>": 2326,
  "56": 12190,
  "56-": 39200,
  "56.</w>": 29063,
  "560</w>": 45367,
  "56</w>": 3760,
  "57": 11850,
  "57-": 41526,
  "57.</w>": 27930,
  "570</w>": 51496,
  "57</w>": 3895,
  "58": 7630,
  "58,": 47102,
  "58-": 41873,
  "58.</w>": 27445,
  "580</w>": 50992,
  "58</w>": 3986,
  "59": 12563,
  "59,": 51273,
  "59-": 43420,
  "59.</w>": 29809,
  "59</w>": 4124,
  "5</w>": 464,
  "5bn</w>": 25501,
  "5ft</w>": 50736,
  "5m</w>": 17536,
  "5p</w>": 51129,
  "5th</w>": 36125,
  "6": 937,
  "6,": 6250,
  "6,0": 54466,
  "6,000</w>": 17309,
  "6,1</w>": 50494,
  "6,2</w>": 44700,
  "6,3": 57572,
  "6,3</w>": 43825,
  "6,4": 56593,
  "6,4</w>": 44472,
  "6,5": 55374,
  "6,5</w>": 24081,
  "6,6": 55356,
  "6,6</w>": 42089,
  "6,7": 53304,
  "6,7</w>": 39222,
  "6,8": 52127,
  "6,8</w>": 46766,
  "6,9": 55192,
  "6,9</w>": 50034,
  "6-": 7187,
  "6-0</w>": 35302,
  "6-1</w>": 25366,
  "6-2</w>": 22116,
  "6-3</w>": 18714,
  "6-4</w>": 19368,
  "6-5</w>": 55458,
  "6-7</w>": 51886,
  "6-foot-": 47213,
  "6-year-old</w>": 52206,
  "6.": 4486,
  "6.000</w>": 29886,
  "6.0</w>": 55388,
  "6.1</w>": 44267,
  "6.2</w>": 40402,
  "6.3</w>": 41978,
  "6.4</w>": 43113,
  "6.5</w>": 25949,
  "6.6</w>": 44223,
  "6.7</w>": 42928,
  "6.8</w>": 44968,
  "6.9</w>": 47156,
  "6.</w>": 3849,
  "6.html</w>": 53931,
  "60": 5940,
  "60,": 52316,
  "60,000</w>": 27942,
  "60-": 14014,
  "60.000</w>": 35936,
  "60.</w>": 15641,
  "600": 37361,
  "600,000</w>": 34595,
  "600.000</w>": 47100,
  "6000</w>": 15619,
  "600</w>": 3289,
  "606</w>": 55761,
  "60</w>": 992,
  "60er</w>": 35942,
  "60s</w>": 26345,
  "60th</w>": 52688,
  "61-": 43405,
  "61.</w>": 30952,
  "61</w>": 5277,
  "62": 31202,
  "62-": 44129,
  "62.</w>": 29047,
  "620</w>": 50768,
  "62</w>": 5216,
  "63": 18288,
  "63-": 46359,
  "63.</w>": 28427,
  "630</w>": 50412,
  "63</w>": 5202,
  "64": 15157,
  "64-": 41206,
  "64.</w>": 30157,
  "640</w>": 51865,
  "64</w>": 5094,
  "65": 12933,
  "65,000</w>": 54404,
  "65-": 37732,
  "65.</w>": 20691,
  "650</w>": 19706,
  "65</w>": 2870,
  "66": 14767,
  "66-": 47366,
  "66.</w>": 29745,
  "660</w>": 50433,
  "66</w>": 4856,
  "67": 15822,
  "67.</w>": 28260,
  "67</w>": 5150,
  "68": 9275,
  "68-": 47954,
  "68.</w>": 28942,
  "680</w>": 52096,
  "68</w>": 5474,
  "69": 15793,
  "69,": 45556,
  "69-": 49954,
  "69.</w>": 32345,
  "69</w>": 5852,
  "6</w>": 485,
  "6bn</w>": 41133,
  "6m</w>": 34386,
  "6th</w>": 42634,
  "7": 952,
  "7,": 6854,
  "7,0": 55523,
  "7,000</w>": 20770,
  "7,1</w>": 51565,
  "7,2</w>": 43447,
  "7,3": 56971,
  "7,3</w>": 46933,
  "7,4": 55905,
  "7,4</w>": 47544,
  "7,5": 53158,
  "7,500</w>": 50211,
  "7,5</w>": 22628,
  "7,6": 56314,
  "7,6</w>": 46590,
  "7,7": 55347,
  "7,7</w>": 49087,
  "7,8": 54418,
  "7,8</w>": 48439,
  "7,9": 55916,
  "7,9</w>": 53200,
  "7-": 4716,
  "7-0</w>": 52992,
  "7-5</w>": 35940,
  "7-6</w>": 29170,
  "7-year-old</w>": 53753,
  "7.": 4342,
  "7.000</w>": 34958,
  "7.0</w>": 56064,
  "7.1</w>": 47685,
  "7.2</w>": 45504,
  "7.3</w>": 45840,
  "7.4</w>": 46808,
  "7.5</w>": 25341,
  "7.6</w>": 46506,
  "7.7</w>": 47775,
  "7.8</w>": 45896,
  "7.9</w>": 50876,
  "7.</w>": 4395,
  "7.html</w>": 54457,
  "70": 6456,
  "70,": 49992,
  "70,000</w>": 35128,
  "70-": 26507,
  "70.000</w>": 42335,
  "70.</w>": 16245,
  "700": 44379,
  "700,000</w>": 42738,
  "700.000</w>": 52772,
  "7000</w>": 20304,
  "700</w>": 4519,
  "706</w>": 56916,
  "70</w>": 1388,
  "70er</w>": 29802,
  "70s</w>": 25746,
  "71.</w>": 31589,
  "71</w>": 5100,
  "72": 36376,
  "72-": 38993,
  "72.</w>": 29074,
  "720</w>": 49023,
  "72</w>": 4968,
  "73": 17605,
  "73.</w>": 30212,
  "737</w>": 50810,
  "73</w>": 6058,
  "74": 14390,
  "74.</w>": 32608,
  "747</w>": 53534,
  "74</w>": 6087,
  "75": 10668,
  "75,000</w>": 43189,
  "75-": 34547,
  "75.</w>": 19587,
  "750,000</w>": 50816,
  "750</w>": 14427,
  "75</w>": 2304,
  "76": 10661,
  "76.</w>": 30700,
  "76</w>": 6421,
  "77": 9879,
  "77.</w>": 30262,
  "77</w>": 5526,
  "78": 9387,
  "78.</w>": 28698,
  "780</w>": 53122,
  "787</w>": 36506,
  "78</w>": 6655,
  "79": 18916,
  "79.</w>": 32631,
  "79</w>": 7145,
  "7</w>": 585,
  "7bn</w>": 43354,
  "7m</w>": 36116,
  "7th</w>": 40918,
  "8": 994,
  "8,": 6686,
  "8,0": 56218,
  "8,000</w>": 19884,
  "8,2</w>": 52021,
  "8,3</w>": 52303,
  "8,4": 57338,
  "8,4</w>": 52173,
  "8,5": 56677,
  "8,5</w>": 34056,
  "8,6": 56610,
  "8,6</w>": 52474,
  "8,7": 55615,
  "8,7</w>": 52822,
  "8,8": 54858,
  "8,8</w>": 53153,
  "8,9": 56446,
  "8-": 5652,
  "8-year-old</w>": 53277,
  "8.": 4947,
  "8.000</w>": 34647,
  "8.0</w>": 56812,
  "8.1</w>": 44008,
  "8.2</w>": 48593,
  "8.3</w>": 47713,
  "8.4</w>": 50502,
  "8.5</w>": 32698,
  "8.6</w>": 50489,
  "8.7</w>": 51102,
  "8.8</w>": 50361,
  "8.9</w>": 52151,
  "8.</w>": 4332,
  "8.html</w>": 54616,
  "80": 6663,
  "80,": 56711,
  "80,000</w>": 33667,
  "80-": 27778,
  "80.000</w>": 41967,
  "80.</w>": 18189,
  "800": 32573,
  "800,000</w>": 38770,
  "800-": 41620,
  "800.000</w>": 48879,
  "8000</w>": 19254,
  "800</w>": 3624,
  "80</w>": 1414,
  "80er</w>": 29166,
  "80s</w>": 24044,
  "81.</w>": 31807,
  "81</w>": 7736,
  "82.</w>": 30113,
  "82</w>": 8131,
  "83": 20829,
  "83.</w>": 30726,
  "83</w>": 8330,
  "84": 23632,
  "84.</w>": 32085,
  "84</w>": 8273,
  "85": 18371,
  "85-": 48205,
  "85.</w>": 24141,
  "850</w>": 26291,
  "85</w>": 3830,
  "86": 22589,
  "86-": 51283,
  "86.</w>": 31153,
  "866-": 57833,
  "86</w>": 8079,
  "87": 22115,
  "87.</w>": 30500,
  "877-": 57698,
  "87</w>": 8954,
  "88": 13184,
  "88.</w>": 28409,
  "888-": 56762,
  "888</w>": 53339,
  "88</w>": 7567,
  "89": 22244,
  "89.</w>": 30918,
  "89</w>": 8430,
  "8</w>": 674,
  "8bn</w>": 44517,
  "8m</w>": 37455,
  "8th</w>": 44319,
  "9": 941,
  "9,": 5569,
  "9,0": 56588,
  "9,000</w>": 23247,
  "9,4": 57477,
  "9,5": 56767,
  "9,5</w>": 41869,
  "9,6": 56886,
  "9,7": 55546,
  "9,8": 54643,
  "9,9": 50531,
  "9-": 7184,
  "9-year-old</w>": 54262,
  "9.": 4596,
  "9.000</w>": 47470,
  "9.0</w>": 56753,
  "9.1</w>": 51909,
  "9.2</w>": 51702,
  "9.3</w>": 50935,
  "9.4</w>": 51622,
  "9.5</w>": 40854,
  "9.6</w>": 52025,
  "9.7</w>": 52272,
  "9.8</w>": 52885,
  "9.99</w>": 45244,
  "9.9</w>": 51692,
  "9.</w>": 4402,
  "9.html</w>": 54480,
  "90": 7898,
  "90,000</w>": 46559,
  "90-": 21508,
  "90.</w>": 13445,
  "900": 52236,
  "9000</w>": 29816,
  "900</w>": 6637,
  "90</w>": 1445,
  "90er</w>": 26706,
  "90s</w>": 27065,
  "911</w>": 19832,
  "91</w>": 8053,
  "92</w>": 7655,
  "93": 43462,
  "93</w>": 7744,
  "94": 28215,
  "94</w>": 8303,
  "95": 25130,
  "950</w>": 40075,
  "95</w>": 3632,
  "96": 24810,
  "96-": 35884,
  "96</w>": 4737,
  "97": 21951,
  "97</w>": 8778,
  "98": 30218,
  "98</w>": 6794,
  "99": 17554,
  "99,": 47420,
  "99-": 51276,
  "999</w>": 39580,
  "99</w>": 3740,
  "9</w>": 729,
  "9bn</w>": 50704,
  "9m</w>": 44978,
  "9th</w>": 37982,
  ":</w>": 26,
  ";</w>": 158,
  "</s>": 1,
  "<</w>": 20531,
  "<pad>": 2,
  "<s>": 0,
  "<special0>": 4,
  "<special1>": 5,
  "<special2>": 6,
  "<special3>": 7,
  "<special4>": 8,
  "<special5>": 9,
  "<special6>": 10,
  "<special7>": 11,
  "<special8>": 12,
  "<special9>": 13,
  "<unk>": 3,
  "=</w>": 2022,
  "></w>": 6332,
  "?</w>": 95,
  "@</w>": 2372,
  "A": 268,
  "A-": 2234,
  "A-Rod</w>": 57890,
  "A.": 10483,
  "A.</w>": 4864,
  "A1</w>": 30733,
  "A3": 30630,
  "A380</w>": 45772,
  "A400": 59580,
  "A400M</w>": 56316,
  "A4</w>": 45954,
  "A</w>": 149,
  "AA": 46723,
  "AA</w>": 20127,
  "AAA</w>": 34684,
  "AARP</w>": 56224,
  "AB": 14257,
  "AB</w>": 30796,
  "ABC": 50686,
  "ABC</w>": 4589,
  "ABIL": 60122,
  "ABN</w>": 57238,
  "AC": 6972,
  "AC-": 39033,
  "AC</w>": 6152,
  "ACC</w>": 48213,
  "ACE</w>": 48123,
  "ACH</w>": 40912,
  "ACLU</w>": 48443,
  "ACORN</w>": 57370,
  "ACP</w>": 58937,
  "ACS</w>": 54284,
  "ACT</w>": 18478,
  "AD": 6037,
  "AD</w>": 11560,
  "ADA</w>": 21158,
  "ADAC</w>": 19685,
  "ADS</w>": 54902,
  "AE": 32992,
  "AEG</w>": 53696,
  "AF": 5665,
  "AF</w>": 44920,
  "AFC</w>": 38081,
  "AFP</w>": 4770,
  "AFX</w>": 60403,
  "AG": 26499,
  "AG</w>": 4079,
  "AGE</w>": 53968,
  "AH": 36391,
  "AI": 10254,
  "AI</w>": 35408,
  "AIC</w>": 56736,
  "AID</w>": 52979,
  "AIDS</w>": 21020,
  "AIG</w>": 26952,
  "AIN</w>": 53213,
  "AIR</w>": 55151,
  "AK": 14667,
  "AK-": 44228,
  "AK</w>": 24616,
  "AKE</w>": 55164,
  "AKP</w>": 31965,
  "AKW-": 55577,
  "AKW</w>": 43464,
  "AL": 5111,
  "AL</w>": 13755,
  "ALE": 55087,
  "ALEM</w>": 59847,
  "AM": 5726,
  "AM</w>": 7639,
  "AMA": 58892,
  "AMA</w>": 37195,
  "AMABAD</w>": 61907,
  "AMD</w>": 53459,
  "AMI</w>": 52223,
  "AN": 5762,
  "AN</w>": 13940,
  "ANA</w>": 49503,
  "ANC</w>": 40477,
  "AND": 40718,
  "AND</w>": 32037,
  "ANGE": 56116,
  "ANGELES</w>": 20357,
  "ANS</w>": 51035,
  "ANT": 55153,
  "AO": 37695,
  "AOK</w>": 35910,
  "AOL</w>": 42173,
  "AP": 9891,
  "AP</w>": 1631,
  "APA</w>": 10645,
  "APD</w>": 46190,
  "APO": 58920,
  "APOLIS</w>": 57376,
  "AR": 6266,
  "AR</w>": 23569,
  "ARD": 31750,
  "ARD-": 17541,
  "ARD</w>": 9526,
  "ARE</w>": 54711,
  "ARIES</w>": 59525,
  "ARM</w>": 55081,
  "ARP</w>": 59213,
  "ARS</w>": 52169,
  "ART</w>": 44349,
  "ARY</w>": 54833,
  "AS": 3689,
  "AS</w>": 10520,
  "ASA</w>": 53386,
  "ASE": 58917,
  "ASEAN</w>": 54957,
  "ASH": 55240,
  "ASSE": 57901,
  "ASSETS</w>": 58215,
  "AST</w>": 49099,
  "AT": 4558,
  "AT</w>": 9219,
  "ATA</w>": 54415,
  "ATION</w>": 49681,
  "ATLAN": 59752,
  "ATLANTA</w>": 52107,
  "ATM</w>": 51479,
  "ATP</w>": 32878,
  "ATT": 57154,
  "ATTLE</w>": 59993,
  "ATV</w>": 50141,
  "ATX</w>": 46553,
  "AU": 11409,
  "AU</w>": 32411,
  "AUS": 31428,
  "AV": 30173,
  "AW": 15342,
  "AX": 54951,
  "AX</w>": 58177,
  "AZ": 47067,
  "AZ</w>": 11075,
  "AZUZ</w>": 57811,
  "Aach": 52282,
  "Aachen</w>": 12208,
  "Aachener</w>": 28031,
  "Aar": 42742,
  "Aaron</w>": 10464,
  "Ab": 389,
  "Ab</w>": 3548,
  "Abb": 37261,
  "Abbas</w>": 14264,
  "Abbau</w>": 18420,
  "Abbey</w>": 25425,
  "Abbott</w>": 7429,
  "Abbruch</w>": 24589,
  "Abch": 59611,
  "Abchasien</w>": 57971,
  "Abd": 38708,
  "Abdel": 31162,
  "Abdel</w>": 33150,
  "Abdul": 21824,
  "Abdul</w>": 24811,
  "Abdullah</w>": 13757,
  "Abe</w>": 18802,
  "Aben": 56557,
  "Abend": 7878,
  "Abend</w>": 1569,
  "Abendblatt</w>": 55156,
  "Abendessen</w>": 32011,
  "Abends</w>": 10562,
  "Abenteu": 31716,
  "Abenteuer</w>": 16755,
  "Aber": 17339,
  "Aber</w>": 399,
  "Aberdeen</w>": 14590,
  "Abfahrt</w>": 17225,
  "Abfall": 23921,
  "Abfall</w>": 42734,
  "Abfindung</w>": 53418,
  "Abflug</w>": 45972,
  "Abgabe</w>": 29327,
  "Abgaben</w>": 43880,
  "Abgang</w>": 22691,
  "Abgel": 53039,
  "Abgeord": 59848,
  "Abgeordne": 59141,
  "Abgeordnete</w>": 8260,
  "Abgeordneten": 37463,
  "Abgeordneten</w>": 8121,
  "Abgeordnetenhaus</w>": 34534,
  "Abgeordneter</w>": 32343,
  "Abgesehen</w>": 34541,
  "Abgrund</w>": 43499,
  "Abhis": 59639,
  "Abhisit</w>": 57079,
  "Abhän": 52203,
  "Abhängigkeit</w>": 33431,
  "Abid": 49543,
  "Abit": 39624,
  "Abitur</w>": 16672,
  "Abituri": 29103,
  "Abk": 58848,
  "Abkehr</w>": 46348,
  "Abkhaz": 60955,
  "Abkhazia</w>": 57085,
  "Abkommen</w>": 10434,
  "Abkühlung</w>": 45793,
  "Ablauf</w>": 14794,
  "Ableger</w>": 36617,
  "Ablehnung</w>": 18340,
  "Ablös": 58812,
  "Ablöse</w>": 38060,
  "Ablösesumme</w>": 49094,
  "Ablösung</w>": 52081,
  "Abnehmer</w>": 43841,
  "Abo": 40247,
  "About</w>": 3644,
  "Above</w>": 39481,
  "Abpfiff</w>": 26128,
  "Abra": 56361,
  "Abraham</w>": 22205,
  "Abram": 47252,
  "Abramovich</w>": 53051,
  "Abrams</w>": 44496,
  "Abrechnung</w>": 38260,
  "Abreise</w>": 45830,
  "Abriss</w>": 20686,
  "Absage</w>": 13846,
  "Absatz": 25773,
  "Absatz</w>": 20627,
  "Abschaffung</w>": 20206,
  "Abschaltung</w>": 54574,
  "Abschie": 19889,
  "Abschiebung</w>": 33388,
  "Abschied</w>": 8299,
  "Abschieds": 26049,
  "Abschlag</w>": 47882,
  "Abschlus": 23311,
  "Abschluss": 13092,
  "Abschluss</w>": 3558,
  "Abschneiden</w>": 31656,
  "Abschnitt</w>": 13706,
  "Abschreibungen</w>": 37350,
  "Abschwung</w>": 55921,
  "Abseits</w>": 29637,
  "Absicherung</w>": 36684,
  "Absicht</w>": 19275,
  "Absichten</w>": 49172,
  "Absol": 24740,
  "Absolutely</w>": 46867,
  "Absolventen</w>": 24734,
  "Absperr": 32150,
  "Absprache</w>": 28645,
  "Absprachen</w>": 39086,
  "Abstand</w>": 8140,
  "Absteiger</w>": 21279,
  "Abstieg": 24511,
  "Abstieg</w>": 13253,
  "Abstiegs": 22681,
  "Abstiegskampf</w>": 19424,
  "Abstimm": 24343,
  "Abstimmung</w>": 7006,
  "Absturz</w>": 14697,
  "Abteilung</w>": 9533,
  "Abteilungen</w>": 29276,
  "Abteilungs": 35358,
  "Abteilungsleiter</w>": 22924,
  "Abtreib": 37510,
  "Abu": 46616,
  "Abu</w>": 7937,
  "Abuse</w>": 49058,
  "Abwasser": 23731,
  "Abwechslung</w>": 30582,
  "Abwehr": 9601,
  "Abwehr</w>": 7739,
  "Abwehrspieler</w>": 27451,
  "Abweich": 44529,
  "Abwertung</w>": 53750,
  "Abwesenheit</w>": 30854,
  "Abwicklung</w>": 39117,
  "Abwr": 60044,
  "Abwrack": 59294,
  "Abwrackprämie</w>": 55352,
  "Abwärts": 53007,
  "Abwärtstrend</w>": 54426,
  "Abzo": 52317,
  "Abzug</w>": 21590,
  "Ac": 7731,
  "Academ": 47508,
  "Academy</w>": 7773,
  "Acc": 15481,
  "Acces": 59605,
  "Access</w>": 26872,
  "Accesso": 40952,
  "Acci": 48282,
  "Accord": 56132,
  "According</w>": 2701,
  "Accoun": 56758,
  "Account</w>": 29594,
  "Accountability</w>": 53778,
  "Accounting</w>": 56208,
  "Accounts</w>": 35806,
  "Accrued</w>": 57545,
  "Accum": 59223,
  "Accumulated</w>": 58094,
  "Ach": 13371,
  "Ach</w>": 25219,
  "Achie": 51054,
  "Achilles": 51511,
  "Achilles</w>": 45770,
  "Achim</w>": 18172,
  "Achse</w>": 41556,
  "Acht": 27435,
  "Acht</w>": 12586,
  "Achtel": 30430,
  "Achtelfinale</w>": 13292,
  "Achter": 40909,
  "Achtung</w>": 30577,
  "Achtz": 40099,
  "Acker": 28724,
  "Ackermann</w>": 25791,
  "Acquis": 58149,
  "Acquisition</w>": 56128,
  "Across</w>": 26109,
  "Act": 59037,
  "Act</w>": 4301,
  "Acti": 52597,
  "Acting</w>": 41667,
  "Action": 42619,
  "Action</w>": 13748,
  "Activ": 34894,
  "Active</w>": 49581,
  "Activities</w>": 56436,
  "Activity</w>": 54700,
  "Actor</w>": 27074,
  "Actors</w>": 51573,
  "Actress</w>": 28186,
  "Actual</w>": 55876,
  "Actually</w>": 34759,
  "Ad": 2723,
  "Ad</w>": 53755,
  "Adam": 37034,
  "Adam</w>": 4660,
  "Adams</w>": 11600,
  "Adap": 37674,
  "Add</w>": 23813,
  "Added</w>": 54369,
  "Adding</w>": 42174,
  "Additional</w>": 13396,
  "Additionally</w>": 33463,
  "Adeb": 55036,
  "Adebayor</w>": 54877,
  "Adel": 4177,
  "Adel</w>": 45248,
  "Aden": 34637,
  "Aden</w>": 36738,
  "Adenauer</w>": 51996,
  "Adi": 39998,
  "Adidas</w>": 28156,
  "Adjust": 57791,
  "Adjusted</w>": 36081,
  "Adjustments</w>": 58015,
  "Adler</w>": 13403,
  "Adm.</w>": 54514,
  "Administ": 45364,
  "Administration</w>": 8305,
  "Administrator</w>": 53477,
  "Admir": 32415,
  "Admiral</w>": 40493,
  "Ado": 55809,
  "Adobe</w>": 52470,
  "Adol": 36900,
  "Adolf</w>": 19964,
  "Adop": 43361,
  "Adoption</w>": 53148,
  "Adres": 42712,
  "Adresse</w>": 10854,
  "Adressen</w>": 33232,
  "Adri": 16561,
  "Adrian</w>": 12234,
  "Adv": 43030,
  "Advanced</w>": 33467,
  "Advantage</w>": 54888,
  "Advent": 10227,
  "Advent</w>": 27728,
  "Advert": 49544,
  "Advertising</w>": 49641,
  "Advis": 47704,
  "Advisor</w>": 46932,
  "Advisors</w>": 52410,
  "Advisory</w>": 41486,
  "Advoc": 33870,
  "Aer": 33703,
  "Aero": 45454,
  "Aerospace</w>": 51086,
  "Af": 3145,
  "Aff": 8681,
  "Affairs</w>": 13137,
  "Affen</w>": 40727,
  "Affäre</w>": 8278,
  "Affären</w>": 52909,
  "Afgh": 60335,
  "Afghan": 48568,
  "Afghan</w>": 6047,
  "Afghanen</w>": 39190,
  "Afghanist": 57369,
  "Afghanistan-": 52363,
  "Afghanistan-Einsatz</w>": 58097,
  "Afghanistan</w>": 1954,
  "Afghanistans</w>": 51745,
  "Afghans</w>": 33671,
  "Afri": 22723,
  "Africa</w>": 2656,
  "African-": 58361,
  "African-American</w>": 26790,
  "African-Americans</w>": 48347,
  "African</w>": 4218,
  "Africans</w>": 39644,
  "Afrika-": 46567,
  "Afrika</w>": 9706,
  "Afrikaner</w>": 49498,
  "Afrikas</w>": 41436,
  "After": 27145,
  "After</w>": 1043,
  "Ag": 7288,
  "Again</w>": 19988,
  "Against</w>": 17507,
  "Agassi</w>": 55863,
  "Age</w>": 16434,
  "Agen": 35968,
  "Agency</w>": 5818,
  "Agenda</w>": 16039,
  "Agent": 36465,
  "Agent</w>": 28934,
  "Agenten</w>": 37556,
  "Agents</w>": 52007,
  "Agentur</w>": 9583,
  "Agenturen</w>": 40550,
  "Aggressi": 36061,
  "Agn": 23258,
  "Agr": 41070,
  "Agrar": 17081,
  "Agre": 57255,
  "Agreement</w>": 28005,
  "Agri": 50508,
  "Agricultural</w>": 54572,
  "Agriculture</w>": 28614,
  "Agu": 27928,
  "Aguil": 46601,
  "Ah": 8435,
  "Ah</w>": 40300,
  "Ahead</w>": 37693,
  "Ahl": 23824,
  "Ahlen</w>": 29273,
  "Ahmad": 55598,
  "Ahmad</w>": 26336,
  "Ahmadin": 58935,
  "Ahmadinedsch": 59104,
  "Ahmadinedschad</w>": 50697,
  "Ahmadinejad</w>": 24337,
  "Ahmed</w>": 12809,
  "Ahnung</w>": 24806,
  "Ahr": 26692,
  "Ai": 30498,
  "Ai</w>": 34476,
  "Aid": 53624,
  "Aid</w>": 26136,
  "Aides</w>": 56533,
  "Aids-": 51525,
  "Aids</w>": 36069,
  "Aigner</w>": 23092,
  "Aim": 43733,
  "Ains": 50327,
  "Air": 8283,
  "Air-": 23618,
  "Air</w>": 3070,
  "Airbus": 57385,
  "Airbus-": 52944,
  "Airbus</w>": 11701,
  "Aircraft</w>": 53454,
  "Aires</w>": 25070,
  "Airline</w>": 22810,
  "Airlines</w>": 7298,
  "Airport</w>": 7714,
  "Airports</w>": 48779,
  "Airways</w>": 16736,
  "Aj": 30542,
  "Aja": 58853,
  "Ajax</w>": 33200,
  "Ak": 3043,
  "Akadem": 34506,
  "Akademie</w>": 16723,
  "Akademiker</w>": 51907,
  "Akbar</w>": 49232,
  "Akku</w>": 39300,
  "Akt</w>": 22843,
  "Akte</w>": 42981,
  "Akten": 25256,
  "Akten</w>": 18541,
  "Akteur</w>": 34965,
  "Akteure</w>": 10870,
  "Akti": 9980,
  "Aktie</w>": 8288,
  "Aktien": 14486,
  "Aktien</w>": 5334,
  "Aktienindex</w>": 45639,
  "Aktienkurs</w>": 44896,
  "Aktienkurse</w>": 54463,
  "Aktienmarkt</w>": 29142,
  "Aktienmärkte</w>": 48681,
  "Aktienmärkten</w>": 54524,
  "Aktion": 16469,
  "Aktion</w>": 3020,
  "Aktionen</w>": 7889,
  "Aktions": 24365,
  "Aktionär</w>": 55317,
  "Aktionäre</w>": 19022,
  "Aktionären</w>": 45594,
  "Aktionärs": 55215,
  "Aktiv": 23443,
  "Aktivist</w>": 47883,
  "Aktivisten</w>": 13261,
  "Aktivität</w>": 38864,
  "Aktivitäten</w>": 8520,
  "Aktu": 3551,
  "Aktuell</w>": 13071,
  "Aktuelle</w>": 23694,
  "Aktuelles</w>": 45480,
  "Akz": 57802,
  "Akzent</w>": 40915,
  "Akzente</w>": 30314,
  "Akzep": 57916,
  "Akzeptanz</w>": 28274,
  "Al": 631,
  "Al-": 8692,
  "Al-K": 26143,
  "Al-Qaeda</w>": 48855,
  "Al-Qaida</w>": 56161,
  "Al-S": 31969,
  "Al</w>": 5670,
  "Ala": 41287,
  "Ala</w>": 46709,
  "Alab": 21413,
  "Alabama</w>": 10945,
  "Alain</w>": 31682,
  "Alam": 47472,
  "Alan</w>": 7338,
  "Alarm": 17781,
  "Alarm</w>": 16608,
  "Alas": 45626,
  "Alaska</w>": 11804,
  "Alastair</w>": 32265,
  "Alb": 9220,
  "Alba</w>": 22986,
  "Alban": 18623,
  "Albanian</w>": 55739,
  "Albany</w>": 45058,
  "Alben</w>": 35263,
  "Alber": 17754,
  "Albert</w>": 7872,
  "Alberta</w>": 30858,
  "Alberto</w>": 25797,
  "Albion</w>": 38243,
  "Albrecht</w>": 18875,
  "Albtraum</w>": 46209,
  "Albu": 59437,
  "Album</w>": 7919,
  "Albums</w>": 47707,
  "Albuquer": 60388,
  "Albuquerque</w>": 53191,
  "Alcat": 53544,
  "Alco": 56418,
  "Alcoa</w>": 54028,
  "Alcohol</w>": 45047,
  "Aldi</w>": 22129,
  "Ale": 7803,
  "Alec</w>": 39894,
  "Alej": 59155,
  "Alejandro</w>": 40519,
  "Aleks": 32063,
  "Alemann": 58106,
  "Alemannia</w>": 45914,
  "Aless": 53360,
  "Alessandro</w>": 41603,
  "Alex": 16919,
  "Alex</w>": 4019,
  "Alexand": 32183,
  "Alexander": 35291,
  "Alexander</w>": 2115,
  "Alexandra</w>": 15204,
  "Alexandria</w>": 30383,
  "Alexis</w>": 15890,
  "Alf": 21309,
  "Alfre": 54823,
  "Alfred</w>": 10879,
  "Alfredo</w>": 52623,
  "Alger": 47670,
  "Algeria</w>": 35990,
  "Algerian</w>": 49549,
  "Algerien</w>": 35581,
  "Ali": 9308,
  "Ali</w>": 5460,
  "Alice</w>": 14443,
  "Alicia</w>": 34246,
  "Aling": 58506,
  "Alison</w>": 28356,
  "Alistair</w>": 32428,
  "Alitalia</w>": 53649,
  "Alko": 41921,
  "Alkohol": 9596,
  "Alkohol</w>": 9447,
  "All": 2967,
  "All-": 24443,
  "All-Star</w>": 24722,
  "All</w>": 1330,
  "Allah</w>": 43492,
  "Allan</w>": 24844,
  "Alle": 21044,
  "Alle</w>": 2090,
  "Allee</w>": 25359,
  "Alleg": 45831,
  "Allein": 21995,
  "Allein</w>": 6185,
  "Alleine</w>": 38582,
  "Alleingang</w>": 33047,
  "Allen</w>": 6514,
  "Aller": 15715,
  "Allerdings</w>": 1852,
  "Alles</w>": 4429,
  "Allgem": 52090,
  "Allgemein": 21825,
  "Allgemeine</w>": 13147,
  "Allgemeinen</w>": 17145,
  "Allgäu</w>": 35101,
  "Alli": 41699,
  "Alliance</w>": 15807,
  "Allianz-": 52819,
  "Allianz</w>": 10833,
  "Allied</w>": 46431,
  "Alliierten</w>": 51879,
  "Allison</w>": 39397,
  "Allister</w>": 59206,
  "Allo": 54967,
  "Allofs</w>": 34144,
  "Allow": 59961,
  "Allowance</w>": 55909,
  "Alltag": 39845,
  "Alltag</w>": 7108,
  "Alltags": 25520,
  "Almei": 60202,
  "Almeida</w>": 55595,
  "Almost</w>": 16966,
  "Almun": 59983,
  "Almunia</w>": 53616,
  "Alo": 42792,
  "Alois</w>": 23804,
  "Along</w>": 22577,
  "Alonso</w>": 13640,
  "Alp": 16376,
  "Alpen": 20892,
  "Alpen</w>": 22221,
  "Alph": 46727,
  "Alpha": 33038,
  "Alpha</w>": 38689,
  "Alphaville</w>": 32501,
  "Alpine</w>": 35656,
  "Already</w>": 31204,
  "Als</w>": 481,
  "Also</w>": 3065,
  "Alt": 2930,
  "Alt-": 24540,
  "Alt</w>": 17844,
  "Alte</w>": 13704,
  "Alten": 5162,
  "Alten</w>": 9754,
  "Alter": 23452,
  "Alter</w>": 2767,
  "Altern": 30019,
  "Alternativ": 39995,
  "Alternative</w>": 7069,
  "Alternativen</w>": 14254,
  "Alters": 5182,
  "Alters</w>": 28846,
  "Altersvorsorge</w>": 42286,
  "Althaus</w>": 54138,
  "Although</w>": 3426,
  "Altin": 58358,
  "Altintop</w>": 55925,
  "Altkanzler</w>": 50561,
  "Alto</w>": 50221,
  "Altstadt</w>": 12869,
  "Alu": 39886,
  "Alumin": 56227,
  "Aluminium": 51560,
  "Aluminium</w>": 44173,
  "Alv": 58355,
  "Alvar": 56940,
  "Alvarez</w>": 43864,
  "Alvaro</w>": 46902,
  "Alves</w>": 48402,
  "Always</w>": 37439,
  "Alz": 46658,
  "Alzheimer</w>": 16580,
  "Am": 2027,
  "Am</w>": 319,
  "Ama": 22844,
  "Aman": 47506,
  "Amanatidis</w>": 58640,
  "Amanda</w>": 18129,
  "Amar": 39147,
  "Amat": 24366,
  "Amateur": 27452,
  "Amaz": 32978,
  "Amazon": 43699,
  "Amazon.com</w>": 52345,
  "Amazon</w>": 5270,
  "Amb": 50153,
  "Ambassador</w>": 25315,
  "Amber</w>": 29724,
  "Ambi": 55334,
  "Ambiente</w>": 28008,
  "Ambitionen</w>": 30013,
  "Ambro": 30483,
  "Ambul": 25018,
  "Ame": 29310,
  "Amend": 58903,
  "Amendment</w>": 24611,
  "Amer": 46047,
  "Amerell</w>": 57461,
  "Americ": 42430,
  "America</w>": 1138,
  "American-": 36362,
  "American</w>": 602,
  "Americans</w>": 2182,
  "Americas</w>": 32460,
  "Amerik": 49600,
  "Amerika</w>": 9823,
  "Amerikan": 52762,
  "Amerikaner</w>": 8634,
  "Amerikanerin</w>": 34083,
  "Amerikanern</w>": 38730,
  "Amerikanische</w>": 55524,
  "Amerikas</w>": 33837,
  "Amid</w>": 29548,
  "Amir</w>": 40940,
  "Amman</w>": 50046,
  "Amnesty</w>": 17344,
  "Amo": 26263,
  "Amokl": 46453,
  "Amoklauf</w>": 41140,
  "Among</w>": 6328,
  "Amor": 56049,
  "Amortization</w>": 56793,
  "Amp": 15324,
  "Ampel": 27350,
  "Ampel</w>": 20465,
  "Amro</w>": 57280,
  "Amster": 55591,
  "Amsterdam</w>": 13868,
  "Amstetten</w>": 55954,
  "Amt": 24474,
  "Amt</w>": 2573,
  "Amtes</w>": 28424,
  "Amtrak</w>": 51975,
  "Amts": 6136,
  "Amtsantritt</w>": 26875,
  "Amtsgericht</w>": 13127,
  "Amtsinhaber</w>": 29868,
  "Amtskollegen</w>": 38722,
  "Amtszeit</w>": 10143,
  "Amy</w>": 12730,
  "An": 357,
  "An</w>": 600,
  "Ana</w>": 27913,
  "Anah": 59524,
  "Anaheim</w>": 35512,
  "Analy": 22122,
  "Analyse</w>": 11556,
  "Analysen</w>": 35632,
  "Analysis</w>": 23862,
  "Analyst</w>": 22247,
  "Analysten": 54040,
  "Analysten</w>": 12627,
  "Analysts</w>": 14742,
  "Anast": 31364,
  "Anat": 39756,
  "Anatomy</w>": 55309,
  "Anbar</w>": 48224,
  "Anbau</w>": 20853,
  "Anbieter</w>": 9200,
  "Anbietern</w>": 35511,
  "Anblick</w>": 28564,
  "Ancel": 58730,
  "Ancelotti</w>": 21260,
  "Anchor": 58152,
  "Anchorage</w>": 52260,
  "Anci": 48665,
  "And": 27607,
  "And</w>": 329,
  "Ander": 13578,
  "Andere</w>": 8323,
  "Anderen</w>": 44737,
  "Andererseits</w>": 16958,
  "Andernfalls</w>": 47819,
  "Anders</w>": 7208,
  "Andersen</w>": 43903,
  "Anderson</w>": 7113,
  "Andor": 59509,
  "Andorra</w>": 55878,
  "Andr": 24998,
  "Andrang</w>": 32008,
  "Andre": 20869,
  "Andre</w>": 11968,
  "Andrea</w>": 5445,
  "Andreas</w>": 1915,
  "Andrei</w>": 51227,
  "Andrej</w>": 35773,
  "Andres</w>": 43423,
  "Andrew</w>": 3349,
  "Andrews</w>": 18883,
  "Andro": 28150,
  "Android-": 37221,
  "Android</w>": 11027,
  "André</w>": 9713,
  "Andy</w>": 5559,
  "Ane": 54810,
  "Anekdo": 31532,
  "Anelka</w>": 56100,
  "Anerkennung</w>": 11245,
  "Anfang": 54843,
  "Anfang</w>": 1206,
  "Anfangs": 23646,
  "Anfangs</w>": 29741,
  "Anfangsphase</w>": 32204,
  "Anfield</w>": 33705,
  "Anforderungen</w>": 14293,
  "Anfrage</w>": 6007,
  "Anfragen</w>": 18467,
  "Anfän": 23654,
  "Anfänger</w>": 40672,
  "Anführer</w>": 30017,
  "Ang": 21157,
  "Angabe</w>": 44287,
  "Angaben</w>": 945,
  "Ange": 10976,
  "Angeblich</w>": 25672,
  "Angebot</w>": 2369,
  "Angebote</w>": 6271,
  "Angeboten</w>": 18675,
  "Angebots</w>": 43482,
  "Angehöri": 55038,
  "Angehörige</w>": 13828,
  "Angehörigen</w>": 11095,
  "Angeklag": 48776,
  "Angeklagte</w>": 7425,
  "Angeklagten</w>": 7953,
  "Angel": 9558,
  "Angel</w>": 19762,
  "Angela</w>": 2821,
  "Angelegenheit</w>": 15480,
  "Angelegenheiten</w>": 34453,
  "Angeles</w>": 1863,
  "Angelika</w>": 19616,
  "Angelina</w>": 22554,
  "Angelo</w>": 35558,
  "Angels</w>": 14025,
  "Angerer</w>": 52655,
  "Angesichts</w>": 8176,
  "Angestellte</w>": 18497,
  "Angestellten</w>": 17806,
  "Angl": 53318,
  "Angli": 52927,
  "Anglican</w>": 52476,
  "Anglo": 55301,
  "Anglo-": 54597,
  "Anglo</w>": 50648,
  "Angol": 57751,
  "Angola</w>": 42690,
  "Angrei": 44546,
  "Angreifer</w>": 10174,
  "Angriff": 43985,
  "Angriff</w>": 4202,
  "Angriffe</w>": 11271,
  "Angriffen</w>": 22750,
  "Angriffs": 27864,
  "Angriffs</w>": 49423,
  "Angst": 34670,
  "Angst</w>": 2876,
  "Angus</w>": 31827,
  "Anhal": 50456,
  "Anhaltsp": 57757,
  "Anhaltspunkte</w>": 41071,
  "Anhe": 58568,
  "Anhebung</w>": 31620,
  "Anheuser-": 60180,
  "Anheuser-Busch</w>": 55960,
  "Anhieb</w>": 37894,
  "Anhän": 37993,
  "Anhänger</w>": 5479,
  "Anhängern</w>": 19607,
  "Anhör": 55394,
  "Anhörung</w>": 25800,
  "Anim": 31194,
  "Animal</w>": 26014,
  "Animals</w>": 46472,
  "Animation</w>": 51611,
  "Aniston</w>": 45815,
  "Anita</w>": 22178,
  "Anja</w>": 14893,
  "Ankara</w>": 12194,
  "Anke</w>": 27310,
  "Ankla": 46615,
  "Anklage": 37318,
  "Anklage</w>": 8910,
  "Ankunft</w>": 18167,
  "Ankündig": 59238,
  "Ankündigung</w>": 13942,
  "Ankündigungen</w>": 48675,
  "Anlage": 29834,
  "Anlage</w>": 6649,
  "Anlagen": 46118,
  "Anlagen</w>": 10650,
  "Anlass</w>": 6950,
  "Anlauf": 22611,
  "Anlauf</w>": 19295,
  "Anleger": 55411,
  "Anleger</w>": 7470,
  "Anlegern</w>": 37770,
  "Anlei": 38875,
  "Anleihe": 42251,
  "Anleihe</w>": 48460,
  "Anleihen</w>": 16285,
  "Anleitung</w>": 30033,
  "Anliegen</w>": 12955,
  "Anmeldung</w>": 15515,
  "Anmeldungen</w>": 17534,
  "Ann": 5989,
  "Ann</w>": 14330,
  "Anna": 54792,
  "Anna</w>": 5144,
  "Annahme</w>": 23652,
  "Annan</w>": 35994,
  "Annapolis</w>": 55075,
  "Anne": 20730,
  "Anne</w>": 7271,
  "Annette</w>": 18237,
  "Annie</w>": 33940,
  "Anno": 59099,
  "Announ": 48249,
  "Announces</w>": 39504,
  "Annual</w>": 21331,
  "Annäh": 55559,
  "Annäherung</w>": 29257,
  "Ano": 56073,
  "Anon": 57241,
  "Anony": 44652,
  "Anonymous</w>": 38682,
  "Anordnung</w>": 29968,
  "Another</w>": 3522,
  "Anpass": 42799,
  "Anpassung</w>": 33852,
  "Anpfiff</w>": 23713,
  "Anrei": 57488,
  "Anreise</w>": 32641,
  "Anreiz</w>": 40859,
  "Anreize</w>": 39630,
  "Anru": 31249,
  "Anruf</w>": 22949,
  "Anrufe</w>": 35825,
  "Ans": 15289,
  "Ansage</w>": 38523,
  "Ansatz</w>": 18007,
  "Anschein</w>": 42252,
  "Anschlag": 49088,
  "Anschlag</w>": 7290,
  "Anschlags": 50556,
  "Anschlags</w>": 46583,
  "Anschließend</w>": 7612,
  "Anschlus": 55971,
  "Anschluss": 18976,
  "Anschluss</w>": 5481,
  "Anschlusstreffer</w>": 28643,
  "Anschläge</w>": 15316,
  "Anschlägen</w>": 16541,
  "Anschul": 58574,
  "Anschuldigungen</w>": 36248,
  "Ansehen</w>": 29515,
  "Ansicht</w>": 6685,
  "Ansichten</w>": 31013,
  "Ansonsten</w>": 13977,
  "Anspannung</w>": 43894,
  "Anspiel": 54928,
  "Anspielung</w>": 38495,
  "Ansprache</w>": 22275,
  "Ansprech": 51711,
  "Ansprechpartner</w>": 22627,
  "Anspruch</w>": 6260,
  "Ansprüche</w>": 20884,
  "Ansprüchen</w>": 43688,
  "Anstalt</w>": 49420,
  "Anstatt</w>": 40552,
  "Anstieg</w>": 9480,
  "Anstoß</w>": 27962,
  "Anstreng": 60143,
  "Anstrengung</w>": 48310,
  "Anstrengungen</w>": 24696,
  "Ansturm</w>": 34387,
  "Ansätze</w>": 34077,
  "Ant": 16369,
  "Antar": 59314,
  "Antarc": 60102,
  "Antarctic</w>": 43989,
  "Antarctica</w>": 45054,
  "Antark": 58771,
  "Antarktis</w>": 52472,
  "Anteil": 40102,
  "Anteil</w>": 4616,
  "Anteile</w>": 17572,
  "Anteils": 46373,
  "Anteilseigner</w>": 48968,
  "Anten": 40206,
  "Anth": 46924,
  "Anthony</w>": 5412,
  "Anti": 6508,
  "Anti-": 9235,
  "Anti-Doping-": 44299,
  "Anti-Terror-": 42279,
  "Antibio": 51607,
  "Antibiotika</w>": 41230,
  "Antigu": 59610,
  "Antigua</w>": 54726,
  "Antisemit": 57587,
  "Antisemitismus</w>": 31050,
  "Antit": 54789,
  "Antje</w>": 34750,
  "Anto": 33449,
  "Anton": 12176,
  "Anton</w>": 10741,
  "Antonio</w>": 8511,
  "Antrag": 35764,
  "Antrag</w>": 4061,
  "Antrieb": 40559,
  "Antrieb</w>": 33727,
  "Antritts": 47868,
  "Anträge</w>": 16317,
  "Antwer": 45577,
  "Antwort</w>": 4091,
  "Antworten</w>": 10823,
  "Anwal": 24789,
  "Anwalt</w>": 7408,
  "Anwar</w>": 44427,
  "Anweisung</w>": 45426,
  "Anweisungen</w>": 38892,
  "Anwen": 39672,
  "Anwendung</w>": 24418,
  "Anwendungen</w>": 37384,
  "Anwes": 18603,
  "Anwesen</w>": 24242,
  "Anwesenheit</w>": 34152,
  "Anwohner</w>": 7092,
  "Anwäl": 59591,
  "Anwälte</w>": 17994,
  "Anwälten</w>": 48993,
  "Anwältin</w>": 35679,
  "Anwärter</w>": 44226,
  "Any": 41281,
  "Any</w>": 10682,
  "Anyone</w>": 17916,
  "Anything</w>": 37729,
  "Anyway</w>": 48772,
  "Anzahl</w>": 9806,
  "Anzei": 6077,
  "Anzeichen</w>": 21355,
  "Anzeige</w>": 10525,
  "Anzeigen": 53270,
  "Anzeigen</w>": 23669,
  "Anzug</w>": 29529,
  "Ap": 11548,
  "Apart</w>": 37293,
  "Apfel": 17562,
  "Apfel</w>": 40245,
  "Apo": 38922,
  "Apoll": 57852,
  "Apollo</w>": 32528,
  "Apost": 47555,
  "Apothe": 41791,
  "Apotheke</w>": 28772,
  "Apotheken</w>": 46096,
  "Apotheker</w>": 42263,
  "App": 8857,
  "App</w>": 6082,
  "Appal": 59542,
  "Appalach": 54707,
  "Appar": 47401,
  "Apparently</w>": 36117,
  "Appe": 42612,
  "Appeal</w>": 31978,
  "Appeals</w>": 31881,
  "Appel</w>": 50483,
  "Appell</w>": 24486,
  "Appetit</w>": 48339,
  "Appl": 57694,
  "Applaus</w>": 10235,
  "Apple": 44680,
  "Apple-": 20947,
  "Apple</w>": 2011,
  "Apples</w>": 36452,
  "Applic": 58319,
  "Application</w>": 55261,
  "Applications</w>": 54600,
  "Applied</w>": 54936,
  "Appro": 50764,
  "Appropri": 58575,
  "Appropriations</w>": 56525,
  "Approximately</w>": 56039,
  "Apps</w>": 15319,
  "Apr": 30820,
  "Apr</w>": 44411,
  "Apri": 56483,
  "April</w>": 617,
  "Aqu": 16528,
  "Aquar": 37814,
  "Aquila</w>": 55461,
  "Ar": 1135,
  "Ara": 35529,
  "Arab": 17140,
  "Arab</w>": 6157,
  "Araber</w>": 51030,
  "Arabia</w>": 8685,
  "Arabian</w>": 41101,
  "Arabic</w>": 31043,
  "Arabien</w>": 56159,
  "Arabische</w>": 51830,
  "Arabischen</w>": 27779,
  "Arabs</w>": 42353,
  "Arafat</w>": 51457,
  "Arbeit": 7123,
  "Arbeit</w>": 890,
  "Arbeiten</w>": 3563,
  "Arbeiter": 22867,
  "Arbeiter</w>": 11598,
  "Arbeitern</w>": 51792,
  "Arbeiterpartei</w>": 46021,
  "Arbeitgeber": 29762,
  "Arbeitgeber</w>": 7721,
  "Arbeitgebern</w>": 43850,
  "Arbeitnehmer": 28109,
  "Arbeitnehmer</w>": 12211,
  "Arbeitnehmern</w>": 46736,
  "Arbeitnehmervertreter</w>": 55228,
  "Arbeits": 2593,
  "Arbeitsagentur</w>": 38031,
  "Arbeitsbedingungen</w>": 29867,
  "Arbeitsgemeinschaft</w>": 31255,
  "Arbeitsgruppe</w>": 22031,
  "Arbeitsk": 10572,
  "Arbeitskampf</w>": 50711,
  "Arbeitskräfte</w>": 45326,
  "Arbeitslo": 59726,
  "Arbeitslose</w>": 33370,
  "Arbeitslosen": 25244,
  "Arbeitslosen</w>": 31218,
  "Arbeitslosengeld</w>": 46741,
  "Arbeitslosenquote</w>": 28683,
  "Arbeitslosigkeit</w>": 12791,
  "Arbeitsmark": 46618,
  "Arbeitsmarkt": 30476,
  "Arbeitsmarkt</w>": 11526,
  "Arbeitsminister</w>": 55931,
  "Arbeitsp": 44179,
  "Arbeitsplatz": 53347,
  "Arbeitsplatz</w>": 16607,
  "Arbeitsplätze</w>": 9065,
  "Arbeitsplätzen</w>": 33650,
  "Arbeitszeit": 45368,
  "Arbeitszeit</w>": 30842,
  "Arbeitszeiten</w>": 41769,
  "Arc": 37279,
  "Arcand": 58879,
  "Arcandor-": 58186,
  "Arcandor</w>": 54101,
  "Arcel": 55473,
  "Arch": 18547,
  "Archbishop</w>": 35205,
  "Archer</w>": 43788,
  "Archi": 43278,
  "Archit": 51197,
  "Archite": 59057,
  "Architec": 51864,
  "Architek": 34022,
  "Architekt</w>": 17300,
  "Architekten</w>": 17876,
  "Architektur": 27899,
  "Architektur</w>": 21852,
  "Archiv": 29162,
  "Archiv</w>": 12816,
  "Archivbild</w>": 49928,
  "Archive</w>": 38833,
  "Archives</w>": 47359,
  "Archä": 36644,
  "Archäologen</w>": 45971,
  "Arctic</w>": 18262,
  "Are": 21218,
  "Are</w>": 7924,
  "Area</w>": 21685,
  "Areal</w>": 13337,
  "Arena</w>": 4626,
  "Areva</w>": 56504,
  "Arg": 31541,
  "Argent": 54339,
  "Argentin": 31427,
  "Argentina</w>": 10592,
  "Argentine</w>": 27931,
  "Argentinien</w>": 16426,
  "Argentinier</w>": 35941,
  "Argum": 38112,
  "Argument</w>": 18373,
  "Argumentation</w>": 36518,
  "Argumente</w>": 19742,
  "Ari": 13243,
  "Ariane</w>": 53008,
  "Arias</w>": 52807,
  "Ariel</w>": 44012,
  "Arist": 51657,
  "Ariz": 57321,
  "Ariz</w>": 36554,
  "Arizona</w>": 6346,
  "Arjen</w>": 27304,
  "Ark": 39165,
  "Ark</w>": 49853,
  "Arkansas</w>": 18949,
  "Arkti": 60216,
  "Arktis</w>": 51601,
  "Arlington</w>": 32438,
  "Arm": 17761,
  "Arm</w>": 11325,
  "Armani</w>": 51950,
  "Arme": 33438,
  "Arme</w>": 15521,
  "Armed</w>": 21692,
  "Armee": 50949,
  "Armee</w>": 6885,
  "Armen": 22186,
  "Armen</w>": 18902,
  "Armenia</w>": 54552,
  "Armenian</w>": 54035,
  "Armin": 43926,
  "Armin</w>": 12977,
  "Arminia</w>": 22394,
  "Arms</w>": 43852,
  "Armstrong</w>": 12858,
  "Armut</w>": 15751,
  "Armuts": 30397,
  "Army</w>": 4695,
  "Arn": 9613,
  "Arnauto": 59690,
  "Arnautovic</w>": 42950,
  "Arne</w>": 28901,
  "Arnesen</w>": 57205,
  "Arno</w>": 34730,
  "Arnold</w>": 10042,
  "Aro": 35024,
  "Around</w>": 16240,
  "Arran": 35019,
  "Arrest</w>": 52793,
  "Arri": 35518,
  "Arro": 47675,
  "Arroyo</w>": 56389,
  "Ars": 48352,
  "Arsen": 33858,
  "Arsenal</w>": 4854,
  "Arsene</w>": 41113,
  "Art": 16402,
  "Art.</w>": 30000,
  "Art</w>": 1518,
  "Arten": 28223,
  "Arten</w>": 17951,
  "Arth": 46755,
  "Arthur</w>": 10840,
  "Arti": 17565,
  "Artic": 52958,
  "Article</w>": 37076,
  "Artikel</w>": 2107,
  "Artist</w>": 32327,
  "Artists</w>": 49039,
  "Arts</w>": 13179,
  "Artur</w>": 39291,
  "Arz": 24559,
  "Arznei": 47525,
  "Arzneimittel": 43185,
  "Arzneimittel</w>": 46037,
  "Arzt": 27042,
  "Arzt</w>": 7134,
  "As": 3842,
  "As</w>": 576,
  "Asa": 45612,
  "Asch": 25768,
  "Asche": 26564,
  "Asche</w>": 34897,
  "Asda</w>": 47694,
  "Aser": 59428,
  "Aserbaidsch": 58331,
  "Aserbaidschan</w>": 39212,
  "Ash": 9298,
  "Ashes</w>": 18364,
  "Ashley</w>": 15321,
  "Ashton</w>": 18379,
  "Asi": 18117,
  "Asia-": 56410,
  "Asia-Pacific</w>": 34723,
  "Asia</w>": 4711,
  "Asian</w>": 6635,
  "Aside</w>": 42301,
  "Asien-": 53565,
  "Asien</w>": 13476,
  "Asiens</w>": 55048,
  "Asif</w>": 53390,
  "Ask": 29915,
  "Ask</w>": 34169,
  "Asked</w>": 9087,
  "Asmussen</w>": 54290,
  "Aso</w>": 56619,
  "Asp": 18712,
  "Aspe": 52812,
  "Aspekt</w>": 23090,
  "Aspekte</w>": 24083,
  "Asphalt</w>": 33633,
  "Ass": 21301,
  "Assa": 22910,
  "Assad</w>": 6023,
  "Assan": 59986,
  "Assange</w>": 21423,
  "Asse": 55284,
  "Asse</w>": 49391,
  "Assembly</w>": 14755,
  "Assess": 58731,
  "Assessment</w>": 52546,
  "Asset</w>": 27878,
  "Assets</w>": 45721,
  "Assi": 37242,
  "Assist": 25123,
  "Assistance</w>": 47288,
  "Assistant</w>": 22837,
  "Assistent</w>": 36424,
  "Assistenten</w>": 38083,
  "Associ": 57524,
  "Associate</w>": 52355,
  "Associated</w>": 5091,
  "Associates</w>": 37600,
  "Association</w>": 3231,
  "Assozi": 41622,
  "Ast": 43198,
  "Astan": 58751,
  "Astana</w>": 45246,
  "Aston</w>": 20843,
  "Astra": 48397,
  "Astra</w>": 45209,
  "Astri": 56833,
  "Astrid</w>": 28608,
  "Astro": 41324,
  "Astron": 28893,
  "Astronaut</w>": 52465,
  "Astronauten</w>": 45631,
  "Astronomen</w>": 53021,
  "Astros</w>": 46502,
  "Asy": 20136,
  "Asyl": 3303,
  "Asyl</w>": 16611,
  "At": 6320,
  "At</w>": 864,
  "Atal": 49399,
  "Atel": 46935,
  "Atelier</w>": 32299,
  "Atem": 10931,
  "Atem</w>": 25099,
  "Ath": 20771,
  "Athen</w>": 7741,
  "Athener</w>": 45933,
  "Athens</w>": 16960,
  "Athle": 28869,
  "Athleten</w>": 14192,
  "Athletic</w>": 29714,
  "Athletics</w>": 40832,
  "Atkins</w>": 50635,
  "Atkinson</w>": 46015,
  "Atlan": 35193,
  "Atlanta</w>": 7943,
  "Atlantic</w>": 8865,
  "Atlantik</w>": 43096,
  "Atlantis</w>": 50693,
  "Atlas</w>": 37347,
  "Atle": 58890,
  "Atletico</w>": 23949,
  "Atmosp": 48319,
  "Atmosphäre</w>": 8475,
  "Atom": 6845,
  "Atom-": 47861,
  "Atomaus": 58337,
  "Atomausstieg</w>": 45565,
  "Atombombe</w>": 54029,
  "Atomenergie": 59624,
  "Atomenergie</w>": 54110,
  "Atomenergiebehörde</w>": 56572,
  "Atomic</w>": 46779,
  "Atomkatastrophe</w>": 56018,
  "Atomkraft": 54263,
  "Atomkraft</w>": 43915,
  "Atomkraftgegner</w>": 57810,
  "Atomkraftwerk</w>": 44031,
  "Atomkraftwerke</w>": 45790,
  "Atomkraftwerken</w>": 56722,
  "Atomme": 57336,
  "Atommül": 54193,
  "Atommüll</w>": 54844,
  "Atomprogramm</w>": 41021,
  "Atomwaffen</w>": 38885,
  "Att": 15920,
  "Attack</w>": 40006,
  "Attacke</w>": 14105,
  "Attacken</w>": 20311,
  "Attacks</w>": 52952,
  "Atten": 34621,
  "Attent": 25050,
  "Attentat</w>": 24980,
  "Attentäter</w>": 19051,
  "Attorney</w>": 9992,
  "Attorneys</w>": 54161,
  "Attra": 18721,
  "Attraktivität</w>": 30581,
  "Au": 2498,
  "Auburn</w>": 43867,
  "Auch</w>": 217,
  "Auckland</w>": 32717,
  "Audi": 22567,
  "Audi</w>": 8597,
  "Audio": 50570,
  "Audio</w>": 51248,
  "Audit": 45868,
  "Audit</w>": 50806,
  "Aue</w>": 27269,
  "Auf": 1025,
  "Auf</w>": 486,
  "Aufarbeitung</w>": 25956,
  "Aufbau": 24663,
  "Aufbau</w>": 11594,
  "Aufbruch</w>": 38760,
  "Aufenth": 35740,
  "Aufenthalt</w>": 22223,
  "Aufenthalts": 24421,
  "Aufenthaltsort</w>": 51290,
  "Auff": 8889,
  "Auffassung</w>": 18115,
  "Auffor": 56252,
  "Aufforderung</w>": 27645,
  "Auffäl": 29066,
  "Aufführung</w>": 18673,
  "Aufgabe</w>": 3141,
  "Aufgaben</w>": 5041,
  "Aufgebot</w>": 27437,
  "Aufgrund</w>": 9414,
  "Aufhebung</w>": 30883,
  "Aufhol": 57639,
  "Aufholjagd</w>": 31376,
  "Aufklär": 53989,
  "Aufklärung</w>": 10279,
  "Aufklärungs": 27143,
  "Auflage</w>": 12128,
  "Auflagen</w>": 15623,
  "Auflösung</w>": 17933,
  "Aufmer": 55977,
  "Aufmerksamkeit</w>": 9798,
  "Aufnahme": 31984,
  "Aufnahme</w>": 10393,
  "Aufnahmen</w>": 14834,
  "Aufpreis</w>": 53094,
  "Aufregung</w>": 14363,
  "Aufru": 58436,
  "Aufruf</w>": 19719,
  "Aufruhr</w>": 50793,
  "Aufräum": 38871,
  "Aufschlag</w>": 31357,
  "Aufschluss</w>": 49102,
  "Aufschrift</w>": 30996,
  "Aufschwung</w>": 23573,
  "Aufsehen</w>": 19948,
  "Aufsicht</w>": 25581,
  "Aufsichts": 25541,
  "Aufsichtsbehörden</w>": 54718,
  "Aufsichtsrat": 50967,
  "Aufsichtsrat</w>": 10878,
  "Aufsichtsrats": 23681,
  "Aufsichtsrats</w>": 50405,
  "Aufsichtsratschef</w>": 32706,
  "Aufsichtsräte</w>": 52844,
  "Aufstand</w>": 33419,
  "Aufsteiger</w>": 8294,
  "Aufstellung</w>": 18416,
  "Aufstieg": 28618,
  "Aufstieg</w>": 7185,
  "Aufstiegs": 23953,
  "Aufstockung</w>": 36510,
  "Aufstän": 59292,
  "Aufständische</w>": 53819,
  "Aufständischen</w>": 28582,
  "Auftakt": 16707,
  "Auftakt</w>": 5191,
  "Aufteilung</w>": 47786,
  "Auftr": 40906,
  "Auftrag": 45278,
  "Auftrag</w>": 5213,
  "Auftraggeber</w>": 42393,
  "Auftrags": 19469,
  "Auftreten</w>": 26883,
  "Auftrieb</w>": 46280,
  "Auftritt</w>": 3219,
  "Auftritte</w>": 13190,
  "Auftritten</w>": 21202,
  "Aufträge</w>": 21671,
  "Aufwand</w>": 12096,
  "Aufwertung</w>": 36808,
  "Aufwärtstrend</w>": 44709,
  "Aufzeichnungen</w>": 41885,
  "Aug": 24899,
  "Aug.</w>": 10238,
  "Aug</w>": 39179,
  "Auge</w>": 7120,
  "Augen": 7105,
  "Augen</w>": 3286,
  "Augenblick</w>": 23048,
  "Augenhöhe</w>": 19754,
  "Augenzeuge</w>": 53523,
  "Augenzeugen</w>": 26613,
  "Augsburg</w>": 6214,
  "Augsburger</w>": 16746,
  "Augu": 29545,
  "August": 17682,
  "August</w>": 785,
  "Augusta</w>": 35292,
  "Auktion": 51797,
  "Auktion</w>": 33754,
  "Auktionshaus</w>": 53180,
  "Aung</w>": 35548,
  "Aur": 18322,
  "Aura</w>": 51246,
  "Aurora</w>": 38462,
  "Aus": 525,
  "Aus</w>": 1263,
  "Ausbau</w>": 6135,
  "Ausbe": 45165,
  "Ausbeutung</w>": 46337,
  "Ausbildung</w>": 4138,
  "Ausbildungs": 8978,
  "Ausbildungsp": 35094,
  "Ausblick</w>": 19236,
  "Ausbreitung</w>": 44579,
  "Ausbruch</w>": 22237,
  "Auschw": 53733,
  "Auschwitz</w>": 26316,
  "Ausdruck</w>": 11606,
  "Ausdrucken</w>": 18846,
  "Auseinander": 56380,
  "Auseinandersetzung</w>": 10761,
  "Auseinandersetzungen</w>": 17368,
  "Ausfall": 47393,
  "Ausfall</w>": 21139,
  "Ausflug</w>": 17634,
  "Ausfuhren</w>": 53234,
  "Ausfälle</w>": 25986,
  "Ausführungen</w>": 29787,
  "Ausgabe</w>": 7995,
  "Ausgaben": 51790,
  "Ausgaben</w>": 9328,
  "Ausgang": 58153,
  "Ausgang</w>": 16991,
  "Ausgangs": 21901,
  "Ausgangsposition</w>": 47115,
  "Ausgangspunkt</w>": 34685,
  "Ausgerechnet</w>": 23805,
  "Ausgleich": 23941,
  "Ausgleich</w>": 6134,
  "Auskunft</w>": 12051,
  "Ausland": 34936,
  "Ausland</w>": 3863,
  "Auslands": 15586,
  "Auslastung</w>": 39728,
  "Auslieferung</w>": 31830,
  "Auslosung</w>": 30642,
  "Ausländer": 26063,
  "Ausländer</w>": 16024,
  "Ausländern</w>": 45945,
  "Auslöser</w>": 19821,
  "Ausmaß</w>": 17658,
  "Ausnah": 37201,
  "Ausnahme": 23179,
  "Ausnahme</w>": 11698,
  "Ausnahmen</w>": 21637,
  "Ausnahmezustand</w>": 32891,
  "Ausrichtung</w>": 21896,
  "Ausrüstung</w>": 24463,
  "Aussage</w>": 6327,
  "Aussagen</w>": 7618,
  "Ausscheiden</w>": 30792,
  "Ausschlag</w>": 44826,
  "Ausschluss</w>": 24969,
  "Ausschreibung</w>": 20517,
  "Ausschreitungen</w>": 21059,
  "Ausschuss": 21690,
  "Ausschuss</w>": 8820,
  "Ausschusses</w>": 29669,
  "Ausschü": 49273,
  "Aussehen</w>": 32896,
  "Aussendung</w>": 23166,
  "Aussetzung</w>": 53305,
  "Aussicht</w>": 10068,
  "Aussichten</w>": 20262,
  "Aussie</w>": 22308,
  "Aussprache</w>": 43763,
  "Ausstand</w>": 45810,
  "Ausstattung</w>": 15489,
  "Aussteller</w>": 23705,
  "Ausstellung</w>": 3246,
  "Ausstellungen</w>": 21514,
  "Ausstellungs": 19049,
  "Ausstieg</w>": 19860,
  "Ausstiegs": 50381,
  "Ausstoß</w>": 47196,
  "Ausstrahlung</w>": 34138,
  "Aust": 18830,
  "Austausch</w>": 12742,
  "Austin</w>": 12915,
  "Austr": 52815,
  "Austrag": 35868,
  "Austral": 47568,
  "Australi": 37482,
  "Australia</w>": 963,
  "Australian</w>": 1427,
  "Australians</w>": 11739,
  "Australien</w>": 10050,
  "Australiens</w>": 51887,
  "Australier</w>": 33814,
  "Austri": 33903,
  "Austria</w>": 6612,
  "Austrian</w>": 22048,
  "Austritt</w>": 21699,
  "Ausverkauf</w>": 53715,
  "Auswahl": 34029,
  "Auswahl</w>": 7032,
  "Ausweg</w>": 36187,
  "Ausweis</w>": 42105,
  "Ausweitung</w>": 23026,
  "Auswertung</w>": 21579,
  "Auswirkungen</w>": 7776,
  "Auswär": 27108,
  "Auswärtige</w>": 36582,
  "Auswärtigen</w>": 32807,
  "Auswärts": 21986,
  "Auswärtssieg</w>": 29201,
  "Auswärtsspiel</w>": 23806,
  "Auszahlung</w>": 42340,
  "Auszeichnung</w>": 11309,
  "Auszeichnungen</w>": 32348,
  "Auszeit</w>": 23556,
  "Auszu": 59496,
  "Auszubil": 18001,
  "Auszählung</w>": 44298,
  "Aut": 12325,
  "Auth": 25814,
  "Authorities</w>": 10600,
  "Authority</w>": 10342,
  "Auto": 4003,
  "Auto-": 27695,
  "Auto</w>": 1477,
  "Autob": 29415,
  "Autobahn": 12412,
  "Autobahn</w>": 7914,
  "Autobahnen</w>": 25992,
  "Autobauer</w>": 16067,
  "Autobauers</w>": 53842,
  "Autobi": 43986,
  "Autobranche</w>": 55501,
  "Autofahrer</w>": 4444,
  "Autoh": 18870,
  "Autohersteller</w>": 34825,
  "Autoindustrie</w>": 35952,
  "Autok": 28090,
  "Autokonzern</w>": 54840,
  "Autom": 14693,
  "Automarkt</w>": 54032,
  "Automaten</w>": 32202,
  "Automatik</w>": 52931,
  "Automob": 46890,
  "Automobil": 18488,
  "Automobile</w>": 51171,
  "Automobilindustrie</w>": 46500,
  "Automotive</w>": 38964,
  "Auton": 30103,
  "Autonomie</w>": 47692,
  "Autonomy</w>": 56112,
  "Autop": 43206,
  "Autor": 22001,
  "Autor</w>": 6141,
  "Autoren</w>": 11729,
  "Autorin</w>": 15016,
  "Autorität</w>": 44851,
  "Autors</w>": 44954,
  "Autos</w>": 2595,
  "Autoun": 39943,
  "Autover": 36578,
  "Autozu": 57479,
  "Autozulieferer</w>": 53790,
  "Außen": 3427,
  "Außenminister</w>": 5581,
  "Außenministerin</w>": 46317,
  "Außenministerium</w>": 26614,
  "Außenministeriums</w>": 45400,
  "Außenpolitik</w>": 32136,
  "Außenseit": 47080,
  "Außenseiter</w>": 21922,
  "Außenwelt</w>": 52907,
  "Außer": 24984,
  "Außer</w>": 22153,
  "Außerdem</w>": 1712,
  "Av": 9399,
  "Avail": 58852,
  "Available</w>": 52525,
  "Aval": 43395,
  "Avant": 48482,
  "Ave</w>": 30304,
  "Aven": 32454,
  "Avenue</w>": 10921,
  "Average</w>": 24840,
  "Avery</w>": 50246,
  "Avi": 47884,
  "Aviation</w>": 25669,
  "Aviv</w>": 18798,
  "Aviva</w>": 50326,
  "Avon</w>": 48467,
  "Aw": 20323,
  "Awakening</w>": 57318,
  "Awar": 53151,
  "Award</w>": 9702,
  "Awards</w>": 7683,
  "Away</w>": 36095,
  "Ax": 25857,
  "Axel": 59849,
  "Axel</w>": 10963,
  "Axelrod</w>": 53149,
  "Ay": 7759,
  "Ayatollah</w>": 44601,
  "Ayers</w>": 56251,
  "Az": 10869,
  "Az</w>": 36493,
  "Azer": 58324,
  "Azerbai": 59088,
  "Azerbaijan</w>": 46077,
  "Aziz</w>": 47049,
  "Azu": 24582,
  "B": 228,
  "B-": 3552,
  "B.": 15397,
  "B.</w>": 6959,
  "B.A.</w>": 43734,
  "B.I.</w>": 49685,
  "B.Z.</w>": 19089,
  "B</w>": 1090,
  "BA": 9322,
  "BA-": 46240,
  "BA</w>": 7728,
  "BAA</w>": 56933,
  "BAD</w>": 56258,
  "BAE</w>": 39735,
  "BAGH": 60549,
  "BAGHDAD</w>": 53253,
  "BALAN": 60229,
  "BALANCE</w>": 58804,
  "BAN": 41367,
  "BAR": 45975,
  "BAS": 43161,
  "BASF</w>": 39823,
  "BB": 13546,
  "BB-": 38562,
  "BB</w>": 22541,
  "BBC": 33510,
  "BBC</w>": 1777,
  "BC": 51945,
  "BC</w>": 10665,
  "BCS</w>": 54750,
  "BD": 30470,
  "BDI</w>": 55507,
  "BE": 12126,
  "BE</w>": 27946,
  "BEIJ": 60550,
  "BEIJING</w>": 34745,
  "BER": 17848,
  "BERLIN</w>": 39373,
  "BET</w>": 56216,
  "BG</w>": 24890,
  "BGH</w>": 28264,
  "BH": 45575,
  "BHP</w>": 26859,
  "BI": 11048,
  "BI</w>": 23990,
  "BIA</w>": 59229,
  "BIL": 39538,
  "BILD-": 35177,
  "BILD.": 58500,
  "BILD.de-": 57943,
  "BILD.de</w>": 42197,
  "BILD</w>": 10480,
  "BIP</w>": 28212,
  "BK": 45667,
  "BKA-": 53205,
  "BKA</w>": 36632,
  "BKK</w>": 57145,
  "BL": 31958,
  "BL</w>": 46955,
  "BM": 15408,
  "BM</w>": 34845,
  "BMI</w>": 39853,
  "BMW": 54814,
  "BMW-": 29462,
  "BMW</w>": 5914,
  "BN": 36150,
  "BN</w>": 46119,
  "BND-": 50287,
  "BND</w>": 27661,
  "BNP</w>": 30635,
  "BO": 11978,
  "BO</w>": 32629,
  "BOSTON</w>": 49051,
  "BP": 51371,
  "BP</w>": 13358,
  "BR": 9545,
  "BR</w>": 24478,
  "BS": 12331,
  "BS-": 47654,
  "BS</w>": 14849,
  "BSC</w>": 14056,
  "BST</w>": 16038,
  "BT</w>": 14664,
  "BU": 40000,
  "BUND</w>": 38668,
  "BUR": 39118,
  "BURG</w>": 37239,
  "BURGH</w>": 59016,
  "BV": 19978,
  "BV</w>": 23143,
  "BVB-": 18593,
  "BVB</w>": 9789,
  "BVG</w>": 44413,
  "BW": 31448,
  "BW</w>": 20408,
  "BY": 52437,
  "BZ": 47772,
  "BZ</w>": 40736,
  "BZÖ</w>": 47940,
  "Ba": 3088,
  "Ba</w>": 49776,
  "BaFin</w>": 55978,
  "Bab": 7544,
  "Babbel</w>": 49404,
  "Babel</w>": 56406,
  "Baby": 19909,
  "Baby</w>": 7661,
  "Babys</w>": 23822,
  "Bac": 26311,
  "Bach": 12337,
  "Bach</w>": 10825,
  "Bachel": 23087,
  "Bachelor</w>": 22789,
  "Bachmann</w>": 20607,
  "Back": 5993,
  "Back</w>": 9300,
  "Bacon</w>": 46327,
  "Bad": 6583,
  "Bad</w>": 1238,
  "Bade": 8480,
  "Baden-": 53494,
  "Baden-Baden</w>": 47045,
  "Baden-Württem": 53609,
  "Baden-Württemberg</w>": 5857,
  "Baden-Württembergs</w>": 45163,
  "Baden</w>": 25997,
  "Bader</w>": 36896,
  "Baf": 29359,
  "Bag": 13325,
  "Bagdad</w>": 27635,
  "Bagger</w>": 27613,
  "Bagh": 41656,
  "Baghdad</w>": 11218,
  "Bagram</w>": 56135,
  "Bah": 22487,
  "Bahamas</w>": 39322,
  "Bahn": 3882,
  "Bahn-": 32886,
  "Bahn</w>": 3058,
  "Bahnchef</w>": 55227,
  "Bahnen</w>": 21399,
  "Bahnho": 38748,
  "Bahnhof": 17094,
  "Bahnhof</w>": 6757,
  "Bahnhofs": 26699,
  "Bahnhöfen</w>": 42753,
  "Bahr</w>": 36736,
  "Bahrain</w>": 17499,
  "Bail": 49427,
  "Bailey</w>": 16214,
  "Bain": 50307,
  "Bain</w>": 40258,
  "Bait": 59331,
  "Baitullah</w>": 58291,
  "Baj": 42092,
  "Bak": 13422,
  "Baker</w>": 13878,
  "Bakter": 53087,
  "Bakterien</w>": 31059,
  "Baku</w>": 41591,
  "Bal": 2406,
  "Balance</w>": 25339,
  "Bald": 51389,
  "Bald</w>": 21106,
  "Baldwin</w>": 25996,
  "Bale</w>": 23576,
  "Bali</w>": 22785,
  "Balk": 39651,
  "Balkan</w>": 34656,
  "Balkon</w>": 24184,
  "Ball": 4099,
  "Ball</w>": 2512,
  "Ballack</w>": 28500,
  "Balle": 21788,
  "Baller": 39871,
  "Ballet</w>": 36868,
  "Ballmer</w>": 49651,
  "Balls</w>": 31562,
  "Ballungs": 42793,
  "Balti": 54615,
  "Baltic</w>": 42588,
  "Baltimore</w>": 11648,
  "Bam": 11233,
  "BamS</w>": 56730,
  "Bamberg</w>": 13788,
  "Ban": 5053,
  "Ban</w>": 13995,
  "Banco</w>": 53912,
  "Bancorp</w>": 56022,
  "Band": 11608,
  "Band</w>": 3033,
  "Bandbreite</w>": 31708,
  "Bande</w>": 24168,
  "Banden</w>": 48673,
  "Bands</w>": 16277,
  "Bang": 39732,
  "Bang</w>": 32851,
  "Bangalore</w>": 49469,
  "Bangko": 59186,
  "Bangkok</w>": 17514,
  "Banglad": 50256,
  "Bangladesch</w>": 38830,
  "Bangladesh</w>": 17887,
  "Bani</w>": 55857,
  "Bank": 5159,
  "Bank-": 41036,
  "Bank</w>": 838,
  "Banken": 13527,
  "Banken-": 55065,
  "Banken</w>": 3179,
  "Bankenaufsicht</w>": 48015,
  "Bankenkrise</w>": 55630,
  "Bankenrett": 55726,
  "Bankensektor</w>": 54239,
  "Banker</w>": 24523,
  "Bankers</w>": 48892,
  "Banking</w>": 22963,
  "Bankrott</w>": 55368,
  "Bankrup": 60069,
  "Bankruptcy</w>": 56182,
  "Banks</w>": 17588,
  "Bann": 36392,
  "Bann</w>": 33690,
  "Banner</w>": 38945,
  "Bapt": 59999,
  "Baptist</w>": 37633,
  "Bar": 1143,
  "Bar</w>": 10808,
  "Barack</w>": 2651,
  "Baradei</w>": 58781,
  "Barak</w>": 50095,
  "Barbar": 38786,
  "Barbara</w>": 5872,
  "Barber</w>": 43922,
  "Barbie</w>": 41733,
  "Barca</w>": 33965,
  "Barcel": 45359,
  "Barcelona</w>": 3813,
  "Barcl": 51810,
  "Barclays</w>": 12886,
  "Bargeld</w>": 13958,
  "Bark": 32112,
  "Barker</w>": 38022,
  "Barkley</w>": 48234,
  "Barn": 16872,
  "Barnes</w>": 21564,
  "Barnett</w>": 34740,
  "Barney</w>": 48717,
  "Baro": 28476,
  "Baron</w>": 34366,
  "Baroness</w>": 46069,
  "Barr</w>": 42983,
  "Barrel</w>": 31893,
  "Barrett</w>": 35343,
  "Barri": 25109,
  "Barrich": 60429,
  "Barrichello</w>": 57412,
  "Barrikaden</w>": 51554,
  "Barrios</w>": 57091,
  "Barro": 56685,
  "Barroso</w>": 29331,
  "Barry</w>": 12202,
  "Bars</w>": 41374,
  "Bart": 21687,
  "Bart</w>": 27137,
  "Barth</w>": 33310,
  "Bartlett</w>": 54392,
  "Barton</w>": 35083,
  "Bartsch</w>": 37592,
  "Barç": 42470,
  "Bas": 6353,
  "Basch": 57350,
  "Baschar</w>": 29008,
  "Base</w>": 26372,
  "Baseball</w>": 24758,
  "Based</w>": 20001,
  "Basel</w>": 15393,
  "Bash": 15326,
  "Bashir</w>": 52486,
  "Basi": 23758,
  "Basic</w>": 36401,
  "Basically</w>": 50056,
  "Basin</w>": 47116,
  "Basis": 23153,
  "Basis</w>": 6693,
  "Basisp": 58815,
  "Basispunkte</w>": 56304,
  "Basket": 31173,
  "Basketball": 34104,
  "Basketball-": 19291,
  "Basketball</w>": 18209,
  "Baskets</w>": 28444,
  "Basque</w>": 54069,
  "Basra</w>": 49916,
  "Bass</w>": 23656,
  "Bast": 11515,
  "Bastian</w>": 14226,
  "Bat": 9650,
  "Bates</w>": 45355,
  "Bath</w>": 27819,
  "Batman</w>": 25878,
  "Batt": 33901,
  "Battalion</w>": 51213,
  "Batter": 37065,
  "Batterie</w>": 44533,
  "Batterien</w>": 42307,
  "Battle</w>": 23191,
  "Bau": 579,
  "Bau</w>": 3531,
  "Bauarbeiten</w>": 12694,
  "Bauarbeiter</w>": 38333,
  "Bauch": 20626,
  "Bauch</w>": 19883,
  "Baucus</w>": 55121,
  "Bauer</w>": 7581,
  "Bauermann</w>": 57075,
  "Bauern": 11947,
  "Bauern</w>": 12712,
  "Bauernhof</w>": 33911,
  "Bauf": 23892,
  "Baum": 6219,
  "Baum</w>": 7199,
  "Baumann</w>": 18628,
  "Baustelle</w>": 9803,
  "Baustellen</w>": 23612,
  "Bauten</w>": 38949,
  "Bav": 31986,
  "Baxter</w>": 48743,
  "Bay": 8138,
  "Bay</w>": 4779,
  "Bayer-": 35282,
  "Bayer</w>": 6540,
  "Bayerische</w>": 27939,
  "Bayerischen</w>": 13309,
  "Bayern": 13819,
  "Bayern-": 8988,
  "Bayern-Trainer</w>": 49924,
  "Bayern</w>": 913,
  "BayernLB</w>": 42031,
  "Bayerns</w>": 14908,
  "Baylor</w>": 44607,
  "Bayreuth</w>": 16191,
  "Bayreuther</w>": 41027,
  "Baz": 43916,
  "Bd": 53913,
  "Be": 604,
  "Be</w>": 11335,
  "Beach": 23094,
  "Beach</w>": 6554,
  "Beachtung</w>": 43349,
  "Beam": 36398,
  "Beamte</w>": 8812,
  "Beamten": 37152,
  "Beamten</w>": 3724,
  "Beamter</w>": 33774,
  "Bean</w>": 49300,
  "Bear": 55348,
  "Bear</w>": 22971,
  "Bears</w>": 29516,
  "Beat": 21766,
  "Beat</w>": 31551,
  "Beate</w>": 15405,
  "Beatles</w>": 20999,
  "Beatri": 24238,
  "Beatty</w>": 54697,
  "Beau": 19932,
  "Beauf": 29939,
  "Beautiful</w>": 40397,
  "Beauty</w>": 28462,
  "Beb": 32021,
  "Bebau": 10556,
  "Beben</w>": 27909,
  "Bec": 19750,
  "Because</w>": 5572,
  "Beck": 18267,
  "Beck</w>": 8411,
  "Becken": 39837,
  "Becken</w>": 26161,
  "Beckenbauer</w>": 23859,
  "Becker</w>": 7451,
  "Beckett</w>": 47821,
  "Beckham</w>": 16312,
  "Beckmann</w>": 34343,
  "Becks</w>": 55769,
  "Beckstein</w>": 54669,
  "Bed": 24338,
  "Bedar": 28597,
  "Bedarf</w>": 8193,
  "Bedauern</w>": 47256,
  "Bedenken</w>": 11512,
  "Bedeut": 47104,
  "Bedeutung</w>": 4758,
  "Bedford</w>": 52136,
  "Bedien": 33000,
  "Bedienung</w>": 41985,
  "Beding": 58659,
  "Bedingung</w>": 30034,
  "Bedingungen</w>": 6203,
  "Bedrohung</w>": 16701,
  "Bedrän": 59813,
  "Bedrängnis</w>": 43098,
  "Bedürf": 41500,
  "Bedürfnis</w>": 39541,
  "Bedürfnisse</w>": 26884,
  "Bee": 55397,
  "Bee</w>": 42141,
  "Beein": 46301,
  "Beeinträch": 31502,
  "Been": 58746,
  "Been</w>": 54622,
  "Beendigung</w>": 45447,
  "Beer": 34551,
  "Beer</w>": 29344,
  "Beerdigung</w>": 42920,
  "Beetho": 39778,
  "Beethoven</w>": 33569,
  "Befehl</w>": 46666,
  "Before</w>": 6127,
  "Befragten</w>": 15091,
  "Befragung</w>": 19632,
  "Befrei": 55305,
  "Befreiung</w>": 25241,
  "Befreiungs": 53514,
  "Befreiungsschlag</w>": 47053,
  "Befu": 47949,
  "Befund</w>": 49008,
  "Befür": 58650,
  "Befürchtung</w>": 41520,
  "Befürchtungen</w>": 33100,
  "Befürwor": 54250,
  "Befürworter</w>": 25610,
  "Beg": 7968,
  "Bege": 29666,
  "Begegn": 31197,
  "Begegnung</w>": 8275,
  "Begegnungen</w>": 16235,
  "Begeister": 54264,
  "Begeisterung</w>": 12093,
  "Beginn</w>": 1833,
  "Beginning</w>": 52828,
  "Begleit": 21231,
  "Begleiter</w>": 23199,
  "Begleitung</w>": 16881,
  "Begrenzung</w>": 38301,
  "Begriff</w>": 10403,
  "Begriffe</w>": 34731,
  "Begrü": 40650,
  "Begründung</w>": 10991,
  "Begrüßung</w>": 21417,
  "Beh": 10774,
  "Beha": 59868,
  "Behand": 54299,
  "Behandlung</w>": 7849,
  "Behandlungen</w>": 47137,
  "Behandlungs": 27292,
  "Behaup": 59349,
  "Behauptung</w>": 34916,
  "Behauptungen</w>": 49103,
  "Behavi": 51366,
  "Behin": 26426,
  "Behind</w>": 27281,
  "Behinderten": 26308,
  "Behinderung</w>": 20384,
  "Behinderungen</w>": 24514,
  "Behr": 18012,
  "Behälter</w>": 46155,
  "Behör": 58418,
  "Behörde</w>": 7542,
  "Behörden": 22621,
  "Behörden</w>": 3157,
  "Behördenangaben</w>": 54575,
  "Bei": 4730,
  "Bei</w>": 318,
  "Beide</w>": 3502,
  "Beides</w>": 33961,
  "Beiers": 56067,
  "Beiersdorfer</w>": 53619,
  "Beifahrer</w>": 31437,
  "Beifall</w>": 15840,
  "Beihilfe</w>": 35606,
  "Beijing</w>": 4959,
  "Beil": 30828,
  "Beim</w>": 1447,
  "Bein": 17577,
  "Bein</w>": 19949,
  "Beine</w>": 10310,
  "Beinen</w>": 21624,
  "Being</w>": 16377,
  "Beirat</w>": 38395,
  "Beirut</w>": 25911,
  "Beis": 11711,
  "Beisp": 53210,
  "Beispiel": 54515,
  "Beispiel</w>": 1118,
  "Beispiele</w>": 16702,
  "Beispielsweise</w>": 33402,
  "Beit": 40632,
  "Beitrag": 53788,
  "Beitrag</w>": 6654,
  "Beitrags": 26733,
  "Beitritt</w>": 29501,
  "Beitritts": 41571,
  "Beiträge</w>": 13984,
  "Beiträgen</w>": 39955,
  "Bek": 29078,
  "Bekann": 16907,
  "Bekannt": 56942,
  "Bekannt</w>": 42505,
  "Bekannte</w>": 24249,
  "Bekannten</w>": 21679,
  "Bekanntgabe</w>": 33787,
  "Bekanntwerden</w>": 36070,
  "Bekenntnis</w>": 26397,
  "Bekämp": 59218,
  "Bekämpfung</w>": 21968,
  "Bel": 2874,
  "Belange</w>": 29551,
  "Belarus</w>": 40209,
  "Belast": 28658,
  "Belastung</w>": 12681,
  "Belastungen</w>": 22255,
  "Bele": 57348,
  "Beleg": 37926,
  "Beleg</w>": 33551,
  "Belege</w>": 44612,
  "Belegschaft</w>": 25573,
  "Belei": 37530,
  "Beleidigung</w>": 29947,
  "Beleu": 54349,
  "Beleuchtung</w>": 26257,
  "Belfast</w>": 17584,
  "Belgi": 44465,
  "Belgian</w>": 20129,
  "Belgien</w>": 11769,
  "Belgier</w>": 35515,
  "Belgium</w>": 14918,
  "Belgrad</w>": 34790,
  "Belgrade</w>": 51567,
  "Belich": 58444,
  "Belichick</w>": 54443,
  "Belie": 28317,
  "Belieb": 54247,
  "Beliebtheit</w>": 31618,
  "Believe</w>": 50585,
  "Bell": 12525,
  "Bell</w>": 10453,
  "Bella</w>": 30906,
  "Belle</w>": 43249,
  "Bellev": 59952,
  "Bellevue</w>": 45309,
  "Belmont</w>": 51664,
  "Beloh": 57237,
  "Belohnung</w>": 27279,
  "Beltr": 54217,
  "Bem": 42607,
  "Bemerk": 28464,
  "Bemerkung</w>": 47435,
  "Bemüh": 58976,
  "Bemühen</w>": 46817,
  "Bemühungen</w>": 16084,
  "Ben": 3544,
  "Ben-": 45897,
  "Ben</w>": 3458,
  "Benach": 40956,
  "Benazir</w>": 54976,
  "Bench": 48277,
  "Bend": 42570,
  "Bender</w>": 27147,
  "Bene": 42780,
  "Benedi": 40899,
  "Benedict</w>": 21285,
  "Benedikt</w>": 13657,
  "Benef": 58752,
  "Benefit</w>": 54499,
  "Benefits</w>": 52503,
  "Benefiz": 21747,
  "Benfic": 59502,
  "Benfica</w>": 38735,
  "Beng": 15158,
  "Bengals</w>": 49059,
  "Bengasi</w>": 52189,
  "Benit": 60238,
  "Benitez</w>": 38906,
  "Benj": 50420,
  "Benjamin</w>": 6477,
  "Benn": 30106,
  "Benn</w>": 50608,
  "Bennett</w>": 15347,
  "Benny</w>": 41877,
  "Beno": 43770,
  "Benson</w>": 49108,
  "Bent": 33640,
  "Bent</w>": 55495,
  "Bentley</w>": 33422,
  "Benz": 24675,
  "Benzin": 29028,
  "Benzin</w>": 27443,
  "Benziner</w>": 44790,
  "Benítez</w>": 56654,
  "Beobach": 22105,
  "Beobachter</w>": 13719,
  "Beobachtern</w>": 47425,
  "Beobachtung</w>": 23801,
  "Beobachtungen</w>": 31799,
  "Ber": 1485,
  "Berat": 27863,
  "Berater": 51481,
  "Berater</w>": 11783,
  "Beratung</w>": 12474,
  "Beratungen</w>": 20679,
  "Beratungs": 12490,
  "Berbat": 59641,
  "Berbatov</w>": 56574,
  "Bere": 36492,
  "Berech": 43313,
  "Berechnung</w>": 34839,
  "Berechnungen</w>": 21948,
  "Berei": 33107,
  "Bereich</w>": 1766,
  "Bereiche</w>": 14758,
  "Bereichen</w>": 9903,
  "Bereit": 21745,
  "Bereits</w>": 2852,
  "Bereitschaft</w>": 14337,
  "Berg": 2552,
  "Berg</w>": 7012,
  "Bergbau": 43736,
  "Berge": 32003,
  "Berge</w>": 23386,
  "Bergedorfer</w>": 17796,
  "Bergen</w>": 20559,
  "Berger</w>": 14863,
  "Bergmann</w>": 29951,
  "Bergsteiger</w>": 49642,
  "Bergung</w>": 31335,
  "Bericht</w>": 2785,
  "Berichte</w>": 12345,
  "Berichten</w>": 17399,
  "Berichter": 54420,
  "Berichterstattung</w>": 20508,
  "Berichts</w>": 49395,
  "Berkel": 59719,
  "Berkeley</w>": 27798,
  "Berkshire</w>": 28533,
  "Berl": 51987,
  "Berlin": 14700,
  "Berlin-": 12164,
  "Berlin-Brandenburg</w>": 46870,
  "Berlin</w>": 444,
  "Berlinale</w>": 32559,
  "Berliner</w>": 1436,
  "Berlinerin</w>": 48308,
  "Berlins</w>": 11387,
  "Berluscon": 57631,
  "Berlusconi</w>": 10412,
  "Berlusconis</w>": 49219,
  "Berman</w>": 51958,
  "Bermu": 56757,
  "Bermuda</w>": 51164,
  "Bern": 5446,
  "Bern</w>": 26724,
  "Bernanke</w>": 19340,
  "Bernard</w>": 13840,
  "Bernd</w>": 4440,
  "Bernhard</w>": 7667,
  "Bernie</w>": 15097,
  "Bernstein</w>": 33374,
  "Berry</w>": 21186,
  "Bert</w>": 33854,
  "Bertel": 47726,
  "Bertelsmann</w>": 49368,
  "Berthold</w>": 31396,
  "Bertrand</w>": 49199,
  "Beru": 58628,
  "Beruf": 8042,
  "Beruf</w>": 6974,
  "Berufe</w>": 32155,
  "Berufs": 4738,
  "Berufsleben</w>": 36464,
  "Berufung</w>": 7887,
  "Berufungs": 43382,
  "Beruhig": 42269,
  "Berücksich": 58180,
  "Berücksichtigung</w>": 39863,
  "Berüh": 42571,
  "Bes": 4161,
  "Besatz": 55601,
  "Besatzung</w>": 28040,
  "Besatzungs": 52087,
  "Besatzungsmitglieder</w>": 55141,
  "Besch": 9142,
  "Beschaff": 31913,
  "Beschei": 51967,
  "Bescheid</w>": 23833,
  "Bescheidenheit</w>": 51718,
  "Beschl": 23803,
  "Beschleun": 53826,
  "Beschleunigung</w>": 51026,
  "Beschluss</w>": 8539,
  "Beschlüsse</w>": 25443,
  "Beschreibung</w>": 33090,
  "Beschrän": 35276,
  "Beschul": 52703,
  "Beschuldigte</w>": 30543,
  "Beschuldigten</w>": 28382,
  "Beschuss</w>": 39992,
  "Beschwerde</w>": 27326,
  "Beschwerden</w>": 15177,
  "Beschäf": 40350,
  "Beschäftigte</w>": 15110,
  "Beschäftigten</w>": 8565,
  "Beschäftigung</w>": 18033,
  "Beschäftigungs": 28375,
  "Besetzung</w>": 15564,
  "Besides</w>": 26928,
  "Besitz": 19081,
  "Besitz</w>": 14957,
  "Besitzer</w>": 8235,
  "Besonder": 24036,
  "Besondere</w>": 23688,
  "Besonderes</w>": 17157,
  "Besonderheit</w>": 32124,
  "Besonders</w>": 4094,
  "Besor": 55639,
  "Besorgnis</w>": 51717,
  "Besprochen</w>": 57247,
  "Besser": 26795,
  "Besser</w>": 20718,
  "Besserung</w>": 32331,
  "Best": 4666,
  "Best</w>": 6028,
  "Bestand": 39701,
  "Bestand</w>": 17881,
  "Bestands": 33767,
  "Bestandteil</w>": 18034,
  "Beste</w>": 11252,
  "Bestech": 53120,
  "Bestechung</w>": 48924,
  "Bestechungs": 53415,
  "Bestehen</w>": 13329,
  "Bestell": 53193,
  "Bestellung</w>": 37486,
  "Bestellungen</w>": 41487,
  "Besten</w>": 17955,
  "Bester</w>": 29046,
  "Bestes</w>": 35460,
  "Besteuerung</w>": 51740,
  "Bestim": 27994,
  "Bestimmungen</w>": 37005,
  "Bestra": 48984,
  "Bestre": 41564,
  "Bestsell": 44553,
  "Bestseller</w>": 44229,
  "Bestzeit</w>": 35831,
  "Bestä": 51903,
  "Bestände</w>": 47324,
  "Bestätigung</w>": 23157,
  "Besu": 17254,
  "Besuch</w>": 2995,
  "Besuche</w>": 37146,
  "Besucher": 14029,
  "Besucher</w>": 1594,
  "Besuchern</w>": 8739,
  "Besuchs</w>": 44123,
  "Bet": 4191,
  "Betan": 59176,
  "Betancourt</w>": 56974,
  "Beteilig": 41212,
  "Beteiligten</w>": 8982,
  "Beteiligung</w>": 7523,
  "Beteiligungen</w>": 45614,
  "Beteiligungs": 42956,
  "Beth": 33861,
  "Beth</w>": 36259,
  "Bethes": 59371,
  "Bethesda</w>": 52685,
  "Bethleh": 59675,
  "Bethlehem</w>": 44650,
  "Beton": 14916,
  "Beton</w>": 30550,
  "Betr": 30698,
  "Betra": 33057,
  "Betracht</w>": 36869,
  "Betrachter</w>": 31742,
  "Betrachtung</w>": 41595,
  "Betrag</w>": 13414,
  "Betrei": 39902,
  "Betreiber": 35836,
  "Betreiber</w>": 9459,
  "Betreu": 19059,
  "Betreuer</w>": 20068,
  "Betreuung</w>": 9748,
  "Betreuungs": 18463,
  "Betreuungsgeld</w>": 36064,
  "Betrieb": 11196,
  "Betrieb</w>": 4020,
  "Betriebe</w>": 10486,
  "Betrieben</w>": 22023,
  "Betriebs": 5793,
  "Betriebsrat</w>": 26272,
  "Betriebsratschef</w>": 54970,
  "Betriebsräte</w>": 54107,
  "Betriebssystem</w>": 28238,
  "Betro": 59093,
  "Betroff": 43549,
  "Betroffen</w>": 21339,
  "Betroffene</w>": 16326,
  "Betroffenen</w>": 9464,
  "Betru": 57116,
  "Betrug</w>": 24513,
  "Betrugs": 39211,
  "Betrugs</w>": 45105,
  "Beträge</w>": 39325,
  "Betrüger</w>": 31662,
  "Bett": 26839,
  "Bett</w>": 12716,
  "Betten</w>": 26641,
  "Better</w>": 21400,
  "Bettina</w>": 18680,
  "Betty</w>": 31608,
  "Between</w>": 20528,
  "Betäub": 32260,
  "Beu": 18510,
  "Beur": 46511,
  "Beurteilung</w>": 41982,
  "Beust</w>": 56181,
  "Beute</w>": 16510,
  "Bev</w>": 58972,
  "Bever": 38586,
  "Beverly</w>": 19983,
  "Bevor</w>": 12531,
  "Bevölk": 57065,
  "Bevölkerung</w>": 3228,
  "Bevölkerungs": 21008,
  "Bew": 45950,
  "Bewaff": 38368,
  "Beweg": 24301,
  "Bewegung</w>": 4374,
  "Bewegungen</w>": 21991,
  "Bewegungs": 20702,
  "Beweis": 19253,
  "Beweis</w>": 11260,
  "Beweise</w>": 23250,
  "Bewer": 17666,
  "Bewerber</w>": 12133,
  "Bewerbern</w>": 42441,
  "Bewerbung</w>": 17142,
  "Bewerbungen</w>": 30402,
  "Bewerbungs": 27335,
  "Bewertung</w>": 16705,
  "Bewertungen</w>": 42769,
  "Bewertungs": 48536,
  "Bewohner</w>": 5330,
  "Bewohnern</w>": 26202,
  "Bewus": 57403,
  "Bewusst": 48678,
  "Bewusstsein</w>": 17525,
  "Bewähr": 37898,
  "Bewährung</w>": 20563,
  "Bewährungs": 53186,
  "Bewährungsstrafe</w>": 40492,
  "Bewäl": 59342,
  "Bewältigung</w>": 38361,
  "Bey": 45764,
  "Beyon": 32775,
  "Beyonce</w>": 27741,
  "Beyond</w>": 24069,
  "Bezahl": 31953,
  "Bezahlung</w>": 25647,
  "Bezeichnung</w>": 27072,
  "Bezieh": 51318,
  "Beziehung</w>": 9075,
  "Beziehungen</w>": 8713,
  "Beziehungs": 43826,
  "Bezir": 35114,
  "Bezirk": 16415,
  "Bezirk</w>": 8412,
  "Bezirke</w>": 41712,
  "Bezirken</w>": 41135,
  "Bezirks": 3052,
  "Bezug</w>": 11246,
  "Bezugs": 54685,
  "Bezüge</w>": 44992,
  "Bf": 38382,
  "Bh": 45668,
  "Bhar": 44884,
  "Bhut": 52803,
  "Bhutto</w>": 35176,
  "Bi": 2249,
  "Biath": 41341,
  "Biathlon-": 45383,
  "Bib": 28610,
  "Bibel</w>": 33711,
  "Bible</w>": 29238,
  "Bibliothe": 34182,
  "Bibliothek</w>": 25941,
  "Biblis</w>": 51808,
  "Biden</w>": 11696,
  "Bie": 11506,
  "Bieber</w>": 16417,
  "Bieder": 52114,
  "Biedermann</w>": 49622,
  "Biel": 46322,
  "Bielefel": 55378,
  "Bielefeld</w>": 11973,
  "Bielefelder</w>": 35998,
  "Bienen": 27324,
  "Bier": 5602,
  "Bier</w>": 8519,
  "Bierhoff</w>": 41488,
  "Bieter": 52283,
  "Bieter</w>": 51071,
  "Big": 14380,
  "Big</w>": 3660,
  "Biggs</w>": 55848,
  "Bik": 21620,
  "Bil": 9958,
  "Bilanz": 23581,
  "Bilanz</w>": 5842,
  "Bilanzen</w>": 48364,
  "Bilbao</w>": 41996,
  "Bild": 7030,
  "Bild-": 54580,
  "Bild-Zeitung</w>": 48250,
  "Bild.de</w>": 20337,
  "Bild</w>": 1361,
  "Bilder": 15098,
  "Bilder</w>": 2738,
  "Bildern</w>": 10759,
  "Bilderserie</w>": 58211,
  "Bildes</w>": 38829,
  "Bildmaterial</w>": 33938,
  "Bildschir": 29434,
  "Bildschirm</w>": 21829,
  "Bildung</w>": 5930,
  "Bildungs": 5185,
  "Bildungsp": 54231,
  "Bildungspolitik</w>": 49546,
  "Bildungssystem</w>": 53606,
  "Bildunterschrift</w>": 16053,
  "Bill": 20107,
  "Bill</w>": 2877,
  "Billboard</w>": 42411,
  "Billi": 20512,
  "Billig": 23224,
  "Billig-": 54395,
  "Billion</w>": 44470,
  "Billionen</w>": 28166,
  "Billiton</w>": 46522,
  "Bills</w>": 38449,
  "Billy</w>": 13548,
  "Bin": 10923,
  "Bin</w>": 17038,
  "Bindung</w>": 39749,
  "Bing</w>": 46538,
  "Binnen": 25998,
  "Binnen</w>": 48052,
  "Bio": 8790,
  "Bio-": 24117,
  "Bio</w>": 48168,
  "Biog": 34437,
  "Biogra": 46165,
  "Biografie</w>": 28987,
  "Biok": 56555,
  "Biology</w>": 48537,
  "Biom": 35187,
  "Bion": 54852,
  "Biosp": 54887,
  "Biosprit</w>": 58133,
  "Bir": 6413,
  "Bird</w>": 23164,
  "Birg": 53116,
  "Birgit</w>": 13283,
  "Birk": 40883,
  "Birken": 22123,
  "Birm": 59272,
  "Birma</w>": 54251,
  "Birmingham</w>": 10765,
  "Birth": 38202,
  "Bis": 9525,
  "Bis</w>": 1533,
  "Bisch": 21445,
  "Bischo": 55949,
  "Bischof</w>": 16332,
  "Bischofs": 48913,
  "Bischofskonferenz</w>": 51729,
  "Bischö": 54179,
  "Bischöfe</w>": 49984,
  "Bisher</w>": 6145,
  "Bishop</w>": 16500,
  "Bislang</w>": 7865,
  "Bismar": 36002,
  "Bist": 18606,
  "Bit": 9330,
  "Bitte</w>": 15590,
  "Bitter": 35095,
  "Bitter</w>": 44637,
  "Bj": 34290,
  "Björ": 50564,
  "Björn</w>": 16619,
  "Bl": 3459,
  "Bla": 9860,
  "Black": 8449,
  "Black</w>": 3917,
  "BlackBerry</w>": 32476,
  "Blackberry</w>": 47912,
  "Blackburn</w>": 28814,
  "Blackpool</w>": 43555,
  "Blacks</w>": 25451,
  "Blackstone</w>": 50302,
  "Blackwater</w>": 50558,
  "Blago": 59779,
  "Blagoje": 60222,
  "Blagojevich</w>": 53177,
  "Blair</w>": 9788,
  "Blake</w>": 14799,
  "Blam": 57658,
  "Blamage</w>": 51186,
  "Blan": 9829,
  "Blanc</w>": 36633,
  "Blanch": 45887,
  "Blas": 10381,
  "Blase</w>": 48896,
  "Blatt</w>": 11142,
  "Blatter</w>": 13034,
  "Blau": 7306,
  "Blau</w>": 30569,
  "Blazers</w>": 51172,
  "Ble": 15708,
  "Blears</w>": 58719,
  "Blech": 24344,
  "Blei": 16602,
  "Bleiben</w>": 47720,
  "Bleibt</w>": 26516,
  "Blessing</w>": 51005,
  "Bli": 24548,
  "Blick": 21647,
  "Blick</w>": 1500,
  "Blicke</w>": 29980,
  "Blickpunkt</w>": 48686,
  "Blin": 25948,
  "Blind": 41087,
  "Blind</w>": 40469,
  "Blitz": 15178,
  "Blitz</w>": 35962,
  "Blo": 15082,
  "Block": 14145,
  "Block</w>": 14765,
  "Blockade</w>": 32751,
  "Blockbuster</w>": 52663,
  "Blog": 38814,
  "Blog</w>": 18781,
  "Blogger</w>": 37407,
  "Blogs</w>": 49147,
  "Blon": 41156,
  "Blond": 57988,
  "Blondine</w>": 48910,
  "Bloo": 39267,
  "Blood</w>": 25138,
  "Bloom": 38817,
  "Bloom</w>": 39843,
  "Bloomberg</w>": 9657,
  "Bloß</w>": 50770,
  "Blu": 13262,
  "Blu-": 57634,
  "Blu-ray</w>": 49496,
  "Blue": 44280,
  "Blue</w>": 6904,
  "Blues</w>": 9341,
  "Bluet": 56978,
  "Bluetooth</w>": 45356,
  "Blum": 9692,
  "Blum</w>": 36697,
  "Blumen": 15536,
  "Blumen</w>": 15322,
  "Blunt</w>": 47943,
  "Blut": 5524,
  "Blut</w>": 10442,
  "Blutbad</w>": 52675,
  "Blutdruck</w>": 49808,
  "Blutt": 59136,
  "Bluttat</w>": 46151,
  "Blä": 18838,
  "Blätter</w>": 28554,
  "Blö": 25473,
  "Blü": 19524,
  "Blüten</w>": 33722,
  "Bo": 1024,
  "Bo</w>": 24623,
  "Board</w>": 6951,
  "Boat": 56567,
  "Boat</w>": 50512,
  "Boateng</w>": 18654,
  "Bob": 14195,
  "Bob</w>": 5676,
  "Bobby</w>": 16597,
  "Bobcats</w>": 55934,
  "Boch": 29486,
  "Bocholt</w>": 53354,
  "Bochum</w>": 11839,
  "Bochumer</w>": 35599,
  "Bock": 24356,
  "Bock</w>": 25295,
  "Bod": 27251,
  "Bode</w>": 41143,
  "Boden": 7404,
  "Boden</w>": 3083,
  "Bodensee</w>": 21882,
  "Bodo</w>": 33838,
  "Body": 37902,
  "Body</w>": 25942,
  "Boeh": 54940,
  "Boehner</w>": 16944,
  "Boein": 56263,
  "Boeing</w>": 9210,
  "Boetti": 59886,
  "Boetticher</w>": 58523,
  "BofA</w>": 56491,
  "Bog": 19686,
  "Bogen</w>": 21746,
  "Bogo": 55671,
  "Bogota</w>": 55027,
  "Boh": 15894,
  "Bohlen</w>": 40839,
  "Bohr": 24706,
  "Boise</w>": 54752,
  "Bol": 9632,
  "Boli": 37186,
  "Bolivi": 57389,
  "Bolivia</w>": 46482,
  "Bolivien</w>": 51329,
  "Boll": 22024,
  "Boll</w>": 37132,
  "Bollywood</w>": 51069,
  "Bologn": 56598,
  "Bologna</w>": 49911,
  "Bolt</w>": 21069,
  "Bolton</w>": 24850,
  "Bom": 15566,
  "Bomb": 43322,
  "Bomb</w>": 51633,
  "Bombar": 29040,
  "Bombay</w>": 55168,
  "Bombe</w>": 20057,
  "Bomben": 20193,
  "Bomben</w>": 31801,
  "Bombenanschlag</w>": 48463,
  "Bommel</w>": 56511,
  "Bon": 5442,
  "Bon</w>": 42856,
  "Bond</w>": 12786,
  "Bonds</w>": 31746,
  "Boni</w>": 45331,
  "Bonität</w>": 52300,
  "Bonitäts": 55882,
  "Bonn": 25523,
  "Bonn</w>": 7587,
  "Bonner</w>": 16126,
  "Bonnie</w>": 45823,
  "Bono</w>": 46885,
  "Bonus": 49035,
  "Bonus</w>": 37428,
  "Bonuszahlungen</w>": 56616,
  "Boo": 8199,
  "Book": 44550,
  "Book</w>": 12833,
  "Booker</w>": 37860,
  "Books</w>": 26759,
  "Boom": 54305,
  "Boom</w>": 26480,
  "Boot</w>": 11044,
  "Boote</w>": 31017,
  "Booth</w>": 45530,
  "Boots": 30589,
  "Bop": 52161,
  "Bopara</w>": 57552,
  "Bor": 2917,
  "Bord": 18922,
  "Bord</w>": 7231,
  "Borde": 58930,
  "Bordeaux</w>": 36933,
  "Border</w>": 20454,
  "Borders</w>": 30098,
  "Boris</w>": 9420,
  "Borken</w>": 37280,
  "Born": 25891,
  "Born</w>": 17711,
  "Borough</w>": 50799,
  "Borowski</w>": 55287,
  "Borro": 56457,
  "Borussi": 50491,
  "Borussia</w>": 4449,
  "Bos": 19952,
  "Bosbach</w>": 43705,
  "Bosch</w>": 23393,
  "Bosn": 25673,
  "Bosnia</w>": 43289,
  "Bosnian</w>": 49897,
  "Bosnien</w>": 46532,
  "Boss</w>": 12352,
  "Bosse</w>": 42409,
  "Bost": 44897,
  "Boston</w>": 4222,
  "Bot": 20983,
  "Both</w>": 3918,
  "Botox</w>": 50850,
  "Bots": 59708,
  "Botschaf": 35034,
  "Botschaft</w>": 6859,
  "Botschaften</w>": 26039,
  "Botschafter</w>": 13900,
  "Botswana</w>": 54170,
  "Bott": 33336,
  "Bou": 9267,
  "Bouff": 59263,
  "Bouffier</w>": 38357,
  "Boul": 41234,
  "Boulder</w>": 53129,
  "Boule": 54749,
  "Boulevar": 57278,
  "Boulevard": 41700,
  "Boulevard</w>": 28249,
  "Bour": 17922,
  "Bournemouth</w>": 35499,
  "Bow": 9719,
  "Bowen</w>": 40685,
  "Bowl</w>": 8816,
  "Bowman</w>": 46925,
  "Box": 14262,
  "Box-": 48679,
  "Box</w>": 15711,
  "Boxen</w>": 31584,
  "Boxer</w>": 28881,
  "Boxing</w>": 31678,
  "Boy": 18348,
  "Boy</w>": 14939,
  "Boyd</w>": 24818,
  "Boyko": 56166,
  "Boykott</w>": 39784,
  "Boyle</w>": 30766,
  "Boys</w>": 16307,
  "Br": 2061,
  "Bra": 4238,
  "Brad": 28674,
  "Brad</w>": 11054,
  "Bradford</w>": 28692,
  "Bradley</w>": 13667,
  "Bradshaw</w>": 52906,
  "Brady</w>": 15763,
  "Brag": 50922,
  "Brah": 37027,
  "Brain</w>": 40411,
  "Bram": 31056,
  "Bran": 13587,
  "Branch</w>": 43624,
  "Branche</w>": 7189,
  "Branchen": 12926,
  "Branchen</w>": 23703,
  "Branchenprimus</w>": 54484,
  "Brand": 2964,
  "Brand</w>": 4065,
  "Branden": 43766,
  "Brandenburg</w>": 7638,
  "Brandenburger</w>": 19203,
  "Brandenburgs</w>": 37145,
  "Brandon</w>": 21141,
  "Brands</w>": 38966,
  "Brandstif": 40568,
  "Brandstiftung</w>": 27568,
  "Brandt</w>": 18126,
  "Branson</w>": 41481,
  "Brasili": 33555,
  "Brasilianer</w>": 21477,
  "Brasilien</w>": 6334,
  "Brasiliens</w>": 36673,
  "Brat": 14992,
  "Brau": 9503,
  "Brauerei</w>": 27122,
  "Braun": 17234,
  "Braun</w>": 11397,
  "Braunschwei": 34852,
  "Braunschweig</w>": 13826,
  "Braut": 39583,
  "Braut</w>": 42974,
  "Braves</w>": 44677,
  "Bravo</w>": 35736,
  "Brawn</w>": 53412,
  "Braz": 41369,
  "Brazil</w>": 5244,
  "Brazilian</w>": 12859,
  "Bre": 1438,
  "Break": 19485,
  "Break</w>": 32421,
  "Breaking</w>": 27238,
  "Breast</w>": 51531,
  "Brech": 42022,
  "Bree": 46838,
  "Brei": 39001,
  "Breit": 9709,
  "Breite</w>": 23414,
  "Breivik</w>": 35629,
  "Brem": 33103,
  "Bremen</w>": 4033,
  "Bremens</w>": 50459,
  "Bremer": 53419,
  "Bremer</w>": 10408,
  "Bremerhaven</w>": 34017,
  "Brems": 42329,
  "Bremse</w>": 43514,
  "Bremsen</w>": 44662,
  "Brend": 47765,
  "Brenda</w>": 53793,
  "Brendan</w>": 22441,
  "Brenn": 11953,
  "Brennan</w>": 31109,
  "Brennstoff": 53380,
  "Breno</w>": 55770,
  "Brent</w>": 17918,
  "Bres": 25663,
  "Brett</w>": 15382,
  "Breuer</w>": 39766,
  "Brewer</w>": 47005,
  "Brewers</w>": 49466,
  "Bri": 7201,
  "Brian</w>": 6170,
  "Briatore</w>": 57764,
  "Brid": 24303,
  "Bride</w>": 56704,
  "Bridge</w>": 9417,
  "Bridges</w>": 48241,
  "Brie": 43746,
  "Brief": 9392,
  "Brief</w>": 7401,
  "Briefe</w>": 22403,
  "Briefen</w>": 50274,
  "Brien</w>": 57670,
  "Brig": 17854,
  "Brig.</w>": 56995,
  "Brigade</w>": 37842,
  "Bright</w>": 43824,
  "Brighton</w>": 23240,
  "Brigitte</w>": 13083,
  "Brille</w>": 23292,
  "Bring</w>": 40218,
  "Brink": 36782,
  "Brinkmann</w>": 43568,
  "Bris": 41587,
  "Brisanz</w>": 47214,
  "Brisbane</w>": 6287,
  "Bristol</w>": 16545,
  "Brit": 10361,
  "Brit</w>": 44073,
  "Britain</w>": 1298,
  "Brite</w>": 25047,
  "Briten</w>": 13352,
  "Britin</w>": 52761,
  "Britische</w>": 51842,
  "British-": 47978,
  "British</w>": 887,
  "Britney</w>": 31219,
  "Briton</w>": 37223,
  "Britons</w>": 22840,
  "Brits</w>": 39513,
  "Britta</w>": 30780,
  "Bro": 3285,
  "Broad": 21371,
  "Broad</w>": 27812,
  "Broadband</w>": 56564,
  "Broadcasting</w>": 42318,
  "Broadcom</w>": 57397,
  "Broadway</w>": 13741,
  "Brock": 29540,
  "Brocken</w>": 34597,
  "Brok": 52985,
  "Brom": 28023,
  "Bron": 20205,
  "Bron</w>": 59776,
  "Broncos</w>": 16924,
  "Bronx</w>": 29600,
  "Bronz": 27322,
  "Bronze</w>": 14573,
  "Broo": 59066,
  "Brook": 32361,
  "Brook</w>": 43740,
  "Brooke</w>": 41592,
  "Brookings</w>": 50989,
  "Brookl": 56513,
  "Brooklyn</w>": 10218,
  "Brooks</w>": 15870,
  "Bros.</w>": 36100,
  "Brosch": 29029,
  "Brot</w>": 17393,
  "Brother": 17573,
  "Brother</w>": 23900,
  "Brothers</w>": 14756,
  "Brow": 29791,
  "Brown": 32864,
  "Brown</w>": 2216,
  "Browne</w>": 39545,
  "Browns</w>": 35859,
  "Browser</w>": 40634,
  "Bru": 5477,
  "Bruce</w>": 9198,
  "Bruch": 30315,
  "Bruch</w>": 20353,
  "Bruchhagen</w>": 50637,
  "Bruchteil</w>": 49527,
  "Bruck": 30806,
  "Bruder</w>": 6356,
  "Bruders</w>": 46759,
  "Bruins</w>": 26595,
  "Brun": 10092,
  "Bruni</w>": 53685,
  "Brunnen</w>": 23028,
  "Brunner</w>": 30366,
  "Bruno</w>": 11106,
  "Bruns": 57703,
  "Brunsbüttel</w>": 55239,
  "Brus": 55594,
  "Brussels</w>": 9816,
  "Brust": 19968,
  "Brust</w>": 15059,
  "Brut": 21076,
  "Brutalität</w>": 52112,
  "Brutto": 44043,
  "Bruttoinland": 59098,
  "Bruttoinlandsprodu": 57258,
  "Bruttoinlandsprodukt</w>": 39270,
  "Bruttoinlandsprodukts</w>": 48424,
  "Bry": 21144,
  "Bryan</w>": 19841,
  "Bryant</w>": 15291,
  "Brä": 21099,
  "Brände</w>": 39554,
  "Bräu": 36841,
  "Brö": 34981,
  "Brötchen</w>": 36829,
  "Brü": 7902,
  "Brück": 28251,
  "Brücke</w>": 7557,
  "Brücken": 18343,
  "Brücken</w>": 21946,
  "Brüder": 51358,
  "Brüder</w>": 15753,
  "Brüderle</w>": 34319,
  "Brün": 40708,
  "Brüs": 55082,
  "Brüssel</w>": 4289,
  "Brüsseler</w>": 26880,
  "Bsir": 60045,
  "Bsirske</w>": 52871,
  "Bu": 2016,
  "Bub": 21835,
  "Buch": 3774,
  "Buch</w>": 2782,
  "Buchan": 59914,
  "Buchanan</w>": 47403,
  "Buchautor</w>": 54603,
  "Buche</w>": 21603,
  "Buchen": 33584,
  "Buches</w>": 28955,
  "Buchholz</w>": 38515,
  "Buchmesse</w>": 38791,
  "Buchst": 60443,
  "Buchstaben</w>": 31322,
  "Bucht": 56873,
  "Bucht</w>": 47447,
  "Buck": 17136,
  "Buck</w>": 34569,
  "Buckingham</w>": 30135,
  "Buckley</w>": 39454,
  "Bucks</w>": 48403,
  "Bud": 13551,
  "Bud</w>": 51308,
  "Budapest</w>": 19591,
  "Budd": 44753,
  "Buddh": 46739,
  "Buddhist</w>": 38617,
  "Budget": 34959,
  "Budget</w>": 8224,
  "Budgets</w>": 48259,
  "Buenos</w>": 24853,
  "Buff": 22868,
  "Buffalo</w>": 21565,
  "Buffett</w>": 23795,
  "Bug": 49062,
  "Buick</w>": 55820,
  "Buil": 28927,
  "Building</w>": 18087,
  "Built</w>": 52155,
  "Buk": 56354,
  "Bukarest</w>": 49248,
  "Bul": 8324,
  "Bulgar": 17969,
  "Bulgaria</w>": 18518,
  "Bulgarien</w>": 22722,
  "Bull": 26763,
  "Bull-": 58761,
  "Bull</w>": 9762,
  "Bulldogs</w>": 18988,
  "Bulletin</w>": 52682,
  "Bullock</w>": 43898,
  "Bulls</w>": 20245,
  "Bun": 8834,
  "Bund": 29526,
  "Bund</w>": 3940,
  "Bunde": 56774,
  "Bundes": 1606,
  "Bundes-": 52466,
  "Bundes</w>": 15649,
  "Bundesagentur</w>": 30486,
  "Bundesamt</w>": 15533,
  "Bundesamtes</w>": 43651,
  "Bundesan": 52869,
  "Bundesanstalt</w>": 51587,
  "Bundesanwaltschaft</w>": 31072,
  "Bundesarbeits": 38909,
  "Bundesaußenminister</w>": 39437,
  "Bundesbank": 56887,
  "Bundesbank-": 54383,
  "Bundesbank</w>": 26756,
  "Bundesbürger</w>": 38407,
  "Bundesebene</w>": 34638,
  "Bundesfamilien": 54303,
  "Bundesfinanz": 51440,
  "Bundesfinanzminister</w>": 28449,
  "Bundesfinanzministerium</w>": 53852,
  "Bundesgerichtshof</w>": 31769,
  "Bundesgesundheits": 50889,
  "Bundeshaushalt</w>": 54701,
  "Bundesinnen": 43725,
  "Bundesinnenminister</w>": 26931,
  "Bundesjustiz": 51558,
  "Bundesjustizministerin</w>": 56566,
  "Bundesk": 39160,
  "Bundeskabinett</w>": 52487,
  "Bundeskanzler</w>": 21751,
  "Bundeskanzlerin</w>": 7291,
  "Bundeskartell": 58289,
  "Bundeskartellamt</w>": 52870,
  "Bundeskrimin": 53765,
  "Bundeskriminalamt</w>": 46251,
  "Bundesland</w>": 20251,
  "Bundeslig": 15130,
  "Bundesliga-": 6306,
  "Bundesliga</w>": 3372,
  "Bundesligasp": 30522,
  "Bundesligist</w>": 31557,
  "Bundesligisten</w>": 24123,
  "Bundesländer</w>": 17696,
  "Bundesländern</w>": 14538,
  "Bundesnetz": 60088,
  "Bundesnetzagentur</w>": 49981,
  "Bundesparteitag</w>": 49489,
  "Bundespolizei</w>": 15011,
  "Bundespräsident</w>": 12036,
  "Bundespräsidenten</w>": 24020,
  "Bundesrat</w>": 17769,
  "Bundesregierung</w>": 3283,
  "Bundesrepublik</w>": 11884,
  "Bundesstaat</w>": 21837,
  "Bundesstaaten</w>": 34520,
  "Bundesstraße</w>": 13777,
  "Bundest": 57925,
  "Bundestag": 27382,
  "Bundestag</w>": 4911,
  "Bundestages</w>": 30893,
  "Bundestags": 25607,
  "Bundestags-": 53916,
  "Bundestags</w>": 35931,
  "Bundestagsabgeordnete</w>": 22183,
  "Bundestagsabgeordneten</w>": 34931,
  "Bundestagsfraktion</w>": 38039,
  "Bundestagspräsident</w>": 52304,
  "Bundestagswahl</w>": 9629,
  "Bundestagswahlkampf</w>": 49659,
  "Bundestrain": 46754,
  "Bundestrainer</w>": 9457,
  "Bundesumwelt": 51803,
  "Bundesumweltminister</w>": 54487,
  "Bundesverband</w>": 29605,
  "Bundesverbandes</w>": 52684,
  "Bundesverbands</w>": 54322,
  "Bundesverfassungs": 57819,
  "Bundesverfassungsgericht</w>": 23834,
  "Bundesverfassungsgerichts</w>": 52216,
  "Bundesverkehrs": 51397,
  "Bundesverkehrsminister</w>": 43216,
  "Bundesverteidigungs": 54377,
  "Bundesvorsitzende</w>": 48538,
  "Bundeswehr": 32369,
  "Bundeswehr-": 49628,
  "Bundeswehr</w>": 8092,
  "Bundeswehrsoldaten</w>": 55310,
  "Bundesweit</w>": 40880,
  "Bundeswirtschafts": 53481,
  "Bundeswirtschaftsminister</w>": 42457,
  "Bung": 43347,
  "Bunker</w>": 44583,
  "Bunte</w>": 42716,
  "Bur": 2567,
  "Bureau</w>": 11992,
  "Burg": 7341,
  "Burg</w>": 13327,
  "Burgen": 20832,
  "Burger</w>": 15459,
  "Burgess</w>": 30882,
  "Burgh": 22742,
  "Burk": 18822,
  "Burke</w>": 26395,
  "Burkhard</w>": 31566,
  "Burm": 58749,
  "Burma</w>": 27367,
  "Burmese</w>": 51418,
  "Burn": 28392,
  "Burnett</w>": 46459,
  "Burnham</w>": 46651,
  "Burnley</w>": 35438,
  "Burns</w>": 21246,
  "Burrell</w>": 54776,
  "Burress</w>": 57771,
  "Burris</w>": 57250,
  "Burton</w>": 26420,
  "Bus": 5032,
  "Bus</w>": 6443,
  "Busch": 26070,
  "Busch</w>": 19209,
  "Busfahrer</w>": 33672,
  "Bush": 48464,
  "Bush-": 53456,
  "Bush</w>": 2636,
  "Bushido</w>": 52065,
  "Bushs</w>": 57352,
  "Busin": 57435,
  "Business": 40590,
  "Business-": 52588,
  "Business</w>": 5681,
  "Businesses</w>": 47990,
  "Busse</w>": 14047,
  "Bussen</w>": 30355,
  "Bust": 41749,
  "But": 18923,
  "But</w>": 154,
  "Butler</w>": 19221,
  "Butt</w>": 51297,
  "Butter": 26489,
  "Butter</w>": 28744,
  "Button</w>": 23444,
  "Buy": 57556,
  "Buy</w>": 21973,
  "Buyten</w>": 56848,
  "Buzz</w>": 47631,
  "Buß": 25119,
  "Bußgeld</w>": 32665,
  "By": 21720,
  "By</w>": 1534,
  "Byr": 57122,
  "Byrd</w>": 53405,
  "Byrne</w>": 35180,
  "Byron</w>": 40319,
  "Bä": 16630,
  "Bäcker": 17802,
  "Bäcker</w>": 32853,
  "Bälle</w>": 22830,
  "Bän": 19827,
  "Bär": 16780,
  "Bär</w>": 28656,
  "Bären": 40467,
  "Bären</w>": 33292,
  "Bäume</w>": 7520,
  "Bäumen</w>": 21913,
  "Bö": 4962,
  "Böh": 14645,
  "Böhm</w>": 28276,
  "Böhmer</w>": 53944,
  "Böl": 24268,
  "Bör": 17860,
  "Börse</w>": 7835,
  "Börsen": 10144,
  "Börsen</w>": 19618,
  "Börsenaufsicht</w>": 55695,
  "Börsengang</w>": 26448,
  "Börsenschluss</w>": 55413,
  "Börsi": 58170,
  "Börsianer</w>": 44034,
  "Böse</w>": 34747,
  "Bösen</w>": 50842,
  "Bü": 6308,
  "Büch": 12828,
  "Bücher": 29191,
  "Bücher</w>": 8039,
  "Büchern</w>": 21599,
  "Büh": 22994,
  "Bühne</w>": 2248,
  "Bühnen": 11192,
  "Bühnen</w>": 28330,
  "Bün": 22085,
  "Bünd": 46864,
  "Bündnis": 39184,
  "Bündnis</w>": 10735,
  "Bündnisses</w>": 46133,
  "Bür": 11492,
  "Bürg": 57979,
  "Bürger": 1684,
  "Bürger</w>": 1732,
  "Bürgerinitiative</w>": 19954,
  "Bürgerkrieg</w>": 19887,
  "Bürgermeister": 14110,
  "Bürgermeister</w>": 969,
  "Bürgermeisterin</w>": 11084,
  "Bürgermeisters</w>": 22940,
  "Bürgern</w>": 8444,
  "Bürgerrechtler</w>": 53683,
  "Bürgerschaft</w>": 36893,
  "Bürgerschafts": 55176,
  "Bürgschaft</w>": 56170,
  "Bürgschaften</w>": 56607,
  "Büro": 12532,
  "Büro</w>": 7048,
  "Bürokr": 53711,
  "Bürokratie</w>": 34524,
  "Büros</w>": 18935,
  "C": 348,
  "C-": 3835,
  "C.": 11876,
  "C.</w>": 6652,
  "C</w>": 1478,
  "CA": 9901,
  "CA</w>": 8106,
  "CAA</w>": 56460,
  "CAC-": 59908,
  "CAC-40</w>": 56888,
  "CAC</w>": 40223,
  "CAN": 52584,
  "CAR": 37402,
  "CAR</w>": 55915,
  "CAS": 53949,
  "CAS</w>": 39093,
  "CASH</w>": 58034,
  "CB</w>": 37176,
  "CBI</w>": 50552,
  "CBS</w>": 5470,
  "CC": 25390,
  "CC</w>": 13581,
  "CCC</w>": 54353,
  "CCS</w>": 55694,
  "CCTV</w>": 19314,
  "CD": 18979,
  "CD-": 43671,
  "CD</w>": 12710,
  "CDC</w>": 21885,
  "CDS</w>": 53350,
  "CDU-": 3966,
  "CDU-Chefin</w>": 53676,
  "CDU-Generalsekretär</w>": 51512,
  "CDU-Politiker</w>": 26098,
  "CDU-Vorsitzende</w>": 54326,
  "CDU</w>": 1125,
  "CDs</w>": 28525,
  "CE": 12775,
  "CE</w>": 14844,
  "CEO</w>": 4316,
  "CEOs</w>": 43662,
  "CER": 54812,
  "CES</w>": 42991,
  "CF</w>": 46799,
  "CFO</w>": 53353,
  "CH": 6296,
  "CH</w>": 30182,
  "CHAR": 54945,
  "CHI": 49903,
  "CHICA": 60492,
  "CHICAGO</w>": 36010,
  "CI": 16199,
  "CI</w>": 28052,
  "CIA-": 48645,
  "CIA</w>": 9991,
  "CIN": 55341,
  "CIO</w>": 54652,
  "CIS": 58793,
  "CIS</w>": 53834,
  "CISCO</w>": 60462,
  "CIT</w>": 57150,
  "CITY</w>": 35501,
  "CK": 38148,
  "CK</w>": 49229,
  "CL": 34204,
  "CLE": 58427,
  "CLEVELAND</w>": 57323,
  "CM": 34294,
  "CME</w>": 55625,
  "CN": 19478,
  "CNBC</w>": 46361,
  "CNN": 40840,
  "CNN.com</w>": 52288,
  "CNN</w>": 2679,
  "CO": 9089,
  "CO2-": 25121,
  "CO2-Ausstoß</w>": 44855,
  "CO2</w>": 21402,
  "CO</w>": 21833,
  "COLU": 57105,
  "COM</w>": 42277,
  "COME</w>": 59576,
  "COMP": 57498,
  "CON": 36145,
  "CONDEN": 62926,
  "CONDENSED</w>": 58799,
  "CONSO": 60096,
  "CONSOLI": 60773,
  "CONSOLIDATED</w>": 56964,
  "CONT": 58906,
  "CONTACT</w>": 56871,
  "COR": 50925,
  "CORPOR": 58697,
  "CORRE": 57931,
  "CP": 27920,
  "CP</w>": 51920,
  "CPI</w>": 51769,
  "CPS</w>": 48834,
  "CR": 22497,
  "CR</w>": 27191,
  "CRE": 56084,
  "CRM</w>": 57636,
  "CS": 10715,
  "CS-": 55772,
  "CS</w>": 29900,
  "CSI</w>": 53466,
  "CSU-": 8900,
  "CSU-Chef</w>": 29506,
  "CSU-Landes": 54129,
  "CSU-Politiker</w>": 45460,
  "CSU</w>": 3107,
  "CT": 43241,
  "CT</w>": 30690,
  "CTS</w>": 55711,
  "CV": 23636,
  "CV</w>": 42009,
  "CW</w>": 50780,
  "Ca": 7450,
  "Cab": 16325,
  "Cabinet</w>": 13624,
  "Cable</w>": 24364,
  "Cabrera</w>": 44715,
  "Cabri": 49528,
  "Cabrio</w>": 43432,
  "Cac": 56464,
  "Cacau</w>": 56688,
  "Cad": 34024,
  "Cadbury</w>": 50613,
  "Cadil": 59183,
  "Cadillac</w>": 46719,
  "Caes": 36433,
  "Caf": 29437,
  "Cafe</w>": 36251,
  "Café</w>": 9757,
  "Cafés</w>": 36222,
  "Cage</w>": 46338,
  "Cah": 29827,
  "Cain</w>": 26981,
  "Cair": 29524,
  "Cairo</w>": 15335,
  "Cal": 2910,
  "Cal</w>": 37103,
  "Calder": 52379,
  "Calderon</w>": 46503,
  "Caldwell</w>": 49686,
  "Calg": 60048,
  "Calgary</w>": 32217,
  "Cali": 47355,
  "Calif": 52945,
  "Calif</w>": 10072,
  "Californ": 34880,
  "California</w>": 1843,
  "Californians</w>": 53098,
  "Call": 16893,
  "Call</w>": 15915,
  "Called</w>": 51811,
  "Calling</w>": 50181,
  "Calls</w>": 41204,
  "Calvin</w>": 39297,
  "Cam": 7811,
  "Cambo": 58468,
  "Cambodia</w>": 32135,
  "Cambodian</w>": 53497,
  "Cambridge</w>": 10625,
  "Camden</w>": 48850,
  "Camer": 39411,
  "Cameron</w>": 2492,
  "Cameroon</w>": 46653,
  "Camilla</w>": 40655,
  "Camor": 57454,
  "Camp": 11050,
  "Camp</w>": 11161,
  "Campa": 43599,
  "Campaign</w>": 21220,
  "Campbell</w>": 10383,
  "Camping": 28358,
  "Campus</w>": 19513,
  "Can": 3481,
  "Can</w>": 6899,
  "Canada</w>": 3456,
  "Canadi": 55372,
  "Canadian</w>": 5932,
  "Canadians</w>": 35815,
  "Canadiens</w>": 52555,
  "Canal</w>": 38581,
  "Canc": 37128,
  "Cancer</w>": 14356,
  "Cand": 37095,
  "Candid": 55077,
  "Candidates</w>": 54935,
  "Candy</w>": 44503,
  "Cann": 12098,
  "Cannes</w>": 17175,
  "Cannon</w>": 49269,
  "Canon</w>": 53091,
  "Cant": 32668,
  "Canter": 59302,
  "Canterbury</w>": 29845,
  "Canucks</w>": 49746,
  "Cany": 58064,
  "Canyon</w>": 32586,
  "Cap": 7018,
  "Cap</w>": 39180,
  "Cape</w>": 18632,
  "Capello</w>": 39813,
  "Capit": 50347,
  "Capital</w>": 6112,
  "Capitals</w>": 30101,
  "Capitol</w>": 12752,
  "Caprio</w>": 59150,
  "Capt.</w>": 41205,
  "Captain</w>": 16247,
  "Car": 1396,
  "Car</w>": 17473,
  "Carac": 58558,
  "Caracas</w>": 36158,
  "Carbon</w>": 46919,
  "Card</w>": 30060,
  "Cardi": 47390,
  "Cardiff</w>": 12616,
  "Cardin": 59035,
  "Cardinal</w>": 31548,
  "Cardinals</w>": 23419,
  "Cards</w>": 38183,
  "Care": 26587,
  "Care</w>": 9056,
  "Career</w>": 53368,
  "Carey</w>": 23749,
  "Cargo</w>": 54461,
  "Carib": 59348,
  "Caribbean</w>": 15831,
  "Carl": 29905,
  "Carl-": 43164,
  "Carl</w>": 9827,
  "Carla</w>": 34100,
  "Carling</w>": 56813,
  "Carlisle</w>": 45333,
  "Carlo</w>": 16135,
  "Carlos</w>": 9513,
  "Carls": 55054,
  "Carlton</w>": 23165,
  "Carlyle</w>": 51734,
  "Carmen</w>": 21232,
  "Carneg": 59481,
  "Carnegie</w>": 37622,
  "Carney</w>": 21432,
  "Carnival</w>": 38434,
  "Carol": 17539,
  "Carol</w>": 24637,
  "Carolina</w>": 4598,
  "Caroline</w>": 15448,
  "Carolyn</w>": 46454,
  "Carpenter</w>": 46366,
  "Carr</w>": 30389,
  "Carri": 51113,
  "Carrick</w>": 52484,
  "Carrie</w>": 26833,
  "Carroll</w>": 23139,
  "Cars</w>": 36621,
  "Carson</w>": 19739,
  "Carsten": 59846,
  "Carsten</w>": 12634,
  "Carstensen</w>": 50017,
  "Carter</w>": 9410,
  "Carto": 51463,
  "Cas": 7507,
  "Case</w>": 25182,
  "Casey</w>": 20478,
  "Cash": 37368,
  "Cash</w>": 14914,
  "Casino</w>": 29447,
  "Casp": 53530,
  "Caspian</w>": 57162,
  "Cass": 28875,
  "Cassi": 35413,
  "Cast": 12197,
  "Cast</w>": 50348,
  "Castillo</w>": 52805,
  "Casting": 37845,
  "Casting</w>": 44255,
  "Castle</w>": 19520,
  "Castor-": 56164,
  "Castro</w>": 12227,
  "Cat": 9704,
  "Cat</w>": 31794,
  "Catal": 15119,
  "Categ": 59291,
  "Category</w>": 44860,
  "Cater": 39310,
  "Caterpillar</w>": 54451,
  "Cath": 33570,
  "Cathedral</w>": 33603,
  "Catherine</w>": 14900,
  "Catho": 56233,
  "Catholic</w>": 8901,
  "Catholics</w>": 35471,
  "Cathy</w>": 39523,
  "Cau": 27482,
  "Caucasus</w>": 54281,
  "Caucus</w>": 48290,
  "Caus": 58369,
  "Causa</w>": 34721,
  "Cav": 20310,
  "Caval": 53018,
  "Cavali": 59042,
  "Cavaliers</w>": 31912,
  "Caven": 59889,
  "Cavendish</w>": 46707,
  "Cavs</w>": 53766,
  "Cay": 35253,
  "Cayman</w>": 53613,
  "Ce": 32062,
  "Ceb": 56095,
  "Cebit</w>": 57421,
  "Cec": 23579,
  "Cech</w>": 49089,
  "Ced": 41861,
  "Cedar</w>": 54493,
  "Cel": 11794,
  "Celeb": 31185,
  "Celebr": 55897,
  "Celebrity</w>": 28174,
  "Cell": 36242,
  "Cell</w>": 42549,
  "Cells</w>": 56006,
  "Celsius</w>": 23192,
  "Celtic</w>": 9225,
  "Celtics</w>": 30485,
  "Cem</w>": 42636,
  "Cemetery</w>": 50160,
  "Cen": 52052,
  "Census</w>": 39989,
  "Cent": 15508,
  "Cent</w>": 8811,
  "Center</w>": 2037,
  "Centers</w>": 20738,
  "Centr": 38476,
  "Central</w>": 4307,
  "Centre</w>": 6638,
  "Century</w>": 19090,
  "Cer": 16130,
  "Cerber": 60278,
  "Cerberus</w>": 56605,
  "Certain": 59705,
  "Certain</w>": 49533,
  "Certainly</w>": 28538,
  "Certi": 54584,
  "Certified</w>": 57151,
  "Ces": 30534,
  "Cesar</w>": 49734,
  "Ch": 1196,
  "Ch</w>": 53873,
  "Cha": 6172,
  "Chab": 53100,
  "Chad</w>": 25242,
  "Chair": 55703,
  "Chair</w>": 40030,
  "Chairman</w>": 11118,
  "Chal": 28012,
  "Chall": 51128,
  "Challen": 48216,
  "Challenge</w>": 18726,
  "Cham": 23642,
  "Chamber": 59312,
  "Chamber</w>": 28063,
  "Chamberlain</w>": 40001,
  "Chambers</w>": 29671,
  "Chamenei</w>": 57284,
  "Champ": 22007,
  "Champag": 55302,
  "Champagner</w>": 49134,
  "Champion</w>": 16286,
  "Champions": 46968,
  "Champions-League-": 10161,
  "Champions</w>": 3343,
  "Championship</w>": 8745,
  "Championships</w>": 24120,
  "Chan": 27082,
  "Chan</w>": 24296,
  "Chanc": 41079,
  "Chance</w>": 1934,
  "Chancellor</w>": 11428,
  "Chancen": 33730,
  "Chancen</w>": 2891,
  "Chand": 46881,
  "Chandler</w>": 34521,
  "Chanel</w>": 35801,
  "Chang": 33503,
  "Chang</w>": 40020,
  "Change</w>": 16299,
  "Changes</w>": 46676,
  "Channel</w>": 7906,
  "Chaos</w>": 12054,
  "Chap": 37173,
  "Chapel</w>": 44629,
  "Chapman</w>": 29307,
  "Chapter</w>": 39154,
  "Char": 5198,
  "Charak": 32036,
  "Charakter": 35184,
  "Charakter</w>": 13985,
  "Charge</w>": 53016,
  "Chargers</w>": 39132,
  "Charges</w>": 52416,
  "Charity</w>": 41900,
  "Charité</w>": 41532,
  "Charles</w>": 4433,
  "Charleston</w>": 30685,
  "Charlie</w>": 6709,
  "Charlo": 35090,
  "Charlotte</w>": 9649,
  "Charlotten": 52683,
  "Charlottenburg</w>": 42767,
  "Charlton</w>": 48603,
  "Charme</w>": 23446,
  "Charter</w>": 37120,
  "Chartered</w>": 48597,
  "Charts</w>": 30077,
  "Chase</w>": 16192,
  "Chat": 34130,
  "Chaud": 58991,
  "Chaudhry</w>": 57375,
  "Chavez</w>": 18287,
  "Che": 5682,
  "Che</w>": 54459,
  "Chec": 51445,
  "Chechn": 60384,
  "Chechnya</w>": 53830,
  "Check": 40614,
  "Check</w>": 16809,
  "Chef": 11115,
  "Chef-": 41837,
  "Chef</w>": 1577,
  "Chefar": 33737,
  "Chefcoach</w>": 40136,
  "Chefin</w>": 10357,
  "Chefred": 58162,
  "Chefredak": 49492,
  "Chefredakteur</w>": 22132,
  "Chefs</w>": 14016,
  "Cheftrainer</w>": 22662,
  "Chefvolks": 59648,
  "Chefvolkswirt</w>": 50869,
  "Chel": 32493,
  "Chelsea</w>": 3506,
  "Cheltenham</w>": 44274,
  "Chem": 14579,
  "Chemical</w>": 40570,
  "Chemie": 19579,
  "Chemie</w>": 24702,
  "Chemik": 54411,
  "Chemikalien</w>": 43307,
  "Chemnitz</w>": 26797,
  "Chemo": 48827,
  "Chen</w>": 20032,
  "Cheney</w>": 31498,
  "Cheng": 58845,
  "Chengdu</w>": 54754,
  "Cher": 21264,
  "Cherry</w>": 45505,
  "Chertoff</w>": 58631,
  "Cheryl</w>": 37024,
  "Ches": 38715,
  "Cheshire</w>": 45650,
  "Chester</w>": 41781,
  "Chev": 56989,
  "Chevro": 59262,
  "Chevrolet</w>": 32090,
  "Chevron</w>": 39092,
  "Chevy</w>": 52150,
  "Chi": 11220,
  "Chi</w>": 48820,
  "Chic": 50275,
  "Chicag": 52559,
  "Chicago</w>": 3332,
  "Chicken</w>": 45640,
  "Chief</w>": 4457,
  "Chiefs</w>": 24379,
  "Chil": 11675,
  "Child</w>": 16885,
  "Children</w>": 7772,
  "Chile</w>": 12147,
  "Chim": 52490,
  "Chin": 22354,
  "China-": 29934,
  "China</w>": 508,
  "Chinalco</w>": 58676,
  "Chinas</w>": 13374,
  "Chines": 33662,
  "Chinese-": 50580,
  "Chinese</w>": 1798,
  "Chinesen</w>": 19773,
  "Chip": 35293,
  "Chip</w>": 31743,
  "Chips</w>": 39228,
  "Chir": 28390,
  "Chirac</w>": 54889,
  "Cho": 15683,
  "Cho</w>": 53866,
  "Chocol": 56874,
  "Chocolate</w>": 48677,
  "Chodor": 52787,
  "Choi</w>": 45224,
  "Choice</w>": 28844,
  "Chol": 40754,
  "Choo": 49933,
  "Chop": 38397,
  "Chor": 8914,
  "Chor</w>": 8999,
  "Chore": 22353,
  "Chr": 23388,
  "Chri": 58432,
  "Chris</w>": 2321,
  "Christ": 4412,
  "Christ</w>": 18158,
  "Christa</w>": 22530,
  "Christdemokraten</w>": 34015,
  "Christen</w>": 15492,
  "Christensen</w>": 46633,
  "Christi</w>": 34054,
  "Christian": 49401,
  "Christian</w>": 1200,
  "Christiane</w>": 20781,
  "Christianity</w>": 44353,
  "Christians</w>": 19509,
  "Christie</w>": 10202,
  "Christina</w>": 12747,
  "Christine</w>": 7553,
  "Christmas</w>": 3386,
  "Christo": 52094,
  "Christop": 42354,
  "Christoph</w>": 4438,
  "Christophe</w>": 48389,
  "Christopher</w>": 6363,
  "Christus</w>": 33021,
  "Chro": 38605,
  "Chrome</w>": 43563,
  "Chron": 30871,
  "Chronicle</w>": 44971,
  "Chronik</w>": 38674,
  "Chrys": 56225,
  "Chrysler</w>": 14805,
  "Chu": 35560,
  "Chu</w>": 55021,
  "Chuck</w>": 19611,
  "Chur": 46370,
  "Church</w>": 6890,
  "Churchill</w>": 25335,
  "Chá": 59699,
  "Chávez</w>": 33717,
  "Ci": 19481,
  "Cic": 52838,
  "Cicero</w>": 55123,
  "Cin": 28575,
  "Cinc": 58534,
  "Cincinn": 59364,
  "Cincinnati</w>": 19589,
  "Cindy</w>": 30570,
  "Cine": 54997,
  "Cinem": 44750,
  "Cinema</w>": 44609,
  "Cipri": 58977,
  "Cipriani</w>": 55888,
  "Cir": 32701,
  "Circ": 52811,
  "Circle</w>": 35411,
  "Circuit</w>": 20457,
  "Circus</w>": 36083,
  "Cisco</w>": 44909,
  "Cit": 31915,
  "Citi": 54539,
  "Citi</w>": 33830,
  "Citibank</w>": 57240,
  "Cities</w>": 43625,
  "Citig": 58716,
  "Citigroup</w>": 19310,
  "Citing</w>": 51345,
  "Citizen</w>": 50362,
  "Citizens</w>": 30591,
  "Citro": 47847,
  "Citroë": 59443,
  "Citroën</w>": 50899,
  "City": 32533,
  "City-": 29517,
  "City</w>": 855,
  "Ciud": 58093,
  "Ciudad</w>": 55133,
  "Civi": 53797,
  "Civic</w>": 44164,
  "Civil</w>": 12381,
  "Cl": 7966,
  "Cla": 16967,
  "Claims</w>": 46724,
  "Claire</w>": 21152,
  "Clan": 48723,
  "Clan</w>": 48773,
  "Clans</w>": 54258,
  "Clar": 27753,
  "Clara</w>": 30235,
  "Clare</w>": 37536,
  "Clarence</w>": 43140,
  "Clark": 56930,
  "Clark</w>": 11043,
  "Clarke</w>": 10380,
  "Clarkson</w>": 25698,
  "Class</w>": 18823,
  "Classi": 34544,
  "Classic</w>": 18143,
  "Clau": 28426,
  "Claude</w>": 31901,
  "Claudia</w>": 8105,
  "Claudio</w>": 27876,
  "Claus</w>": 17602,
  "Clay": 56690,
  "Clay</w>": 35344,
  "Clayton</w>": 37017,
  "Cle": 10240,
  "Clean</w>": 33307,
  "Clear": 40484,
  "Clear</w>": 48863,
  "Clearly</w>": 26602,
  "Clegg</w>": 17608,
  "Clemens</w>": 14045,
  "Clement</w>": 37608,
  "Clemson</w>": 52922,
  "Cler": 39383,
  "Clevel": 58777,
  "Cleveland</w>": 9569,
  "Cli": 11883,
  "Click</w>": 22453,
  "Cliff</w>": 40791,
  "Clifford</w>": 45291,
  "Clij": 60542,
  "Clijsters</w>": 55520,
  "Clim": 54111,
  "Climate</w>": 19601,
  "Clin": 46297,
  "Clinic</w>": 37839,
  "Clinical</w>": 36297,
  "Clint</w>": 38658,
  "Clinton-": 56131,
  "Clinton</w>": 1416,
  "Clintons</w>": 36486,
  "Clippers</w>": 19390,
  "Clive</w>": 31001,
  "Clo": 16158,
  "Clooney</w>": 21473,
  "Close</w>": 25373,
  "Clou": 31110,
  "Cloud</w>": 24794,
  "Clu": 27505,
  "Club": 18863,
  "Club-": 40262,
  "Club</w>": 2505,
  "Clubs</w>": 10025,
  "Clyde</w>": 43172,
  "Co": 1475,
  "Co-": 12152,
  "Co-Trainer</w>": 21846,
  "Co.</w>": 7080,
  "Co</w>": 7264,
  "Coach</w>": 2411,
  "Coal</w>": 42778,
  "Coalition</w>": 13501,
  "Coast": 42937,
  "Coast</w>": 4704,
  "Cob": 8081,
  "Coca-": 58700,
  "Coca-Cola</w>": 30020,
  "Coch": 43470,
  "Cock": 18411,
  "Cockpit</w>": 25637,
  "Coco</w>": 47232,
  "Code</w>": 21282,
  "Cody</w>": 44816,
  "Coes": 57814,
  "Coesfeld</w>": 37359,
  "Coff": 48143,
  "Coffee</w>": 38704,
  "Coh": 49289,
  "Cohen</w>": 15425,
  "Coke</w>": 46915,
  "Col": 3696,
  "Col.</w>": 35603,
  "Col</w>": 47944,
  "Cola</w>": 43648,
  "Colbert</w>": 35538,
  "Cold": 57227,
  "Cold</w>": 19974,
  "Coldplay</w>": 51270,
  "Cole</w>": 15998,
  "Coleman</w>": 24297,
  "Colin</w>": 14130,
  "Coll": 17902,
  "Collabor": 55365,
  "Colle": 16041,
  "Collection</w>": 35138,
  "College</w>": 4861,
  "Colling": 59358,
  "Collingwood</w>": 26669,
  "Collins</w>": 11119,
  "Colo</w>": 43454,
  "Colomb": 59372,
  "Colombia</w>": 16133,
  "Colombian</w>": 30388,
  "Colombo</w>": 53113,
  "Colonel</w>": 31709,
  "Color": 55755,
  "Color</w>": 51904,
  "Colorado</w>": 7573,
  "Colts</w>": 33266,
  "Columb": 53828,
  "Columbia</w>": 10828,
  "Columbus</w>": 23902,
  "Com": 3484,
  "Com</w>": 54189,
  "Comb": 57051,
  "Combat</w>": 54141,
  "Combined</w>": 50995,
  "Comcast</w>": 34689,
  "Come</w>": 20660,
  "Comeb": 53124,
  "Comeback</w>": 10414,
  "Comed": 39244,
  "Comedi": 56787,
  "Comedian</w>": 35851,
  "Comedy</w>": 23422,
  "Comic": 45129,
  "Comic-": 42104,
  "Comic</w>": 40338,
  "Comics</w>": 39364,
  "Coming</w>": 30783,
  "Comman": 58046,
  "Command": 53046,
  "Command</w>": 25960,
  "Commander</w>": 37918,
  "Commenting</w>": 55193,
  "Commer": 56899,
  "Commerce</w>": 16388,
  "Commercial</w>": 33863,
  "Commerz": 59449,
  "Commerzbank-": 50906,
  "Commerzbank</w>": 18962,
  "Commission": 56438,
  "Commission</w>": 3568,
  "Commissioner</w>": 13156,
  "Commit": 50416,
  "Committee</w>": 3731,
  "Commod": 39590,
  "Common": 56970,
  "Common</w>": 24162,
  "Commons</w>": 11907,
  "Commonwealth</w>": 13148,
  "Commun": 37214,
  "Communic": 58648,
  "Communication</w>": 49669,
  "Communications</w>": 16047,
  "Communist</w>": 18372,
  "Communities</w>": 43686,
  "Community</w>": 11542,
  "Comp": 13345,
  "Compan": 56739,
  "Companies</w>": 21673,
  "Company</w>": 3196,
  "Compar": 52537,
  "Compared</w>": 47216,
  "Compensation</w>": 56101,
  "Compet": 51034,
  "Competition</w>": 34816,
  "Complain": 58074,
  "Complaints</w>": 51860,
  "Comple": 35436,
  "Complete</w>": 51619,
  "Compliance</w>": 55877,
  "Compos": 56927,
  "Composite</w>": 37979,
  "Comprehensive</w>": 54218,
  "Compu": 56955,
  "Computer": 10518,
  "Computer-": 48060,
  "Computer</w>": 7629,
  "Computern</w>": 43178,
  "Computers</w>": 54784,
  "Computing</w>": 54751,
  "Con": 1585,
  "Con</w>": 33733,
  "Conan</w>": 51074,
  "Conc": 23184,
  "Concern</w>": 54778,
  "Concerns</w>": 49727,
  "Concert</w>": 46746,
  "Concor": 23940,
  "Condensed</w>": 58261,
  "Condol": 59530,
  "Condolee": 60111,
  "Condoleezza</w>": 53973,
  "Conf": 46316,
  "Confeder": 25873,
  "Conference</w>": 8267,
  "Confi": 43858,
  "Congo</w>": 24378,
  "Congolese</w>": 54048,
  "Congress</w>": 2299,
  "Congressional</w>": 18390,
  "Congressman</w>": 50175,
  "Conn": 33849,
  "Conn</w>": 27193,
  "Conne": 57163,
  "Connec": 45379,
  "Connect</w>": 50963,
  "Connectic": 59401,
  "Connecticut</w>": 13781,
  "Connection</w>": 53622,
  "Connell</w>": 58122,
  "Connolly</w>": 45835,
  "Connor</w>": 31664,
  "Conrad</w>": 26484,
  "Conserv": 45440,
  "Conservation</w>": 34010,
  "Conservative</w>": 7695,
  "Conservatives</w>": 13196,
  "Consi": 38404,
  "Consider</w>": 39631,
  "Consoli": 58996,
  "Consolidated</w>": 47044,
  "Constable</w>": 36832,
  "Constant": 33066,
  "Constitu": 58250,
  "Constitution</w>": 19156,
  "Constitutional</w>": 48387,
  "Construction</w>": 30669,
  "Consu": 39757,
  "Consul": 41958,
  "Consulting</w>": 39665,
  "Consum": 59097,
  "Consumer</w>": 14904,
  "Consumers</w>": 31685,
  "Cont": 54727,
  "Contact</w>": 24414,
  "Contacts</w>": 57297,
  "Contador</w>": 40408,
  "Contain": 21979,
  "Container</w>": 18472,
  "Contemporary</w>": 48263,
  "Content</w>": 51114,
  "Contest</w>": 24188,
  "Conti-": 58030,
  "Conti</w>": 53550,
  "Contin": 33273,
  "Continental</w>": 25582,
  "Continu": 55135,
  "Continuing</w>": 55169,
  "Contr": 44731,
  "Contract</w>": 55443,
  "Contro": 52076,
  "Control": 32397,
  "Control</w>": 13643,
  "Conven": 51821,
  "Convention</w>": 18891,
  "Conver": 44945,
  "Conway</w>": 36240,
  "Coo": 17155,
  "Cook</w>": 7777,
  "Cooke</w>": 50572,
  "Cool": 36403,
  "Cool</w>": 38326,
  "Cooper</w>": 9504,
  "Cooperation</w>": 42565,
  "Coopers</w>": 52855,
  "Coordin": 49495,
  "Cop": 9476,
  "Copenhagen</w>": 30340,
  "Copyright</w>": 6453,
  "Cor": 2003,
  "Cord": 32711,
  "Cordes</w>": 50777,
  "Core</w>": 38266,
  "Corey</w>": 28259,
  "Corn": 16988,
  "Corn</w>": 55477,
  "Cornelia</w>": 25116,
  "Cornell</w>": 38965,
  "Corner</w>": 47647,
  "Cornwall</w>": 24496,
  "Corp.</w>": 9870,
  "Corp</w>": 10706,
  "Corpor": 49186,
  "Corporate</w>": 25592,
  "Corporation</w>": 9651,
  "Corps</w>": 19852,
  "Correa</w>": 50523,
  "Correc": 27297,
  "Correspondent</w>": 44140,
  "Corri": 57339,
  "Corriere</w>": 53401,
  "Cort": 28342,
  "Corzine</w>": 56013,
  "Cos": 19751,
  "Cost": 32168,
  "Cost</w>": 34292,
  "Costa</w>": 8618,
  "Costs</w>": 53663,
  "Cot": 48022,
  "Cott": 41589,
  "Cottbus": 37006,
  "Cottbus</w>": 13201,
  "Cou": 12298,
  "Couch</w>": 37963,
  "Coughlin</w>": 55423,
  "Coul": 30670,
  "Could</w>": 19024,
  "Coun": 19442,
  "Counc": 37111,
  "Council</w>": 2591,
  "Councillor</w>": 50888,
  "Counsel</w>": 50276,
  "Countdown</w>": 43332,
  "Counter": 43771,
  "Countries</w>": 42604,
  "Country": 48394,
  "Country</w>": 13276,
  "Countrywide</w>": 54225,
  "County</w>": 2454,
  "Coup": 55044,
  "Coup</w>": 25136,
  "Coupé</w>": 43726,
  "Cour": 11879,
  "Couric</w>": 55681,
  "Course</w>": 47617,
  "Court</w>": 1622,
  "Courtney</w>": 37196,
  "Courts</w>": 51748,
  "Cous": 42500,
  "Cousin</w>": 46320,
  "Covent": 60469,
  "Coventry</w>": 41657,
  "Cover</w>": 28481,
  "Coverage</w>": 54221,
  "Cow": 17904,
  "Cowboys</w>": 16875,
  "Cowell</w>": 39898,
  "Cowen</w>": 55889,
  "Cox</w>": 18003,
  "Cr": 8750,
  "Cra": 20128,
  "Craig": 55299,
  "Craig</w>": 8375,
  "Craigslist</w>": 54441,
  "Cram": 58272,
  "Cramer</w>": 51112,
  "Cran": 27458,
  "Crane</w>": 52298,
  "Crash": 49236,
  "Crash</w>": 23852,
  "Craw": 54041,
  "Crawford</w>": 23494,
  "Crazy</w>": 42158,
  "Cre": 6243,
  "Creative</w>": 40371,
  "Credit": 41922,
  "Credit</w>": 7563,
  "Creek</w>": 20376,
  "Crescent</w>": 51089,
  "Crew</w>": 21725,
  "Crews</w>": 48739,
  "Cri": 10168,
  "Cricket</w>": 22041,
  "Crime</w>": 17878,
  "Crimin": 57450,
  "Criminal</w>": 24629,
  "Cris": 41300,
  "Crisis</w>": 32955,
  "Crist": 37199,
  "Crist</w>": 56265,
  "Cristiano</w>": 19369,
  "Cristina</w>": 39808,
  "Crit": 32392,
  "Critics</w>": 19050,
  "Cro": 7716,
  "Croati": 59421,
  "Croatia</w>": 26963,
  "Croatian</w>": 52132,
  "Crocker</w>": 55778,
  "Croft</w>": 53181,
  "Cron": 21848,
  "Cros": 21079,
  "Crosby</w>": 31573,
  "Cross": 31699,
  "Cross</w>": 10755,
  "Crou": 58541,
  "Crouch</w>": 51151,
  "Crow": 20932,
  "Crow</w>": 48761,
  "Crowe</w>": 47199,
  "Crowley</w>": 47040,
  "Crown</w>": 9577,
  "Cru": 16127,
  "Crude</w>": 49434,
  "Cruise</w>": 21033,
  "Cruises</w>": 48053,
  "Crus": 42117,
  "Cruz</w>": 8814,
  "Crystal</w>": 16898,
  "Cs</w>": 43751,
  "Cu": 8192,
  "Cub": 44959,
  "Cuba</w>": 10251,
  "Cuban</w>": 18069,
  "Cubans</w>": 51405,
  "Cubs</w>": 26040,
  "Cul": 18570,
  "Cultural</w>": 42443,
  "Culture</w>": 25766,
  "Cum": 18281,
  "Cumbria</w>": 48291,
  "Cun": 41103,
  "Cunn": 59026,
  "Cunningham</w>": 39729,
  "Cuomo</w>": 28229,
  "Cup": 26649,
  "Cup-": 20990,
  "Cup</w>": 1305,
  "Cups</w>": 25711,
  "Cur": 7909,
  "Cure</w>": 55434,
  "Curr": 57182,
  "Curren": 54361,
  "Current</w>": 21626,
  "Currently</w>": 25269,
  "Curry</w>": 27196,
  "Curtis</w>": 23535,
  "Cust": 51969,
  "Customer</w>": 52651,
  "Customers</w>": 35734,
  "Customs</w>": 30758,
  "Cut": 37010,
  "Cut</w>": 30909,
  "Cutler</w>": 53235,
  "Cy": 8655,
  "Cy</w>": 54777,
  "Cyber": 19430,
  "Cyn": 49623,
  "Cynthia</w>": 38339,
  "Cyp": 59709,
  "Cypri": 47779,
  "Cyprus</w>": 25395,
  "Cyrus</w>": 23759,
  "Cz": 35080,
  "Cze": 51331,
  "Czech</w>": 18285,
  "Cé": 37507,
  "D": 315,
  "D-": 3759,
  "D-Calif</w>": 53488,
  "D-Mark</w>": 52092,
  "D-Mass</w>": 56808,
  "D-N.Y.</w>": 55487,
  "D.": 18524,
  "D.</w>": 8798,
  "D.C.</w>": 9590,
  "D.de</w>": 59140,
  "D</w>": 1073,
  "DA": 10846,
  "DA</w>": 18892,
  "DAD</w>": 59625,
  "DALLAS</w>": 55449,
  "DAT": 49512,
  "DATED</w>": 59536,
  "DAX</w>": 21171,
  "DAY</w>": 42139,
  "DB</w>": 24419,
  "DC": 42735,
  "DC</w>": 12235,
  "DD": 33101,
  "DDR-": 15018,
  "DDR</w>": 10387,
  "DE": 6842,
  "DE</w>": 18523,
  "DEA</w>": 52462,
  "DEL": 27730,
  "DEL</w>": 33755,
  "DEN": 54371,
  "DENVER</w>": 55584,
  "DER</w>": 22106,
  "DETRO": 60593,
  "DETROIT</w>": 51867,
  "DF": 22136,
  "DF</w>": 29679,
  "DFB": 44690,
  "DFB-": 9797,
  "DFB-Auswahl</w>": 54620,
  "DFB-Elf</w>": 48787,
  "DFB-Pokal</w>": 25709,
  "DFB-Präsident</w>": 48550,
  "DFB</w>": 12403,
  "DFL</w>": 35837,
  "DG": 41165,
  "DGB-": 43179,
  "DGB</w>": 38543,
  "DH": 14911,
  "DHL</w>": 51634,
  "DI": 13622,
  "DI</w>": 28401,
  "DIE": 56705,
  "DIE</w>": 34563,
  "DIEGO</w>": 55867,
  "DIHK</w>": 55627,
  "DIW</w>": 53710,
  "DJ": 18071,
  "DJ</w>": 13066,
  "DJK</w>": 13794,
  "DK": 19339,
  "DL": 17765,
  "DM": 37096,
  "DM</w>": 35440,
  "DN": 27667,
  "DNA-": 30416,
  "DNA</w>": 8200,
  "DNC</w>": 48446,
  "DO": 14669,
  "DO</w>": 42051,
  "DON</w>": 56708,
  "DOSB</w>": 48360,
  "DP": 53461,
  "DP</w>": 27198,
  "DPA</w>": 37965,
  "DR": 7813,
  "DR-": 36620,
  "DR</w>": 41570,
  "DS": 9867,
  "DS-": 53647,
  "DS</w>": 17465,
  "DSDS</w>": 51584,
  "DSV</w>": 53742,
  "DT": 41518,
  "DU": 19274,
  "DV": 23746,
  "DVD-": 55446,
  "DVD</w>": 19560,
  "DVDs</w>": 39237,
  "DW": 20497,
  "DZ</w>": 50739,
  "Da": 4715,
  "Da</w>": 637,
  "Dab": 39120,
  "Dabei</w>": 878,
  "Dach": 6063,
  "Dach</w>": 6376,
  "Dachau</w>": 25780,
  "Dad": 48574,
  "Dad</w>": 24753,
  "Daddy</w>": 41599,
  "Dadurch</w>": 9141,
  "Dafür</w>": 2804,
  "Dag": 29686,
  "Dagegen</w>": 11980,
  "Dagmar</w>": 28865,
  "Dah": 17056,
  "Daher</w>": 6609,
  "Dahinter</w>": 28775,
  "Dai": 48489,
  "Daily</w>": 4132,
  "Daim": 58101,
  "Daimler": 50802,
  "Daimler-": 47074,
  "Daimler</w>": 13331,
  "Dak": 40153,
  "Dakota</w>": 18477,
  "Dal": 11822,
  "Dalai</w>": 26071,
  "Dale</w>": 25589,
  "Daley</w>": 34334,
  "Dall": 36731,
  "Dallas</w>": 7213,
  "Daly</w>": 36363,
  "Dam": 8286,
  "Damals</w>": 6027,
  "Damas": 57801,
  "Damascus</w>": 18494,
  "Damaskus</w>": 19053,
  "Dame</w>": 8882,
  "Damen": 25428,
  "Damen</w>": 6422,
  "Damian</w>": 34145,
  "Damien</w>": 33978,
  "Damit</w>": 1175,
  "Damm</w>": 32071,
  "Damon</w>": 30299,
  "Dampf": 39797,
  "Dampf</w>": 48300,
  "Dan": 5566,
  "Dan</w>": 7610,
  "Dana</w>": 29130,
  "Danach</w>": 3872,
  "Dance</w>": 16256,
  "Dancing</w>": 21989,
  "Daneben</w>": 19305,
  "Danger": 41221,
  "Daniel": 56059,
  "Daniel</w>": 1902,
  "Daniela</w>": 16448,
  "Danielle</w>": 41104,
  "Daniels</w>": 29265,
  "Danish</w>": 24022,
  "Dank": 18118,
  "Dank</w>": 5018,
  "Danke</w>": 27018,
  "Dann": 42373,
  "Dann</w>": 1257,
  "Danny</w>": 10614,
  "Dante</w>": 35855,
  "Danz": 46025,
  "Dar": 2598,
  "Daran</w>": 16233,
  "Darauf</w>": 10955,
  "Daraufhin</w>": 15603,
  "Daraus</w>": 24016,
  "Darf</w>": 41074,
  "Darfur</w>": 31914,
  "Darin</w>": 9966,
  "Dark": 36655,
  "Dark</w>": 20101,
  "Darlehen</w>": 29698,
  "Darling</w>": 25999,
  "Darm": 23046,
  "Darmstadt</w>": 9666,
  "Darmstädter</w>": 32297,
  "Darren</w>": 17549,
  "Darsteller</w>": 21484,
  "Darstellung</w>": 13141,
  "Darum</w>": 18094,
  "Darunter</w>": 14906,
  "Darwin</w>": 30120,
  "Darüber</w>": 6503,
  "Das": 27295,
  "Das</w>": 88,
  "Dasch": 58461,
  "Daschle</w>": 58470,
  "Dasein</w>": 48714,
  "Dass</w>": 1050,
  "Dat": 12589,
  "Data</w>": 15907,
  "Date</w>": 29038,
  "Datei</w>": 48051,
  "Dateien</w>": 44621,
  "Daten": 8167,
  "Daten</w>": 3013,
  "Datenbank</w>": 39338,
  "Datens": 44895,
  "Datenschutz": 24070,
  "Datenschutz</w>": 29291,
  "Datenschützer</w>": 53650,
  "Datum</w>": 24200,
  "Dau": 8540,
  "Dauer": 9000,
  "Dauer</w>": 10447,
  "Daum</w>": 44336,
  "Daumen</w>": 25657,
  "Dav": 11024,
  "Dave</w>": 9759,
  "Daven": 59973,
  "Davenport</w>": 55430,
  "Davi": 33048,
  "David</w>": 737,
  "Davidson</w>": 23962,
  "Davies</w>": 13537,
  "Davis</w>": 5422,
  "Davon</w>": 9647,
  "Davor</w>": 33914,
  "Davos</w>": 32714,
  "Davydenko</w>": 57305,
  "Daw": 37441,
  "Dawn</w>": 25055,
  "Dawson</w>": 32523,
  "Dax-": 23995,
  "Dax</w>": 9561,
  "Day": 29778,
  "Day</w>": 2455,
  "Days</w>": 22000,
  "Dayton</w>": 51716,
  "Daytona</w>": 51794,
  "Dazu</w>": 2056,
  "De": 929,
  "De</w>": 5471,
  "Dead": 28145,
  "Dead</w>": 18418,
  "Deal</w>": 10788,
  "Dealer</w>": 47640,
  "Deals</w>": 35601,
  "Dean</w>": 13264,
  "Dear</w>": 36316,
  "Death</w>": 15776,
  "Deb": 10932,
  "Debakel</w>": 28958,
  "Debate</w>": 48807,
  "Debatte</w>": 4411,
  "Debatten</w>": 21898,
  "Debbie</w>": 32483,
  "Deborah</w>": 33070,
  "Debt</w>": 46001,
  "Debü": 39243,
  "Debüt</w>": 15216,
  "Dec": 6147,
  "Dec.</w>": 9710,
  "Dec</w>": 36634,
  "December</w>": 1819,
  "Decision</w>": 55046,
  "Deck</w>": 49615,
  "Decke</w>": 20913,
  "Decken</w>": 38082,
  "Deckung</w>": 26504,
  "Deco</w>": 56515,
  "Dee</w>": 44574,
  "Deeds</w>": 57614,
  "Deep": 36732,
  "Deep</w>": 28583,
  "Def": 19809,
  "Defe": 44832,
  "Defekt</w>": 34123,
  "Defence</w>": 13181,
  "Defending</w>": 51688,
  "Defense</w>": 7000,
  "Defensi": 54071,
  "Defensiv": 27719,
  "Defensive</w>": 12546,
  "Deferred</w>": 51549,
  "Defin": 39875,
  "Definition</w>": 39830,
  "Defiz": 52589,
  "Defizit": 53387,
  "Defizit</w>": 22799,
  "Defizite</w>": 30088,
  "Defoe</w>": 53287,
  "Deg": 23553,
  "Deh": 27023,
  "Dei": 21147,
  "Dein</w>": 47277,
  "Dek": 33788,
  "Del": 4804,
  "Del</w>": 18305,
  "Delaware</w>": 29481,
  "Deleg": 27298,
  "Delegation</w>": 22037,
  "Delegierte</w>": 48440,
  "Delegierten</w>": 22999,
  "Delgado</w>": 55864,
  "Delhi</w>": 14773,
  "Deli": 38077,
  "Delik": 27987,
  "Delivery</w>": 53551,
  "Dell</w>": 26445,
  "Delo": 58957,
  "Deloitte</w>": 41213,
  "Delph": 56154,
  "Delta</w>": 17720,
  "Dem": 3394,
  "Dem</w>": 2589,
  "Demand</w>": 35113,
  "Dementi": 57046,
  "Dementieva</w>": 58555,
  "Demi</w>": 44433,
  "Demich": 60473,
  "Demichelis</w>": 57500,
  "Demjan": 60522,
  "Demjanju": 59466,
  "Demjanjuk</w>": 54295,
  "Demnach</w>": 7802,
  "Demo</w>": 24646,
  "Democ": 57675,
  "Democr": 50702,
  "Democracy</w>": 31262,
  "Democrat</w>": 7551,
  "Democratic</w>": 2790,
  "Democrats</w>": 2714,
  "Demok": 59985,
  "Demokrat": 46169,
  "Demokrat</w>": 55566,
  "Demokraten</w>": 16595,
  "Demokrati": 47227,
  "Demokratie": 51094,
  "Demokratie</w>": 6742,
  "Demokratische</w>": 51561,
  "Demokratischen</w>": 44586,
  "Demon": 39387,
  "Demonstr": 43853,
  "Demonstranten</w>": 6527,
  "Demonstration</w>": 12975,
  "Demonstrationen</w>": 16556,
  "Demonstrations": 45973,
  "Demp": 57768,
  "Dempsey</w>": 36970,
  "Dems</w>": 27754,
  "Demü": 52713,
  "Den": 7491,
  "Den</w>": 909,
  "Deng</w>": 49626,
  "Denis</w>": 17779,
  "Denise</w>": 29586,
  "Denk": 12288,
  "Denkbar</w>": 46084,
  "Denken</w>": 21864,
  "Denkmal": 14673,
  "Denkmal</w>": 21752,
  "Denmark</w>": 19561,
  "Denn": 34934,
  "Denn</w>": 723,
  "Dennis</w>": 7162,
  "Dennoch</w>": 3906,
  "Denver</w>": 11573,
  "Depar": 46578,
  "Department</w>": 1581,
  "Depos": 58293,
  "Deposit</w>": 56016,
  "Deposits</w>": 58263,
  "Depot</w>": 30693,
  "Depp</w>": 30253,
  "Depreciation</w>": 54993,
  "Depres": 57054,
  "Depression</w>": 21406,
  "Depressionen</w>": 33731,
  "Deputy</w>": 13726,
  "Der": 7284,
  "Der</w>": 75,
  "Derby": 45188,
  "Derby</w>": 6870,
  "Derbyshire</w>": 46876,
  "Derek</w>": 19366,
  "Deren</w>": 17057,
  "Deri": 59145,
  "Deripas": 60282,
  "Deripaska</w>": 57451,
  "Deriv": 46555,
  "Dermo": 39653,
  "Derrick</w>": 46379,
  "Derweil</w>": 26151,
  "Derzeit</w>": 5304,
  "Des": 6116,
  "Des</w>": 16409,
  "Desaster</w>": 29549,
  "Descri": 44276,
  "Deser": 51779,
  "Desert</w>": 37471,
  "Deshalb</w>": 2507,
  "Desig": 44646,
  "Design": 19570,
  "Design</w>": 10680,
  "Designer": 52769,
  "Designer</w>": 20394,
  "Desmond</w>": 48427,
  "Desper": 58076,
  "Desperate</w>": 53496,
  "Despite</w>": 3747,
  "Dess": 31974,
  "Dessen</w>": 18365,
  "Dest": 21095,
  "Deswegen</w>": 12599,
  "Det": 12680,
  "Det</w>": 40236,
  "Detail": 38913,
  "Detail</w>": 15941,
  "Details</w>": 5554,
  "Dete": 33517,
  "Detec": 59305,
  "Detective</w>": 25166,
  "Detectives</w>": 38805,
  "Detle": 50305,
  "Detlef</w>": 25391,
  "Detro": 56479,
  "Detroit</w>": 7016,
  "Deut": 24866,
  "Deutlich</w>": 28004,
  "Deutsch": 13293,
  "Deutsch-": 31854,
  "Deutsch</w>": 8306,
  "Deutsche-": 57093,
  "Deutsche-Bank-": 56838,
  "Deutsche-Bank-Chef</w>": 57344,
  "Deutsche</w>": 1566,
  "Deutschen</w>": 1064,
  "Deutscher</w>": 9861,
  "Deutsches</w>": 45750,
  "Deutschland": 16270,
  "Deutschland-": 31889,
  "Deutschland</w>": 330,
  "Deutschlandfunk</w>": 48567,
  "Deutschlands</w>": 4182,
  "Dev": 26915,
  "Develop": 30375,
  "Development</w>": 10067,
  "Devices</w>": 50960,
  "Devil</w>": 48953,
  "Devils</w>": 26139,
  "Devis": 51176,
  "Devise</w>": 33141,
  "Devisen": 34853,
  "Devon</w>": 27240,
  "Dex": 41209,
  "Dez": 26725,
  "Dezember</w>": 1605,
  "Dha": 42100,
  "Dhab": 59161,
  "Dhabi</w>": 18641,
  "Di": 1489,
  "Di</w>": 14821,
  "DiCaprio</w>": 34804,
  "Diabetes</w>": 23991,
  "Diagno": 28349,
  "Diagnose</w>": 20196,
  "Diak": 14764,
  "Dialog</w>": 11612,
  "Diam": 23128,
  "Diamond": 59457,
  "Diamond</w>": 20855,
  "Diamondbacks</w>": 53192,
  "Diana</w>": 12432,
  "Diane</w>": 23533,
  "Diaz</w>": 30301,
  "Dich": 30341,
  "Dich</w>": 36025,
  "Dichter</w>": 29887,
  "Dick": 14065,
  "Dick</w>": 15972,
  "Dickens</w>": 46536,
  "Did</w>": 14421,
  "Didier</w>": 34007,
  "Die": 2833,
  "Die</w>": 48,
  "DiePresse": 60213,
  "DiePresse.com</w>": 9365,
  "Diebe</w>": 20745,
  "Diebst": 21750,
  "Diebstahl</w>": 19531,
  "Diego</w>": 6911,
  "Dien": 24417,
  "Dienst": 7822,
  "Dienst</w>": 5564,
  "Dienstag": 20717,
  "Dienstag</w>": 908,
  "Dienstagabend</w>": 8744,
  "Dienstagmorgen</w>": 25714,
  "Dienstagnachmittag</w>": 28463,
  "Dienste</w>": 13891,
  "Diensten</w>": 33649,
  "Dienstes</w>": 40299,
  "Dienstleister</w>": 31132,
  "Dienstleistungen</w>": 22064,
  "Dienstleistungs": 27533,
  "Dienstwagen</w>": 50499,
  "Dies": 23682,
  "Dies</w>": 1792,
  "Diese</w>": 805,
  "Diesel": 14135,
  "Diesel</w>": 14296,
  "Diesem</w>": 41033,
  "Diesen</w>": 11583,
  "Dieser</w>": 2447,
  "Dieses</w>": 3489,
  "Diesmal</w>": 13549,
  "Dieter</w>": 4118,
  "Dietmar</w>": 14042,
  "Dietrich</w>": 16752,
  "Diff": 47541,
  "Differ": 29152,
  "Differenz</w>": 35949,
  "Differenzen</w>": 30808,
  "Dig": 29417,
  "Digit": 13989,
  "Digital": 24212,
  "Digital</w>": 18184,
  "Dign": 55146,
  "Dikt": 39616,
  "Diktator</w>": 30985,
  "Diktators</w>": 54659,
  "Diktatur</w>": 28278,
  "Dil": 20215,
  "Dilem": 59308,
  "Dilemma</w>": 32004,
  "Diluted</w>": 49040,
  "Dim": 19477,
  "Dimen": 58942,
  "Dimension</w>": 24608,
  "Dimensionen</w>": 40210,
  "Dimit": 29211,
  "Dimitri</w>": 49221,
  "Din": 18537,
  "Ding": 30650,
  "Ding</w>": 19398,
  "Dinge</w>": 3647,
  "Dingen</w>": 18401,
  "Dinner</w>": 27420,
  "Dinosau": 41614,
  "Dion</w>": 49042,
  "Dior</w>": 44721,
  "Diox": 56914,
  "Dioxin": 58338,
  "Diplom": 14379,
  "Diplomat</w>": 41010,
  "Diplomaten</w>": 22558,
  "Diplomatie</w>": 47921,
  "Dir": 18948,
  "Dir</w>": 37834,
  "Dire": 23777,
  "Direc": 17005,
  "Direct</w>": 26606,
  "Director</w>": 7732,
  "Directors</w>": 34459,
  "Direkt": 17052,
  "Direkt</w>": 29531,
  "Direktor": 52265,
  "Direktor</w>": 8835,
  "Direktorin</w>": 33725,
  "Diri": 23971,
  "Dirig": 56236,
  "Dirigent</w>": 21225,
  "Dirk</w>": 6495,
  "Dirty</w>": 44626,
  "Dis": 3756,
  "Disaster</w>": 51974,
  "Disc": 40390,
  "Disco</w>": 36444,
  "Discoun": 53831,
  "Discounter</w>": 35416,
  "Discovery</w>": 25843,
  "Disease</w>": 22165,
  "Diseases</w>": 55162,
  "Disk": 26973,
  "Disko": 41102,
  "Diskre": 49961,
  "Diskrimin": 56300,
  "Diskriminierung</w>": 27643,
  "Diskussi": 54546,
  "Diskussion</w>": 4428,
  "Diskussionen</w>": 11584,
  "Diskussions": 27139,
  "Disne": 46450,
  "Disney</w>": 9114,
  "Disneyland</w>": 44696,
  "Disp": 35954,
  "Display</w>": 23772,
  "Dissertation</w>": 54302,
  "Dissidenten</w>": 56240,
  "Dist": 19961,
  "Distanz": 37047,
  "Distanz</w>": 11385,
  "Distri": 41339,
  "Distribu": 58190,
  "Distribution</w>": 53005,
  "District</w>": 5242,
  "Diszipl": 37458,
  "Disziplin</w>": 19319,
  "Disziplinen</w>": 27775,
  "Dit": 26319,
  "Diva</w>": 45298,
  "Divi": 55002,
  "Dividen": 59089,
  "Dividend</w>": 56982,
  "Dividende</w>": 28314,
  "Dividenden": 48748,
  "Dividenden</w>": 54412,
  "Dividends</w>": 58112,
  "Divis": 53731,
  "Division</w>": 11519,
  "Dix": 43718,
  "Dixon</w>": 31470,
  "Diy": 54174,
  "Diyala</w>": 57354,
  "Diä": 45828,
  "Diät</w>": 49777,
  "Dj": 22265,
  "Djok": 58115,
  "Djokovic</w>": 10603,
  "Dmit": 55620,
  "Dmitri</w>": 38853,
  "Dmitry</w>": 37955,
  "Do": 2805,
  "Do</w>": 5807,
  "Dob": 19131,
  "Dobrin": 57955,
  "Dobrindt</w>": 21983,
  "Doc": 42761,
  "Doc</w>": 41818,
  "Doch</w>": 397,
  "Doctor</w>": 23064,
  "Doctors</w>": 19427,
  "Docum": 37330,
  "Dod": 29995,
  "Dodd</w>": 46780,
  "Dodge</w>": 47128,
  "Dodgers</w>": 13234,
  "Does</w>": 16574,
  "Dog": 22117,
  "Dog</w>": 23928,
  "Dogs</w>": 29202,
  "Doh": 46041,
  "Doha</w>": 25023,
  "Doherty</w>": 43861,
  "Dok": 23724,
  "Doktor": 41019,
  "Doktor</w>": 44511,
  "Doktorarbeit</w>": 48329,
  "Doktort": 58948,
  "Doktortitel</w>": 54943,
  "Dokum": 56535,
  "Dokument": 42718,
  "Dokument</w>": 6756,
  "Dokumentar": 48242,
  "Dokumentarfilm</w>": 44407,
  "Dokumentation</w>": 22619,
  "Dokumente</w>": 16321,
  "Dokumenten</w>": 11457,
  "Dol": 10563,
  "Dole</w>": 55845,
  "Doll": 39882,
  "Doll</w>": 48858,
  "Dollar": 56627,
  "Dollar-": 39500,
  "Dollar</w>": 1514,
  "Dollars</w>": 53187,
  "Dolly</w>": 51135,
  "Dolphins</w>": 37935,
  "Dom": 5948,
  "Dom</w>": 19247,
  "Dome</w>": 42101,
  "Domen": 40978,
  "Domestic</w>": 46033,
  "Domin": 15624,
  "Dominanz</w>": 36121,
  "Domingo</w>": 52505,
  "Dominic</w>": 19687,
  "Dominican</w>": 40145,
  "Dominik</w>": 11486,
  "Dominique</w>": 28984,
  "Don": 4559,
  "Don</w>": 4012,
  "Donal": 33180,
  "Donald</w>": 2347,
  "Donau": 9941,
  "Donau</w>": 24607,
  "Donn": 29555,
  "Donna</w>": 30507,
  "Donnell</w>": 58643,
  "Donner": 51033,
  "Donnerst": 57218,
  "Donnerstag": 15029,
  "Donnerstag</w>": 877,
  "Donnerstagabend</w>": 9196,
  "Donnerstagmorgen</w>": 28075,
  "Donovan</w>": 34442,
  "Dop": 27684,
  "Doping": 18860,
  "Doping-": 39641,
  "Doping</w>": 22897,
  "Dopp": 29262,
  "Doppel": 4334,
  "Doppel-": 31083,
  "Doppel</w>": 17979,
  "Doppelpack</w>": 31487,
  "Dor": 3909,
  "Dorf": 6026,
  "Dorf</w>": 6906,
  "Doris</w>": 17172,
  "Dorn": 13267,
  "Dorn</w>": 33975,
  "Doro": 58657,
  "Dorothe": 25273,
  "Dorothy</w>": 47217,
  "Dorset</w>": 43077,
  "Dort": 44691,
  "Dort</w>": 1556,
  "Dortmun": 57799,
  "Dortmund</w>": 2980,
  "Dortmunder</w>": 13335,
  "Dortmunds</w>": 42212,
  "Dos": 54860,
  "Dosen</w>": 48207,
  "Dosis</w>": 53394,
  "Dossier</w>": 55462,
  "Dou": 12453,
  "Double": 54693,
  "Double</w>": 25386,
  "Doug</w>": 21775,
  "Douglas</w>": 11723,
  "Dover</w>": 46602,
  "Dow": 25866,
  "Dow-Jon": 59945,
  "Dow-Jones-Index</w>": 55993,
  "Dow</w>": 9993,
  "Dowell</w>": 46926,
  "Down": 13612,
  "Down</w>": 13515,
  "Downey</w>": 46844,
  "Downing</w>": 18086,
  "Download</w>": 34513,
  "Downs</w>": 47494,
  "Doyle</w>": 32013,
  "Doz": 30147,
  "Dozens</w>": 30061,
  "Dr": 6114,
  "Dr.</w>": 1378,
  "Dr</w>": 3116,
  "Dra": 5779,
  "Drag": 31991,
  "Draghi</w>": 21113,
  "Dragon</w>": 33515,
  "Dragons</w>": 26046,
  "Drah": 53451,
  "Drahtzie": 59168,
  "Drahtzieher</w>": 52284,
  "Drake</w>": 34477,
  "Dram": 16850,
  "Drama</w>": 13136,
  "Drau": 58018,
  "Draußen</w>": 46121,
  "Dre": 3766,
  "Dream": 38233,
  "Dream</w>": 23903,
  "DreamWorks</w>": 55622,
  "Dreamliner</w>": 48695,
  "Dreams</w>": 49428,
  "Dreck</w>": 39027,
  "Dreh": 11073,
  "Dreharbeiten</w>": 26919,
  "Drehbuch": 42886,
  "Drehbuch</w>": 29653,
  "Drehmoment</w>": 47550,
  "Drei": 6295,
  "Drei-": 25435,
  "Drei</w>": 3262,
  "Dreier": 28086,
  "Dreier</w>": 20639,
  "Dres": 12315,
  "Dresden</w>": 6780,
  "Dresdner</w>": 18100,
  "Drew</w>": 21795,
  "Dri": 17149,
  "Dring": 42180,
  "Drink</w>": 47261,
  "Dris": 58944,
  "Driscoll</w>": 50084,
  "Drit": 22543,
  "Dritt": 11352,
  "Dritte</w>": 14409,
  "Drittel</w>": 4920,
  "Dritten</w>": 20675,
  "Dritter</w>": 14627,
  "Drive</w>": 18752,
  "Driver</w>": 36743,
  "Drivers</w>": 45638,
  "Driving</w>": 48111,
  "Dro": 9768,
  "Drogba</w>": 41709,
  "Droge</w>": 45800,
  "Drogen": 6502,
  "Drogen</w>": 11738,
  "Droger": 29553,
  "Droh": 12999,
  "Drohung</w>": 29634,
  "Drohungen</w>": 29316,
  "Dru": 14224,
  "Druck": 3137,
  "Druck</w>": 2271,
  "Druckversion</w>": 10710,
  "Drug</w>": 16834,
  "Drugs</w>": 44039,
  "Drum": 37932,
  "Drän": 49316,
  "Ds</w>": 26390,
  "Dsch": 28635,
  "Dschasi": 59595,
  "Dschasira</w>": 55506,
  "Dschi": 59761,
  "Dschiha": 22051,
  "Dschihad</w>": 53042,
  "Dschungel": 19609,
  "Dschungel</w>": 36595,
  "Du": 1795,
  "Du</w>": 6046,
  "Dub": 17509,
  "Dubai</w>": 9646,
  "Dublin</w>": 16318,
  "Ducks</w>": 30555,
  "Dud": 37970,
  "Dudley</w>": 48590,
  "Due</w>": 34188,
  "Duell</w>": 5194,
  "Duffy</w>": 42224,
  "Duft</w>": 43101,
  "Dugard</w>": 56835,
  "Duis": 47946,
  "Duisburg</w>": 14311,
  "Duisburger</w>": 43870,
  "Duke</w>": 11160,
  "Dul": 25609,
  "Dum": 13682,
  "Dumm": 48785,
  "Dun": 7273,
  "Duncan</w>": 14768,
  "Dundee</w>": 21411,
  "Dung": 54838,
  "Dunk": 24894,
  "Dunkel": 39967,
  "Dunkelheit</w>": 26320,
  "Dunkeln</w>": 39479,
  "Dunn</w>": 34450,
  "Dunne</w>": 55052,
  "Duo</w>": 9428,
  "Dup": 42961,
  "Dur": 8211,
  "Durban</w>": 51011,
  "Durbin</w>": 54298,
  "Durch": 4059,
  "Durch</w>": 2533,
  "Durchbruch</w>": 18381,
  "Durchgang</w>": 10867,
  "Durchmesser</w>": 38300,
  "Durchschnit": 49912,
  "Durchschnitt": 51109,
  "Durchschnitt</w>": 12780,
  "Durchschnitts": 19784,
  "Durchsetzung</w>": 50877,
  "Durchsuchung</w>": 35250,
  "Durchsuchungen</w>": 49026,
  "Durham</w>": 29280,
  "During</w>": 3994,
  "Dus": 44093,
  "Dusche</w>": 40598,
  "Dust": 56604,
  "Dustin</w>": 27380,
  "Dut": 17877,
  "Dutch</w>": 10031,
  "Dutt</w>": 34372,
  "Dutz": 47666,
  "Dutzend</w>": 11539,
  "Dutzende</w>": 17826,
  "Dw": 25626,
  "Dwight</w>": 42589,
  "Dy": 13321,
  "Dylan</w>": 16320,
  "Dyn": 39638,
  "Dynam": 36666,
  "Dynamics</w>": 50071,
  "Dynamik</w>": 24943,
  "Dynamo</w>": 24002,
  "Dze": 59353,
  "Dzeko</w>": 51353,
  "Dä": 32025,
  "Dämpfer</w>": 38640,
  "Dän": 47201,
  "Däne": 56803,
  "Dänemark</w>": 14087,
  "Dänen</w>": 45452,
  "Dé": 32838,
  "Dön": 36119,
  "Dör": 12485,
  "Dörfer</w>": 28577,
  "Dörfern</w>": 37025,
  "Dü": 18854,
  "Dül": 35209,
  "Dün": 19283,
  "Dür": 9025,
  "Düssel": 35466,
  "Düsseldorf</w>": 4125,
  "Düsseldorfer</w>": 13440,
  "E": 281,
  "E-": 5000,
  "E-B": 25826,
  "E-Ma": 56897,
  "E-Mail-": 30462,
  "E-Mail</w>": 8970,
  "E-Mails</w>": 23099,
  "E-mail</w>": 55892,
  "E.": 14439,
  "E.</w>": 9537,
  "E.ON</w>": 55303,
  "E.on</w>": 55980,
  "E10</w>": 55096,
  "E</w>": 1714,
  "EA</w>": 30537,
  "EAD": 58531,
  "EADS-": 56936,
  "EADS</w>": 33619,
  "EBI": 58522,
  "EBIT": 58881,
  "EBIT</w>": 52988,
  "EBITDA</w>": 23423,
  "EC": 24040,
  "EC</w>": 36520,
  "ECB</w>": 16591,
  "ED": 24146,
  "ED</w>": 18349,
  "EDF</w>": 48770,
  "EDT</w>": 20438,
  "EE": 24825,
  "EEK</w>": 59091,
  "EFS": 57188,
  "EFSF</w>": 33095,
  "EH": 34699,
  "EHE": 58653,
  "EHEC-": 57622,
  "EK": 34533,
  "EL": 7040,
  "EL</w>": 37864,
  "ELPHIA</w>": 61229,
  "ELS</w>": 52407,
  "EM": 19472,
  "EM-": 10329,
  "EM-Qualifikation</w>": 49335,
  "EM</w>": 7590,
  "EMC</w>": 56863,
  "EME": 56972,
  "EMI</w>": 53279,
  "EN": 8587,
  "EN</w>": 13717,
  "ENIX</w>": 60289,
  "EP": 26608,
  "EPA</w>": 14168,
  "EPS</w>": 48085,
  "EQU": 59416,
  "EQUITY</w>": 58465,
  "ER": 4768,
  "ER</w>": 8967,
  "ERA</w>": 34250,
  "ERE</w>": 52755,
  "ERS</w>": 29805,
  "ES": 9780,
  "ES</w>": 22746,
  "ESA</w>": 46213,
  "ESM</w>": 27717,
  "ESP": 51782,
  "ESP</w>": 49024,
  "ESPN</w>": 22074,
  "EST</w>": 19360,
  "ET": 17480,
  "ET</w>": 17095,
  "ETA</w>": 53539,
  "ETS</w>": 56943,
  "EU": 30848,
  "EU-": 1919,
  "EU-</w>": 42803,
  "EU-Außen": 40387,
  "EU-Gipfel</w>": 33196,
  "EU-Kom": 45201,
  "EU-Kommissar</w>": 48986,
  "EU-Kommission</w>": 7627,
  "EU-Kommissionspräsident</w>": 46747,
  "EU-Länder</w>": 44137,
  "EU-Ländern</w>": 47862,
  "EU-Parlament</w>": 33749,
  "EU-Rat": 45569,
  "EU-Staaten</w>": 17479,
  "EU</w>": 876,
  "EUR": 35386,
  "EUR</w>": 29592,
  "EV": 20840,
  "EW": 40609,
  "EX": 34465,
  "EX</w>": 52983,
  "EZ": 51201,
  "EZB-": 24155,
  "EZB-Präsident</w>": 55360,
  "EZB</w>": 7220,
  "Each</w>": 9751,
  "Eag": 56747,
  "Eagle</w>": 29814,
  "Eagles</w>": 15020,
  "Ear": 19890,
  "Earl</w>": 32486,
  "Earlier</w>": 6611,
  "Early</w>": 16542,
  "Earn": 54895,
  "Earnings</w>": 35833,
  "Earth": 46848,
  "Earth</w>": 6065,
  "Eas": 53926,
  "East": 18128,
  "East</w>": 2103,
  "Easter</w>": 17185,
  "Eastern</w>": 7330,
  "Eastwood</w>": 43273,
  "Easy": 41304,
  "Easy</w>": 38950,
  "Eb": 6310,
  "Ebay</w>": 42042,
  "Eben": 42602,
  "Eben</w>": 41228,
  "Ebene</w>": 10372,
  "Ebenen</w>": 30868,
  "Ebenfalls</w>": 10970,
  "Ebenso</w>": 11481,
  "Eber": 7792,
  "Eberhard</w>": 26409,
  "Ebert</w>": 37805,
  "Ebit": 53099,
  "Ebit</w>": 53471,
  "Ec": 36303,
  "Eccle": 57765,
  "Ecclestone</w>": 24068,
  "Ech": 17888,
  "Echo</w>": 14728,
  "Eck": 6542,
  "Eck</w>": 20077,
  "Ecke</w>": 7576,
  "Ecken</w>": 26245,
  "Eckern": 59906,
  "Eckernför": 41199,
  "Eckhard</w>": 43519,
  "Eckpunkte</w>": 51648,
  "Eco": 46491,
  "Econom": 53416,
  "Economic</w>": 12758,
  "Economics</w>": 24917,
  "Economist</w>": 46281,
  "Economists</w>": 37262,
  "Economy</w>": 29768,
  "Ecu": 49377,
  "Ecuador</w>": 23288,
  "Ed": 7342,
  "Ed</w>": 7204,
  "Eddie</w>": 17188,
  "Ede": 39800,
  "Edeka</w>": 35479,
  "Edel": 12097,
  "Edelmet": 40241,
  "Eden</w>": 28786,
  "Edgar</w>": 22111,
  "Edge</w>": 32351,
  "Edin": 55826,
  "Edin</w>": 55321,
  "Edinburgh</w>": 5960,
  "Edison</w>": 47728,
  "Edit": 58229,
  "Edith</w>": 29897,
  "Editing</w>": 5642,
  "Edition</w>": 29298,
  "Editor</w>": 28139,
  "Editorial</w>": 55945,
  "Edmon": 53660,
  "Edmonton</w>": 38030,
  "Edmund</w>": 29737,
  "Edu": 57932,
  "Eduard</w>": 37270,
  "Eduardo</w>": 37490,
  "Educ": 55869,
  "Education</w>": 8990,
  "Educational</w>": 54549,
  "Edward</w>": 8425,
  "Edwards</w>": 11381,
  "Edwin</w>": 35305,
  "Eff": 17178,
  "Effe": 38839,
  "Effect</w>": 54761,
  "Effective</w>": 57009,
  "Effekt</w>": 15070,
  "Effekte</w>": 30174,
  "Effizi": 48731,
  "Effizienz</w>": 37478,
  "Efforts</w>": 53329,
  "Eg": 11434,
  "Egal</w>": 17708,
  "Ego": 47034,
  "Ego</w>": 52430,
  "Egon</w>": 35811,
  "Egyp": 28282,
  "Egypt</w>": 5375,
  "Egyptian</w>": 11126,
  "Eh": 19358,
  "Ehe": 17183,
  "Ehe</w>": 9123,
  "Ehec": 58103,
  "Ehefrau</w>": 8948,
  "Ehel": 43001,
  "Ehem": 26811,
  "Ehemann</w>": 12522,
  "Ehen</w>": 48715,
  "Ehepa": 42919,
  "Ehepaar</w>": 13469,
  "Eher</w>": 35664,
  "Ehr": 5886,
  "Ehre</w>": 14116,
  "Ehren": 3402,
  "Ehren</w>": 28948,
  "Ehrgei": 58483,
  "Ehrgeiz</w>": 30281,
  "Ehrlich</w>": 48539,
  "Ehrung</w>": 22439,
  "Ehud</w>": 50611,
  "Ei": 13254,
  "Ei</w>": 31817,
  "Eich": 5708,
  "Eick</w>": 58230,
  "Eid": 38111,
  "Eid</w>": 47763,
  "Eier": 30458,
  "Eier</w>": 18681,
  "Eif": 21868,
  "Eifer": 47206,
  "Eig": 19905,
  "Eigen": 4996,
  "Eigenkap": 58551,
  "Eigenkapital": 46640,
  "Eigenkapital</w>": 36753,
  "Eigenschaften</w>": 28489,
  "Eigent": 51123,
  "Eigentlich</w>": 6201,
  "Eigentor</w>": 28271,
  "Eigentum</w>": 29215,
  "Eigentums": 30426,
  "Eigentü": 40585,
  "Eigentümer": 33247,
  "Eigentümer</w>": 9458,
  "Eigh": 39051,
  "Eight</w>": 21004,
  "Eigner</w>": 52694,
  "Eil": 20039,
  "Eile</w>": 46813,
  "Eim": 33571,
  "Ein": 537,
  "Ein-": 28688,
  "Ein</w>": 208,
  "Einblick</w>": 18005,
  "Einblicke</w>": 23369,
  "Einbrecher</w>": 13815,
  "Einbruch</w>": 13402,
  "Einbußen</w>": 42132,
  "Eind": 59679,
  "Eindhoven</w>": 48813,
  "Eindruck</w>": 5355,
  "Eindrücke</w>": 28596,
  "Eine</w>": 356,
  "Einem</w>": 20696,
  "Einen</w>": 2582,
  "Einer</w>": 5747,
  "Einerseits</w>": 29085,
  "Eines</w>": 13512,
  "Einfach</w>": 24063,
  "Einfluss": 34299,
  "Einfluss</w>": 7070,
  "Einführung</w>": 7899,
  "Eing": 11621,
  "Eingang": 26788,
  "Eingang</w>": 14549,
  "Eingangs": 25068,
  "Eingreifen</w>": 38502,
  "Eingriff</w>": 23127,
  "Eingriffe</w>": 38170,
  "Einhaltung</w>": 28714,
  "Einheimischen</w>": 33519,
  "Einheit</w>": 10045,
  "Einheiten</w>": 15522,
  "Einheits": 32687,
  "Einige</w>": 4640,
  "Einiges</w>": 49655,
  "Einigkeit</w>": 31552,
  "Einigung</w>": 7642,
  "Einkauf": 18552,
  "Einkauf</w>": 28785,
  "Einkaufen</w>": 35585,
  "Einkaufs": 14406,
  "Einkaufszentrum</w>": 29308,
  "Einklang</w>": 36523,
  "Einkommen": 34418,
  "Einkommen</w>": 12562,
  "Einkommens": 27715,
  "Einkommensteuer</w>": 54535,
  "Einkünfte</w>": 52676,
  "Einladung</w>": 10913,
  "Einlagen": 52508,
  "Einlagen</w>": 34463,
  "Einmal": 41513,
  "Einmal</w>": 13297,
  "Einmarsch</w>": 50908,
  "Einmischung</w>": 50286,
  "Einnahme": 40964,
  "Einnahme</w>": 43776,
  "Einnahmen</w>": 7853,
  "Einreise</w>": 36812,
  "Einrichtung</w>": 6154,
  "Einrichtungen</w>": 8340,
  "Eins</w>": 28252,
  "Einsamkeit</w>": 44357,
  "Einsatz": 5212,
  "Einsatz</w>": 1246,
  "Einsatzes</w>": 28666,
  "Einsatzkräfte</w>": 11618,
  "Einsch": 42137,
  "Einschnitte</w>": 42142,
  "Einschrän": 59768,
  "Einschränkung</w>": 34923,
  "Einschränkungen</w>": 20969,
  "Einschätzung</w>": 7310,
  "Einschätzungen</w>": 50868,
  "Einsicht</w>": 32615,
  "Einspar": 38612,
  "Einsparungen</w>": 24626,
  "Einspruch</w>": 30678,
  "Einst</w>": 46310,
  "Einstand</w>": 43344,
  "Einstein</w>": 38239,
  "Einstellung</w>": 12665,
  "Einstellungen</w>": 37514,
  "Einstieg</w>": 15617,
  "Einstiegs": 47072,
  "Einsturz</w>": 50167,
  "Einsätze</w>": 12754,
  "Einsätzen</w>": 20688,
  "Eintra": 57638,
  "Eintracht-": 33493,
  "Eintracht</w>": 5321,
  "Eintrag</w>": 33328,
  "Eintreffen</w>": 26382,
  "Eintritt</w>": 9150,
  "Eintritts": 40365,
  "Eintrittskarten</w>": 33528,
  "Einträge</w>": 50087,
  "Einvernehmen</w>": 44428,
  "Einwander": 24930,
  "Einwanderer</w>": 33006,
  "Einwanderung</w>": 42857,
  "Einwoh": 59329,
  "Einwohner": 25485,
  "Einwohner-": 45250,
  "Einwohner</w>": 7837,
  "Einwohnern</w>": 20336,
  "Einwände</w>": 39298,
  "Einzel": 3342,
  "Einzel</w>": 21148,
  "Einzelfall</w>": 25387,
  "Einzelhandel</w>": 21793,
  "Einzelhandels": 43401,
  "Einzelheiten</w>": 26486,
  "Einzelhändler</w>": 38551,
  "Einzelne</w>": 34583,
  "Einzelnen</w>": 28611,
  "Einzig</w>": 32234,
  "Einzige</w>": 30446,
  "Einziger</w>": 46610,
  "Einzug</w>": 9774,
  "Eis": 3620,
  "Eis</w>": 8373,
  "Eisb": 55581,
  "Eisbär": 52635,
  "Eisbären</w>": 21923,
  "Eisen": 9674,
  "Eisen</w>": 36478,
  "Eisenach</w>": 39077,
  "Eisenbahn": 19552,
  "Eisenh": 50007,
  "Eisenhower</w>": 51705,
  "Eishock": 44960,
  "Eishockey-": 18085,
  "Eishockey</w>": 23071,
  "Eisschnell": 52607,
  "Eit": 41085,
  "Either</w>": 32911,
  "Ek": 21501,
  "Ekl": 58893,
  "Eklat</w>": 38394,
  "El": 1232,
  "El-": 44914,
  "El</w>": 6326,
  "ElBaradei</w>": 55015,
  "Ela": 57310,
  "Elaine</w>": 43218,
  "Elb": 26685,
  "Elbe</w>": 26262,
  "Ele": 10800,
  "Elec": 39450,
  "Election</w>": 17387,
  "Elections</w>": 49712,
  "Electoral</w>": 41812,
  "Electri": 45137,
  "Electric</w>": 19111,
  "Electron": 58075,
  "Electronic</w>": 34994,
  "Electronics</w>": 31101,
  "Elefan": 44879,
  "Elefanten</w>": 38057,
  "Eleganz</w>": 51934,
  "Elek": 36026,
  "Elektri": 29338,
  "Elektro": 6450,
  "Elektro-": 39840,
  "Elektroautos</w>": 32952,
  "Elektron": 42821,
  "Elektronik": 32787,
  "Elektronik</w>": 42369,
  "Element</w>": 26449,
  "Elementary</w>": 38896,
  "Elemente</w>": 22542,
  "Elena</w>": 26130,
  "Elend</w>": 40995,
  "Eleven</w>": 37870,
  "Elf": 35964,
  "Elf</w>": 7494,
  "Elfen": 56715,
  "Elfenbein": 57748,
  "Elfenbeinküste</w>": 47402,
  "Elfmeter": 41788,
  "Elfmeter</w>": 14903,
  "Elfmeterschießen</w>": 31350,
  "Eli": 22208,
  "Eli</w>": 37846,
  "Elias</w>": 27180,
  "Eliot</w>": 50193,
  "Elis": 26523,
  "Elisabeth</w>": 10747,
  "Elit": 45645,
  "Elite": 50825,
  "Elite-": 52662,
  "Elite</w>": 25861,
  "Eliten</w>": 50382,
  "Eliz": 48880,
  "Elizabeth</w>": 7432,
  "Elke</w>": 18736,
  "Ell": 21794,
  "Ellen</w>": 18656,
  "Elli": 57939,
  "Elliot</w>": 40544,
  "Elliott</w>": 22510,
  "Ellis</w>": 20179,
  "Ellison</w>": 47354,
  "Elmar</w>": 35217,
  "Els": 31754,
  "Els</w>": 54255,
  "Elsewhere</w>": 28964,
  "Eltern": 8544,
  "Eltern</w>": 1313,
  "Elterngeld</w>": 54267,
  "Elternhaus</w>": 41890,
  "Elton</w>": 33931,
  "Elvis</w>": 24522,
  "Em": 4014,
  "Email</w>": 34097,
  "Eman": 49308,
  "Emanuel</w>": 26671,
  "Emb": 55138,
  "Embassy</w>": 22034,
  "Embr": 48887,
  "Embry": 58632,
  "Embryonen</w>": 57131,
  "Emer": 24164,
  "Emergency</w>": 17996,
  "Emerging</w>": 47492,
  "Emerson</w>": 48479,
  "Emil": 57499,
  "Emil</w>": 31957,
  "Emili": 39444,
  "Emily</w>": 16593,
  "Emin": 47734,
  "Emir": 43637,
  "Emirat</w>": 55104,
  "Emirate</w>": 51915,
  "Emirates</w>": 16610,
  "Emis": 60075,
  "Emission": 54166,
  "Emission</w>": 55366,
  "Emissionen</w>": 31898,
  "Emissions": 51478,
  "Emm": 35644,
  "Emma</w>": 11811,
  "Emmanuel</w>": 22538,
  "Emmer": 32041,
  "Emmy</w>": 28824,
  "Emo": 28246,
  "Emotionen</w>": 20028,
  "Emp": 10495,
  "Empfang</w>": 14737,
  "Empfeh": 58559,
  "Empfehlung</w>": 20777,
  "Empfehlungen</w>": 28370,
  "Empfän": 43369,
  "Empfänger</w>": 32118,
  "Empire</w>": 21437,
  "Emplo": 58000,
  "Employe": 60350,
  "Employee</w>": 56740,
  "Employees</w>": 41738,
  "Employers</w>": 53088,
  "Employment</w>": 42672,
  "Empörung</w>": 21553,
  "Ems": 22534,
  "En": 1327,
  "EnBW</w>": 44892,
  "End": 5766,
  "End</w>": 10287,
  "Ende": 50944,
  "Ende</w>": 359,
  "Endeavour</w>": 46973,
  "Ended</w>": 36817,
  "Enders</w>": 36737,
  "Endlager</w>": 54894,
  "Endlich</w>": 21109,
  "Endr": 55124,
  "Endrunde</w>": 28508,
  "Endspiel</w>": 12872,
  "Endspurt</w>": 38127,
  "Endstand</w>": 20750,
  "Ene": 51868,
  "Ener": 46793,
  "Energ": 51882,
  "Energi": 35060,
  "Energie": 4986,
  "Energie-": 42432,
  "Energie-</w>": 47015,
  "Energie</w>": 5634,
  "Energieeffizi": 47572,
  "Energiekonzern</w>": 48465,
  "Energiekonzerne</w>": 56450,
  "Energien</w>": 16162,
  "Energiepolitik</w>": 50709,
  "Energiepreise</w>": 54968,
  "Energier": 52955,
  "Energies": 53302,
  "Energiespar": 45477,
  "Energieversorger</w>": 46229,
  "Energieversorgung</w>": 43099,
  "Energiewende</w>": 13832,
  "Energy</w>": 5427,
  "Enforcement</w>": 36307,
  "Eng": 10349,
  "Engagement</w>": 3975,
  "Engagements</w>": 36246,
  "Engel": 12666,
  "Engel</w>": 15063,
  "Engine": 56168,
  "Engine</w>": 53161,
  "Engineering</w>": 30798,
  "Engineers</w>": 45564,
  "Engl": 21910,
  "England</w>": 886,
  "Englands</w>": 44171,
  "Englisch</w>": 14198,
  "Englischen</w>": 49166,
  "English-": 54296,
  "English-language</w>": 53261,
  "English</w>": 3094,
  "Englishman</w>": 46894,
  "Engländer</w>": 29705,
  "Enh": 55357,
  "Enke</w>": 53705,
  "Enkel": 22961,
  "Enkel</w>": 21757,
  "Enough</w>": 50399,
  "Enri": 20614,
  "Enron</w>": 57111,
  "Ensemble</w>": 11970,
  "Ensign</w>": 56981,
  "Ent": 2961,
  "Entdeck": 40103,
  "Entdeckung</w>": 27205,
  "Entei": 58088,
  "Enteignung</w>": 54867,
  "Enter": 33486,
  "Enterprise</w>": 25226,
  "Enterprises</w>": 52441,
  "Entertainer</w>": 39965,
  "Entertainment</w>": 13209,
  "Entfer": 51919,
  "Entfernung</w>": 20648,
  "Entführer</w>": 51640,
  "Entführung</w>": 34057,
  "Entgegen</w>": 47157,
  "Enth": 32694,
  "Enthusi": 43048,
  "Enthül": 36859,
  "Enthüllungen</w>": 31821,
  "Entlassung</w>": 22760,
  "Entlassungen</w>": 52626,
  "Entlastung</w>": 18097,
  "Entlastungen</w>": 55705,
  "Entre": 58359,
  "Entreprene": 50984,
  "Ents": 59124,
  "Entsch": 59264,
  "Entschei": 25481,
  "Entscheid": 35818,
  "Entscheidend</w>": 26553,
  "Entscheidung</w>": 1432,
  "Entscheidungen</w>": 6938,
  "Entscheidungs": 23061,
  "Entschlossenheit</w>": 43540,
  "Entschluss</w>": 36013,
  "Entschul": 55746,
  "Entschuldigung</w>": 26284,
  "Entschä": 54018,
  "Entschädigung</w>": 23403,
  "Entschädigungs": 50383,
  "Entsendung</w>": 53291,
  "Entsetzen</w>": 36485,
  "Entsor": 24944,
  "Entspannung</w>": 25635,
  "Entsprechend</w>": 19224,
  "Entstehung</w>": 27958,
  "Entt": 58580,
  "Enttäu": 38171,
  "Enttäuschung</w>": 16930,
  "Entw": 29950,
  "Entwarnung</w>": 25506,
  "Entweder</w>": 27686,
  "Entwickl": 26546,
  "Entwickler</w>": 26332,
  "Entwicklung": 47210,
  "Entwicklung</w>": 1999,
  "Entwicklungen</w>": 15172,
  "Entwicklungs": 12928,
  "Entwicklungsh": 57276,
  "Entwicklungshilfe</w>": 51066,
  "Entwicklungsländer</w>": 55493,
  "Entwicklungsländern</w>": 51203,
  "Entwur": 51592,
  "Entwurf</w>": 10003,
  "Entwür": 55729,
  "Entwürfe</w>": 37661,
  "Entz": 51398,
  "Entzug</w>": 48651,
  "Entzün": 39673,
  "Environ": 55836,
  "Environment</w>": 20073,
  "Environmental</w>": 19130,
  "Enzy": 51335,
  "Eon</w>": 33576,
  "Ep": 15663,
  "Epi": 54802,
  "Epidem": 53513,
  "Epidemie</w>": 42380,
  "Epis": 59790,
  "Episcop": 59504,
  "Episcopal</w>": 56020,
  "Episo": 45402,
  "Episode</w>": 27696,
  "Epiz": 59680,
  "Epizentrum</w>": 56050,
  "Epo": 43406,
  "Epoche</w>": 45947,
  "Equ": 21244,
  "Equality</w>": 49457,
  "Equi": 35812,
  "Equipment</w>": 41661,
  "Equity-": 59751,
  "Equity</w>": 31536,
  "Er": 639,
  "Er</w>": 212,
  "Erb": 13364,
  "Erbe</w>": 20481,
  "Erben</w>": 29722,
  "Erbgut</w>": 53605,
  "Erbschaft": 55072,
  "Erd": 7258,
  "Erdbe": 26180,
  "Erdbeben": 41470,
  "Erdbeben</w>": 16137,
  "Erde</w>": 6550,
  "Erden</w>": 50528,
  "Erder": 59996,
  "Erderwärmung</w>": 52146,
  "Erdgas": 46621,
  "Erdgas</w>": 40795,
  "Erdgeschoss</w>": 23722,
  "Erdo": 18258,
  "Erdogan</w>": 5992,
  "Erdr": 43632,
  "Erdöl": 50999,
  "Erdöl</w>": 52820,
  "Ereig": 56253,
  "Ereignis</w>": 16187,
  "Ereignisse</w>": 13363,
  "Ereignissen</w>": 36000,
  "Erfahr": 55974,
  "Erfahrung</w>": 4718,
  "Erfahrungen</w>": 5885,
  "Erfahrungs": 34364,
  "Erfin": 45099,
  "Erfinder</w>": 33009,
  "Erfindung</w>": 36085,
  "Erfol": 49365,
  "Erfolg": 24815,
  "Erfolg</w>": 1457,
  "Erfolge</w>": 8826,
  "Erfolgen</w>": 27513,
  "Erfolgre": 33130,
  "Erfolgs": 9524,
  "Erfolgs</w>": 45114,
  "Erfolgser": 36409,
  "Erfolgsgeschichte</w>": 34556,
  "Erforschung</w>": 51143,
  "Erfurt</w>": 13959,
  "Erfüllung</w>": 28122,
  "Ergeb": 50123,
  "Ergebnis": 28971,
  "Ergebnis</w>": 1836,
  "Ergebnisse</w>": 3907,
  "Ergebnissen</w>": 19865,
  "Ergän": 56512,
  "Ergänzung</w>": 37408,
  "Erhalt</w>": 14028,
  "Erhard</w>": 37538,
  "Erhe": 38646,
  "Erhebung</w>": 29512,
  "Erholung</w>": 19672,
  "Erhöhung</w>": 11494,
  "Eri": 19940,
  "Eric": 59051,
  "Eric</w>": 5272,
  "Erich</w>": 13971,
  "Ericsson</w>": 45195,
  "Erik</w>": 17283,
  "Erika</w>": 23138,
  "Eriksson</w>": 53429,
  "Erin</w>": 38004,
  "Erinn": 48322,
  "Erinner": 57597,
  "Erinnerung</w>": 8195,
  "Erinnerungen</w>": 12134,
  "Erinnerungs": 29061,
  "Erit": 55116,
  "Eritrea</w>": 38792,
  "Erk": 55859,
  "Erkennt": 55211,
  "Erkenntnis</w>": 18239,
  "Erkenntnisse</w>": 13400,
  "Erkenntnissen</w>": 16348,
  "Erklär": 55879,
  "Erklärung</w>": 6575,
  "Erklärungen</w>": 33094,
  "Erklärungs": 51895,
  "Erkran": 41406,
  "Erkrankung</w>": 16783,
  "Erkrankungen</w>": 18906,
  "Erkund": 46158,
  "Erkäl": 38114,
  "Erlangen</w>": 31599,
  "Erlaubnis</w>": 31170,
  "Erleb": 41296,
  "Erlebnis": 25936,
  "Erlebnis</w>": 15994,
  "Erlebnisse</w>": 28069,
  "Erleich": 51911,
  "Erleichterung</w>": 23836,
  "Erlös</w>": 18185,
  "Erlöse</w>": 32048,
  "Ermitt": 21026,
  "Ermittler</w>": 5953,
  "Ermittlern</w>": 32040,
  "Ermittlungen</w>": 3251,
  "Ermittlungs": 18142,
  "Ermittlungsverfahren</w>": 25542,
  "Ermord": 60025,
  "Ermordung</w>": 36262,
  "Ern": 16551,
  "Erne": 42257,
  "Ernennung</w>": 42367,
  "Ernest</w>": 45027,
  "Erneu": 54660,
  "Erneuer": 32141,
  "Erneuerung</w>": 23522,
  "Erneut</w>": 22599,
  "Ernie</w>": 51044,
  "Ernst": 55672,
  "Ernst</w>": 6937,
  "Ernstfall</w>": 31894,
  "Ernsthaf": 51018,
  "Ernte": 22792,
  "Ernte</w>": 27401,
  "Ernähr": 48613,
  "Ernährung</w>": 15057,
  "Ernährungs": 31861,
  "Ero": 29183,
  "Erober": 46991,
  "Erpres": 55448,
  "Erpressung</w>": 41270,
  "Erreger</w>": 36462,
  "Erreichen</w>": 36482,
  "Errichtung</w>": 25974,
  "Errun": 45890,
  "Ersatz": 8817,
  "Ersatz</w>": 15690,
  "Erschein": 56683,
  "Erscheinen</w>": 49153,
  "Erscheinung</w>": 31044,
  "Erscheinungs": 42025,
  "Erscheinungsdatum</w>": 17638,
  "Erschüt": 48825,
  "Erspar": 40923,
  "Erst": 5011,
  "Erst</w>": 2074,
  "Erstaun": 43355,
  "Erste</w>": 5875,
  "Ersten</w>": 11349,
  "Erstens</w>": 31876,
  "Erster</w>": 12802,
  "Erstes</w>": 35277,
  "Erstligisten</w>": 33695,
  "Erstmals</w>": 10777,
  "Ertrag</w>": 41098,
  "Ertrags": 52887,
  "Erträge</w>": 37613,
  "Erwachsen": 24031,
  "Erwachsene</w>": 10492,
  "Erwachsenen</w>": 15934,
  "Erwar": 27727,
  "Erwartung</w>": 33116,
  "Erwartungen</w>": 8191,
  "Erweiter": 32246,
  "Erweiterung</w>": 13856,
  "Erwer": 54982,
  "Erwerb</w>": 35972,
  "Erwerbs": 32705,
  "Erwerbstä": 43082,
  "Erwin</w>": 15730,
  "Erwärmung</w>": 53777,
  "Erz": 21284,
  "Erzbischof</w>": 35303,
  "Erzeu": 35288,
  "Erzgebirge</w>": 39199,
  "Erzieher": 18839,
  "Erzieher</w>": 34760,
  "Erziehung</w>": 26921,
  "Erziehungs": 26934,
  "Erzrivalen</w>": 50418,
  "Erzäh": 50993,
  "Erzähl": 42221,
  "Erzähler</w>": 49990,
  "Erzählung</w>": 36929,
  "Erzählungen</w>": 38724,
  "Eröff": 39005,
  "Eröffnung</w>": 6560,
  "Eröffnungs": 20538,
  "Eröffnungsfeier</w>": 49477,
  "Es": 7171,
  "Es</w>": 150,
  "Esc": 47756,
  "Escape</w>": 52158,
  "Esch": 21730,
  "Esco": 52222,
  "Esk": 38282,
  "Eskal": 56678,
  "Eskalation</w>": 26181,
  "Esp": 14170,
  "Especially</w>": 41991,
  "Ess": 13659,
  "Essen": 14212,
  "Essen</w>": 4068,
  "Essener</w>": 36210,
  "Essex</w>": 21478,
  "Est": 27883,
  "Estab": 60001,
  "Establ": 56312,
  "Established</w>": 56906,
  "Establishment</w>": 49343,
  "Estate</w>": 20764,
  "Esther</w>": 38457,
  "Estim": 56275,
  "Estimates</w>": 55692,
  "Estland</w>": 43042,
  "Estonia</w>": 48592,
  "Et": 9911,
  "Etage</w>": 35043,
  "Etappe</w>": 20439,
  "Etappen": 37593,
  "Etat</w>": 19623,
  "Eth": 21303,
  "Ethan</w>": 39763,
  "Ether": 57183,
  "Ethernet</w>": 58184,
  "Ethics</w>": 49212,
  "Ethik": 40003,
  "Ethik</w>": 53811,
  "Ethiop": 58539,
  "Ethiopia</w>": 36099,
  "Ethiopian</w>": 49380,
  "Eti": 17552,
  "Etik": 51596,
  "Etliche</w>": 37751,
  "Eto</w>": 54006,
  "Etw": 57546,
  "Etwa</w>": 6777,
  "Etwas</w>": 14966,
  "Eu": 12187,
  "EuGH</w>": 39245,
  "Euch</w>": 30414,
  "Eugen</w>": 31443,
  "Eugene</w>": 39282,
  "Euph": 55599,
  "Euphorie</w>": 24467,
  "Eur": 26386,
  "Euro": 3148,
  "Euro-": 5890,
  "Euro-B": 58068,
  "Euro-Bonds</w>": 57209,
  "Euro-Krise</w>": 38749,
  "Euro-Länder</w>": 46339,
  "Euro-Raum</w>": 54311,
  "Euro-Rettung</w>": 56228,
  "Euro-Rettungsschirm</w>": 53479,
  "Euro-Schuldenkrise</w>": 56397,
  "Euro-Staaten</w>": 47799,
  "Euro-Zone</w>": 20540,
  "Euro</w>": 146,
  "Eurobonds</w>": 55050,
  "Euron": 59061,
  "Euronext</w>": 54845,
  "Europ": 14410,
  "Europa": 37255,
  "Europa-": 13910,
  "Europa</w>": 1169,
  "Europac": 33410,
  "Europam": 55800,
  "Europameister": 31031,
  "Europameister</w>": 21248,
  "Europameisterschaft</w>": 21906,
  "Europapar": 58391,
  "Europaparlam": 53794,
  "Europaparlament</w>": 32185,
  "Europapo": 32344,
  "Europas</w>": 5939,
  "Europaw": 49598,
  "Europawahl</w>": 35922,
  "Europe": 48437,
  "Europe</w>": 1331,
  "European</w>": 1067,
  "Europeans</w>": 28218,
  "Europä": 55478,
  "Europäer</w>": 16807,
  "Europäern</w>": 53902,
  "Europäische</w>": 7698,
  "Europäischen</w>": 5500,
  "Europäischer</w>": 48864,
  "Euror": 58335,
  "Euroraum</w>": 42381,
  "Euros</w>": 48199,
  "Eurovision</w>": 30358,
  "Eurozone</w>": 12204,
  "Eut": 25299,
  "Ev": 12027,
  "Eva</w>": 9852,
  "Evaku": 30260,
  "Evan": 58104,
  "Evan</w>": 29990,
  "Evangel": 18048,
  "Evangelischen</w>": 25503,
  "Evans</w>": 8616,
  "Eve</w>": 19654,
  "Evel": 51807,
  "Evelyn</w>": 40283,
  "Even": 56416,
  "Even</w>": 2462,
  "Evening</w>": 34939,
  "Event": 24448,
  "Event</w>": 15092,
  "Events</w>": 20302,
  "Eventually</w>": 27050,
  "Ever": 19780,
  "Ever</w>": 30618,
  "Everest</w>": 32109,
  "Everett</w>": 51679,
  "Everton</w>": 13859,
  "Every": 44242,
  "Every</w>": 7281,
  "Everybody</w>": 21502,
  "Everyone</w>": 11173,
  "Everything</w>": 15615,
  "Evi": 56340,
  "Evidence</w>": 47925,
  "Evol": 51575,
  "Evolution</w>": 35191,
  "Ew": 51834,
  "Ewigkeit</w>": 43147,
  "Ex": 2623,
  "Ex-": 2178,
  "Ex-</w>": 44663,
  "Ex-Frau</w>": 48930,
  "Ex-K": 34764,
  "Ex-Präsident</w>": 44993,
  "Ex</w>": 31636,
  "Exam": 48255,
  "Exc": 36278,
  "Excell": 57718,
  "Excellence</w>": 47395,
  "Except</w>": 41814,
  "Exchange</w>": 9057,
  "Exclu": 48669,
  "Excluding</w>": 48630,
  "Execu": 57480,
  "Executive</w>": 9546,
  "Executives</w>": 55463,
  "Exek": 36973,
  "Exekutiv": 45572,
  "Exempl": 47892,
  "Exemplar</w>": 42248,
  "Exemplare</w>": 25578,
  "Exeter</w>": 39769,
  "Exhib": 33054,
  "Exil": 54376,
  "Exil</w>": 35206,
  "Exist": 51523,
  "Existenz": 29532,
  "Existenz</w>": 18789,
  "Exit</w>": 52624,
  "Exklu": 56342,
  "Exklusiv": 53212,
  "Exp": 21954,
  "Expan": 53031,
  "Expansion</w>": 37989,
  "Expe": 50598,
  "Expedition</w>": 47243,
  "Expen": 58490,
  "Expense</w>": 57759,
  "Expenses</w>": 57000,
  "Exper": 29706,
  "Experi": 57578,
  "Experience</w>": 42858,
  "Experim": 26082,
  "Experiment</w>": 23229,
  "Experimente</w>": 36112,
  "Experte</w>": 8645,
  "Experten": 23361,
  "Experten</w>": 2773,
  "Expertin</w>": 27663,
  "Expertise</w>": 44618,
  "Experts</w>": 18716,
  "Expl": 49800,
  "Explo": 31360,
  "Exploration</w>": 52739,
  "Explorer</w>": 42713,
  "Explosion</w>": 13632,
  "Explosionen</w>": 40050,
  "Expo</w>": 42153,
  "Expon": 28057,
  "Expor": 32226,
  "Export": 19873,
  "Export</w>": 30363,
  "Exporte</w>": 31757,
  "Expres": 42561,
  "Express": 54406,
  "Express</w>": 12084,
  "Extra": 28495,
  "Extra-": 45429,
  "Extra</w>": 33715,
  "Extras</w>": 52956,
  "Extre": 21994,
  "Extrem": 26362,
  "Extreme</w>": 41418,
  "Extremisten</w>": 21563,
  "Exx": 52585,
  "Exxon</w>": 34262,
  "Exzell": 52800,
  "Ey": 23661,
  "Eye</w>": 28097,
  "F": 316,
  "F-": 9534,
  "F-Chef</w>": 55987,
  "F.": 19730,
  "F.</w>": 9838,
  "F.A.": 56172,
  "F.A.S.</w>": 58221,
  "F.A.Z.</w>": 40393,
  "F1</w>": 24569,
  "F</w>": 2063,
  "FA": 14558,
  "FA-": 17406,
  "FA</w>": 7137,
  "FAA</w>": 32200,
  "FAO</w>": 55531,
  "FAR": 55113,
  "FARC</w>": 42133,
  "FAS</w>": 56286,
  "FAZ.": 60158,
  "FAZ.NE": 58515,
  "FAZ.NET</w>": 38663,
  "FAZ</w>": 39742,
  "FBI</w>": 5362,
  "FC": 9962,
  "FC-": 19495,
  "FC</w>": 615,
  "FCC</w>": 32736,
  "FD": 26064,
  "FDA</w>": 14753,
  "FDIC</w>": 52686,
  "FDP-": 10874,
  "FDP-Chef</w>": 43230,
  "FDP-Generalsekretär</w>": 57294,
  "FDP-Politiker</w>": 53491,
  "FDP</w>": 2963,
  "FE": 28883,
  "FE</w>": 36209,
  "FEMA</w>": 52389,
  "FF</w>": 26392,
  "FFC</w>": 51063,
  "FFO</w>": 56521,
  "FG</w>": 33023,
  "FH</w>": 37667,
  "FI": 9081,
  "FI</w>": 45456,
  "FIA</w>": 42836,
  "FIFA</w>": 10323,
  "FIN": 51962,
  "FINAN": 58060,
  "FK</w>": 43976,
  "FL": 34106,
  "FL</w>": 24177,
  "FLO": 57608,
  "FM": 35957,
  "FM</w>": 27141,
  "FO": 19028,
  "FO</w>": 32843,
  "FOR": 30133,
  "FOR</w>": 48581,
  "FORD</w>": 55210,
  "FOX": 53712,
  "FOX</w>": 47838,
  "FOXNews.com</w>": 57102,
  "FP": 17464,
  "FP</w>": 44744,
  "FPÖ</w>": 12866,
  "FR": 23183,
  "FR-": 56679,
  "FR-online.de</w>": 30379,
  "FR</w>": 31358,
  "FRAN": 36455,
  "FRANCISCO</w>": 40817,
  "FRE": 46909,
  "FS": 13155,
  "FS</w>": 33775,
  "FSA</w>": 29733,
  "FSV</w>": 10234,
  "FT": 21239,
  "FT.com</w>": 37301,
  "FT</w>": 14611,
  "FTA</w>": 43911,
  "FTC</w>": 42093,
  "FTD-": 57653,
  "FTD.de</w>": 25789,
  "FTD</w>": 45763,
  "FTSE</w>": 17945,
  "FX</w>": 41032,
  "FY": 50073,
  "Fa": 11283,
  "Fab": 14525,
  "Fabian</w>": 9194,
  "Fabio</w>": 26303,
  "Fabregas</w>": 47436,
  "Fabri": 30938,
  "Fabrik": 42160,
  "Fabrik</w>": 27494,
  "Fabriken</w>": 41463,
  "Fac": 10528,
  "Face</w>": 27338,
  "Faceb": 60107,
  "Faceboo": 56806,
  "Facebook": 16327,
  "Facebook-": 12371,
  "Facebook</w>": 1303,
  "Fach": 2125,
  "Fach</w>": 21230,
  "Fachhoch": 51223,
  "Fachhochschule</w>": 39050,
  "Fachkräfte": 55453,
  "Fachkräfte</w>": 26432,
  "Fachkräftemangel</w>": 45360,
  "Fachleute</w>": 20315,
  "Fachleuten</w>": 45148,
  "Fachmagazin</w>": 50594,
  "Fachmann</w>": 31174,
  "Facility</w>": 47626,
  "Facing</w>": 52500,
  "Fack": 35727,
  "Fackell": 58176,
  "Factor</w>": 26806,
  "Factors</w>": 52691,
  "Factory</w>": 40430,
  "Fad": 54550,
  "Faden</w>": 30933,
  "Fah": 25653,
  "Fahn": 19724,
  "Fahnder</w>": 37166,
  "Fahndung</w>": 24099,
  "Fahne</w>": 27007,
  "Fahnen</w>": 27200,
  "Fahr": 1328,
  "Fahrbahn</w>": 7945,
  "Fahren": 54187,
  "Fahren</w>": 23942,
  "Fahrenheit</w>": 52408,
  "Fahrer": 18083,
  "Fahrer</w>": 2232,
  "Fahrern</w>": 38806,
  "Fahrgäste</w>": 16279,
  "Fahrplan</w>": 32551,
  "Fahrrad": 9736,
  "Fahrrad</w>": 11740,
  "Fahrt</w>": 5519,
  "Fahrten</w>": 22050,
  "Fahrzeug": 11633,
  "Fahrzeug</w>": 4455,
  "Fahrzeuge</w>": 4638,
  "Fahrzeugen</w>": 10872,
  "Fai": 32064,
  "Fail": 50478,
  "Fair": 12984,
  "Fair</w>": 13836,
  "Fairfax</w>": 12349,
  "Fairness</w>": 47973,
  "Faith</w>": 40473,
  "Fak": 26321,
  "Fakt</w>": 26951,
  "Fakten</w>": 13761,
  "Faktor</w>": 23896,
  "Faktoren</w>": 21002,
  "Fakul": 37786,
  "Fal": 4707,
  "Falcon</w>": 42790,
  "Falcons</w>": 36264,
  "Falk</w>": 37079,
  "Fall": 12979,
  "Fall</w>": 806,
  "Falle</w>": 10503,
  "Fallen</w>": 45814,
  "Fallon</w>": 28275,
  "Falls</w>": 11524,
  "Falsch": 24728,
  "Fam": 22756,
  "Fame</w>": 18945,
  "Famili": 10573,
  "Familie</w>": 1146,
  "Familien": 3397,
  "Familien</w>": 3587,
  "Familienministerin</w>": 50985,
  "Familienunternehmen</w>": 40979,
  "Familienvater</w>": 30753,
  "Families</w>": 28982,
  "Family</w>": 8062,
  "Fan": 8566,
  "Fan-": 30777,
  "Fan</w>": 12244,
  "Fang": 40090,
  "Fann": 51432,
  "Fannie</w>": 32490,
  "Fans</w>": 1479,
  "Fanta": 23611,
  "Fantasie</w>": 26858,
  "Fantasy</w>": 49091,
  "Far": 2982,
  "Far</w>": 26502,
  "Farb": 14723,
  "Farbe</w>": 10967,
  "Farben</w>": 10728,
  "Farc</w>": 54791,
  "Farfan</w>": 56145,
  "Fargo</w>": 26148,
  "Farm</w>": 20523,
  "Farmer</w>": 44656,
  "Farmers</w>": 41691,
  "Farrell</w>": 26051,
  "Fas": 9321,
  "Fasch": 12901,
  "Fash": 48034,
  "Fashion</w>": 13550,
  "Fass": 27349,
  "Fass</w>": 31800,
  "Fassa": 34528,
  "Fassade</w>": 20701,
  "Fassung</w>": 30456,
  "Fast": 11942,
  "Fast</w>": 4834,
  "Faszination</w>": 36253,
  "Fat": 18663,
  "Fat</w>": 44281,
  "Fatah</w>": 39047,
  "Father</w>": 19910,
  "Fati": 37686,
  "Fau": 20757,
  "Faul": 27514,
  "Faust": 28539,
  "Faust</w>": 19361,
  "Fav": 48564,
  "Favor": 32171,
  "Favorit</w>": 13582,
  "Favoriten": 31085,
  "Favoriten</w>": 14600,
  "Favre</w>": 25143,
  "Faw": 52240,
  "Fawc": 60240,
  "Fawcett</w>": 56590,
  "Fax</w>": 43166,
  "Fay": 32887,
  "Fay</w>": 56748,
  "Fayed</w>": 56721,
  "Faymann</w>": 20596,
  "Faz": 52823,
  "Fazit</w>": 11987,
  "Fe": 3365,
  "Fe</w>": 47590,
  "Fear</w>": 43616,
  "Fears</w>": 49814,
  "Features</w>": 41934,
  "Feb": 58253,
  "Feb.</w>": 8230,
  "Feb</w>": 34722,
  "Febru": 55783,
  "Februar</w>": 1746,
  "February</w>": 2189,
  "Fed": 35621,
  "Fed-": 41959,
  "Fed</w>": 5109,
  "FedEx</w>": 47565,
  "Feder": 16040,
  "Federal</w>": 3991,
  "Federation</w>": 15797,
  "Federer</w>": 9038,
  "Federico</w>": 45657,
  "Federline</w>": 58183,
  "Federn</w>": 43879,
  "Feh": 15676,
  "Fehl": 7833,
  "Fehlen</w>": 33163,
  "Fehler": 37383,
  "Fehler</w>": 3560,
  "Fehlern</w>": 29759,
  "Fehlstart</w>": 47980,
  "Fehlverhalten</w>": 43522,
  "Fei": 12854,
  "Feier": 13849,
  "Feier</w>": 11860,
  "Feierlichkeiten</w>": 33835,
  "Feiern</w>": 20103,
  "Feiertag</w>": 33999,
  "Fein": 12993,
  "Fein</w>": 47339,
  "Feinberg</w>": 55968,
  "Feind": 39336,
  "Feind</w>": 30659,
  "Feinde</w>": 35856,
  "Feinst": 59884,
  "Feinstau": 38129,
  "Feinstein</w>": 47603,
  "Fekter</w>": 47269,
  "Fel": 6014,
  "Feld": 5916,
  "Feld</w>": 6324,
  "Felder</w>": 29958,
  "Feldern</w>": 37768,
  "Felipe</w>": 20149,
  "Felix</w>": 5961,
  "Fell": 20209,
  "Fell</w>": 37733,
  "Fellow</w>": 38755,
  "Felsen</w>": 41590,
  "Fem": 47815,
  "Female</w>": 44389,
  "Femin": 33267,
  "Fen": 22196,
  "Fenerb": 60319,
  "Fenerbah": 50785,
  "Fenster": 21496,
  "Fenster</w>": 6894,
  "Fenstern</w>": 39475,
  "Fenty</w>": 56733,
  "Fer": 6416,
  "Ferdin": 57773,
  "Ferdinand</w>": 16228,
  "Ferg": 48048,
  "Fergus": 58421,
  "Ferguson</w>": 8762,
  "Feri": 31278,
  "Ferien": 8277,
  "Ferien</w>": 18884,
  "Fern": 5957,
  "Fernandez</w>": 31560,
  "Fernando</w>": 14526,
  "Ferne</w>": 24294,
  "Ferner</w>": 33126,
  "Fernost</w>": 53283,
  "Fernseh": 4993,
  "Fernseh-": 53075,
  "Fernsehen</w>": 5951,
  "Fernsehens</w>": 51264,
  "Fernseher</w>": 17808,
  "Fernsehsender</w>": 22088,
  "Fernsehsenders</w>": 55471,
  "Fernverkehr</w>": 51300,
  "Ferr": 24205,
  "Ferrar": 56474,
  "Ferrari-": 39326,
  "Ferrari</w>": 10370,
  "Ferrer</w>": 39750,
  "Ferrero</w>": 55985,
  "Ferry</w>": 48835,
  "Fertig": 39296,
  "Fertigstellung</w>": 22869,
  "Fertigung</w>": 46594,
  "Fes": 18819,
  "Fest": 1881,
  "Fest</w>": 5252,
  "Festgenommenen</w>": 50938,
  "Festival": 22192,
  "Festival</w>": 3931,
  "Festivals</w>": 18225,
  "Festland</w>": 45720,
  "Festlegung</w>": 46841,
  "Festnahme</w>": 15114,
  "Festnahmen</w>": 27980,
  "Festplatte</w>": 53047,
  "Festspiel": 39226,
  "Festspiele</w>": 29888,
  "Feststellung</w>": 36580,
  "Fet": 28909,
  "Fett": 28880,
  "Fett</w>": 32252,
  "Feu": 11226,
  "Feuer": 6656,
  "Feuer</w>": 4257,
  "Feuerwehr": 4631,
  "Feuerwehr</w>": 1979,
  "Feuerwehren</w>": 13453,
  "Feuerwehrleute</w>": 16505,
  "Feuerwerk</w>": 23131,
  "Feuil": 56473,
  "Feuilleton</w>": 54472,
  "Few</w>": 25710,
  "Fewer</w>": 52701,
  "Fey</w>": 50321,
  "Fi": 6603,
  "Fia</w>": 58095,
  "Fiat</w>": 17609,
  "Fic": 46315,
  "Fiction</w>": 46137,
  "Fid": 45492,
  "Fidel": 57550,
  "Fidel</w>": 31714,
  "Fidelity</w>": 54356,
  "Fie": 20893,
  "Fieber</w>": 34806,
  "Fiel": 46246,
  "Field</w>": 16392,
  "Fields</w>": 38090,
  "Fiesta</w>": 45506,
  "Fif": 20300,
  "Fifa-": 36976,
  "Fifa</w>": 15317,
  "Fife</w>": 43667,
  "Fifteen</w>": 53055,
  "Fifth</w>": 33259,
  "Fig": 23981,
  "Figaro</w>": 50900,
  "Figh": 36623,
  "Fight</w>": 30373,
  "Fighting</w>": 37151,
  "Figur</w>": 10850,
  "Figure</w>": 32558,
  "Figuren</w>": 12231,
  "Figures</w>": 37620,
  "Fiji</w>": 40279,
  "Fik": 46997,
  "Fil": 7725,
  "Filed</w>": 57337,
  "Fili": 13042,
  "Filiale</w>": 19573,
  "Filialen</w>": 16965,
  "Fillon</w>": 35751,
  "Film": 3472,
  "Film-": 47904,
  "Film</w>": 1845,
  "Filme</w>": 8743,
  "Filmem": 52409,
  "Filmemacher</w>": 31918,
  "Filmen</w>": 17837,
  "Films</w>": 15886,
  "Filter</w>": 50674,
  "Fin": 3099,
  "Fin</w>": 54846,
  "Final": 11551,
  "Final</w>": 16436,
  "Finale</w>": 2856,
  "Finally</w>": 17875,
  "Finals</w>": 29213,
  "Finance</w>": 13870,
  "Financial</w>": 5021,
  "Financing</w>": 57192,
  "Finanz": 2166,
  "Finanz-</w>": 35772,
  "Finanzamt</w>": 31024,
  "Finanzaufsicht</w>": 54183,
  "Finanzbranche</w>": 53689,
  "Finanzchef</w>": 44955,
  "Finanzdienst": 55174,
  "Finanzdienstleister</w>": 56498,
  "Finanzen</w>": 16036,
  "Finanzexperte</w>": 55989,
  "Finanzhilfen</w>": 48503,
  "Finanzierung</w>": 8726,
  "Finanzierungs": 23432,
  "Finanzinstitute</w>": 56309,
  "Finanzinvestor</w>": 51504,
  "Finanzinvestoren</w>": 55279,
  "Finanzkreisen</w>": 57195,
  "Finanzkrise</w>": 11351,
  "Finanzmarkt": 51992,
  "Finanzmarkt</w>": 56174,
  "Finanzmarktkrise</w>": 57492,
  "Finanzminister</w>": 6323,
  "Finanzministerin</w>": 50224,
  "Finanzministerium</w>": 25621,
  "Finanzministeriums</w>": 51827,
  "Finanzmärkte</w>": 30146,
  "Finanzmärkten</w>": 34186,
  "Finanzpolitik</w>": 53214,
  "Finanzsektor</w>": 54735,
  "Finanzsenator</w>": 55714,
  "Finanzspritze</w>": 54847,
  "Finanzsystem</w>": 54351,
  "Finanztransa": 51003,
  "Finanzvorstand</w>": 44207,
  "Finanzwelt</w>": 56360,
  "Finanzwerte</w>": 57937,
  "Find</w>": 33086,
  "Finding</w>": 42118,
  "Fine</w>": 31280,
  "Fing": 50131,
  "Finger": 24342,
  "Finger</w>": 13381,
  "Fingerab": 40047,
  "Fingern</w>": 48269,
  "Fink</w>": 25224,
  "Finland</w>": 26815,
  "Finn": 33332,
  "Finn</w>": 24769,
  "Finnen</w>": 47589,
  "Finnish</w>": 47384,
  "Finnland</w>": 20082,
  "Fion": 59572,
  "Fiona</w>": 28569,
  "Fior": 32309,
  "Fir": 13386,
  "Fire": 24592,
  "Fire</w>": 8237,
  "Firefighters</w>": 37532,
  "Firefox</w>": 51205,
  "Firm</w>": 49320,
  "Firma</w>": 2484,
  "Firmen": 6929,
  "Firmen</w>": 4367,
  "Firmenchef</w>": 45526,
  "First": 55730,
  "First-": 49378,
  "First</w>": 2896,
  "FirstCall</w>": 59540,
  "Fis": 33377,
  "Fiscal</w>": 42879,
  "Fisch": 5901,
  "Fisch</w>": 20727,
  "Fische</w>": 25367,
  "Fischer</w>": 4578,
  "Fish</w>": 26744,
  "Fisher": 48499,
  "Fisher</w>": 16827,
  "Fiskal": 33382,
  "Fiskus</w>": 43663,
  "Fit": 17884,
  "Fit</w>": 36746,
  "Fitch</w>": 31668,
  "Fitness": 17493,
  "Fitness</w>": 23817,
  "Fitz": 24001,
  "Fitzger": 59734,
  "Fitzgerald</w>": 33275,
  "Five</w>": 9355,
  "Fix": 31075,
  "Fl": 3124,
  "Fla": 15956,
  "Fla</w>": 15795,
  "Flach": 21526,
  "Flachbild": 56127,
  "Flag": 24937,
  "Flagge</w>": 25640,
  "Flam": 19911,
  "Flames</w>": 47379,
  "Flammen</w>": 10632,
  "Flan": 18413,
  "Flanke</w>": 20754,
  "Flas": 37875,
  "Flasche</w>": 22687,
  "Flaschen</w>": 23104,
  "Flash": 44010,
  "Flash</w>": 40344,
  "Flat": 33004,
  "Fle": 9226,
  "Fleck</w>": 37861,
  "Flecken</w>": 37003,
  "Fleder": 31493,
  "Fleet</w>": 43772,
  "Fleisch": 14033,
  "Fleisch</w>": 12572,
  "Fleming</w>": 33887,
  "Flens": 50671,
  "Flensburg</w>": 23666,
  "Flensburger</w>": 49929,
  "Fletcher</w>": 28388,
  "Flex": 45941,
  "Flexi": 58627,
  "Flexibil": 57455,
  "Flexibilität</w>": 32962,
  "Fli": 15555,
  "Flick": 39130,
  "Flie": 22414,
  "Fliegen</w>": 38125,
  "Flieger</w>": 28245,
  "Flight</w>": 19556,
  "Flin": 37444,
  "Flint</w>": 38728,
  "Flintoff</w>": 54793,
  "Flo": 11558,
  "Floo": 53111,
  "Flood</w>": 47038,
  "Flor": 12691,
  "Flora</w>": 38538,
  "Florence</w>": 29609,
  "Florenz</w>": 36480,
  "Flores</w>": 48059,
  "Florian</w>": 5258,
  "Florida</w>": 2754,
  "Flotte</w>": 38601,
  "Flow</w>": 52312,
  "Flower</w>": 44289,
  "Flowers</w>": 43433,
  "Floy": 59207,
  "Floyd</w>": 28346,
  "Flu": 8142,
  "Flu</w>": 56433,
  "Fluch</w>": 39659,
  "Flucht": 23227,
  "Flucht</w>": 6880,
  "Flug": 4749,
  "Flug</w>": 13323,
  "Fluggesellschaft</w>": 21644,
  "Fluggesellschaften</w>": 37788,
  "Fluggäste</w>": 48004,
  "Flugh": 57401,
  "Flughaf": 42728,
  "Flughafen": 19307,
  "Flughafen</w>": 4894,
  "Flughafens</w>": 25563,
  "Flughäfen</w>": 22859,
  "Fluglinie</w>": 48160,
  "Fluglotsen</w>": 56998,
  "Flugsicherung</w>": 53992,
  "Flugverbots": 59782,
  "Flugverbotszone</w>": 57014,
  "Flugverkehr</w>": 52469,
  "Flugzeu": 48555,
  "Flugzeug": 22835,
  "Flugzeug</w>": 11528,
  "Flugzeugab": 50004,
  "Flugzeuge</w>": 20226,
  "Flugzeugen</w>": 44048,
  "Flugzeugs</w>": 50921,
  "Flur</w>": 35330,
  "Fluss": 36719,
  "Fluss</w>": 18774,
  "Flut": 24864,
  "Flut</w>": 30044,
  "Fluten</w>": 49141,
  "Fly</w>": 47437,
  "Flyers</w>": 39944,
  "Flying</w>": 36034,
  "Flynn</w>": 19165,
  "Flä": 28479,
  "Fläche</w>": 8074,
  "Flächen": 27654,
  "Flächen</w>": 11058,
  "Flü": 31308,
  "Flücht": 22957,
  "Flüchtling": 4646,
  "Flüchtlinge</w>": 1717,
  "Flüchtlingen</w>": 6285,
  "Flüchtlings": 5490,
  "Flüge</w>": 16862,
  "Flügel": 25527,
  "Flügel</w>": 16489,
  "Flügen</w>": 50357,
  "Flüs": 57130,
  "Flüsse</w>": 48906,
  "Flüssig": 42733,
  "Flüssigkeit</w>": 38043,
  "Fo": 4093,
  "Foc": 54408,
  "Fock</w>": 56259,
  "Focus</w>": 16981,
  "Fog": 47221,
  "Fogh</w>": 55874,
  "Fok": 54336,
  "Fokus</w>": 8740,
  "Fol": 5768,
  "Foley</w>": 28578,
  "Folge": 20897,
  "Folge</w>": 2391,
  "Folgen</w>": 3920,
  "Follow</w>": 23546,
  "Following</w>": 11761,
  "Folter": 50063,
  "Folter</w>": 35636,
  "Fon": 15293,
  "Fonds": 41385,
  "Fonds</w>": 12493,
  "Fondsmanager</w>": 55810,
  "Food": 45380,
  "Food</w>": 8492,
  "Foods</w>": 26942,
  "Foot": 20348,
  "Football</w>": 8256,
  "For": 2359,
  "For</w>": 659,
  "Forbes</w>": 23016,
  "Force</w>": 5743,
  "Forces</w>": 19065,
  "Ford": 40325,
  "Ford</w>": 4311,
  "Forderung</w>": 7254,
  "Forderungen</w>": 7844,
  "Fore": 22197,
  "Forec": 28288,
  "Foreign</w>": 5035,
  "Foren</w>": 51508,
  "Forest</w>": 15111,
  "Forget</w>": 42059,
  "Form": 14838,
  "Form</w>": 2672,
  "Format</w>": 19265,
  "Formation</w>": 26016,
  "Formel-": 51838,
  "Formel-1-": 14397,
  "Formel</w>": 11634,
  "Formen</w>": 16903,
  "Former</w>": 5633,
  "Formu": 58665,
  "Formul": 54112,
  "Formula</w>": 20928,
  "Formulierung</w>": 38178,
  "Formulierungen</w>": 50615,
  "Forsa-": 55220,
  "Forsch": 19975,
  "Forscher": 47394,
  "Forscher</w>": 5076,
  "Forschern</w>": 42453,
  "Forschung</w>": 10707,
  "Forschungs": 9192,
  "Forschungspro": 45312,
  "Forst": 16383,
  "Forster</w>": 30161,
  "Forsy": 50161,
  "Fort": 8018,
  "Fort</w>": 12655,
  "Fortis</w>": 58315,
  "Fortsch": 39223,
  "Fortschritt</w>": 21734,
  "Fortschritte</w>": 15272,
  "Fortsetzung</w>": 16113,
  "Fortun": 35991,
  "Fortuna</w>": 13816,
  "Fortunately</w>": 36824,
  "Fortune</w>": 36049,
  "Forty-": 53739,
  "Forum</w>": 9544,
  "Forward-looking</w>": 55875,
  "Forward</w>": 38626,
  "Fos": 49937,
  "Fossett</w>": 58604,
  "Foster</w>": 16305,
  "Foto": 7828,
  "Foto</w>": 830,
  "Fotogra": 32834,
  "Fotograf</w>": 25928,
  "Fotografen</w>": 21009,
  "Fotografie</w>": 33611,
  "Fotografien</w>": 36906,
  "Fotos</w>": 3971,
  "Fou": 47272,
  "Foul": 33747,
  "Foul</w>": 21378,
  "Foulel": 59460,
  "Foulelfmeter</w>": 19982,
  "Fouls</w>": 47281,
  "Found</w>": 47607,
  "Foundation</w>": 6118,
  "Founded</w>": 42347,
  "Founder</w>": 51357,
  "Four": 27943,
  "Four</w>": 6758,
  "Fourth</w>": 32066,
  "Fow": 57600,
  "Fowler</w>": 35452,
  "Fox": 17930,
  "Fox</w>": 4159,
  "Foyer</w>": 25302,
  "Fr": 4103,
  "Fra": 11085,
  "Fracht": 43790,
  "Fracht</w>": 54471,
  "Frachter</w>": 51122,
  "Frag": 23972,
  "Frage": 27733,
  "Frage</w>": 982,
  "Fragen</w>": 2047,
  "Fragezeichen</w>": 36284,
  "Fraktion": 41544,
  "Fraktion</w>": 6458,
  "Fraktionen</w>": 14583,
  "Fraktions": 12398,
  "Fraktionschef</w>": 12429,
  "Fraktionschefin</w>": 40771,
  "Fraktionsvize</w>": 49107,
  "Fraktionsvorsitzende</w>": 23886,
  "Fraktionsvorsitzenden</w>": 44404,
  "Fran": 11402,
  "Franc": 31903,
  "France-": 41248,
  "France-KLM</w>": 57021,
  "France</w>": 1575,
  "Frances</w>": 38408,
  "Francesco</w>": 35042,
  "Franch": 44754,
  "Francis": 48054,
  "Francis</w>": 9158,
  "Francisco</w>": 4981,
  "Franck</w>": 23252,
  "Franco": 57166,
  "Franco</w>": 20204,
  "Francois</w>": 20950,
  "Frank": 13401,
  "Frank-": 50507,
  "Frank-Walter</w>": 19331,
  "Frank</w>": 1998,
  "Franke</w>": 31027,
  "Franken": 11282,
  "Franken</w>": 8562,
  "Frankfur": 40225,
  "Frankfurt-": 52751,
  "Frankfurt</w>": 1681,
  "Frankfurter</w>": 4196,
  "Frankfurts</w>": 47848,
  "Franklin</w>": 16065,
  "Frankreich</w>": 2371,
  "Frankreichs</w>": 12794,
  "Franz": 46770,
  "Franz-": 25376,
  "Franz</w>": 3819,
  "Franzis": 12972,
  "Franziska</w>": 17775,
  "Franzo": 58545,
  "Franzose</w>": 22528,
  "Franzosen</w>": 11361,
  "Französ": 27459,
  "Französin</w>": 50117,
  "Französisch</w>": 39546,
  "Franç": 47174,
  "François</w>": 14704,
  "Fraport</w>": 45019,
  "Fraser</w>": 23518,
  "Frat": 53157,
  "Frau": 12347,
  "Frau</w>": 632,
  "Fraud</w>": 51259,
  "Frauen": 4935,
  "Frauen-": 23398,
  "Frauen</w>": 873,
  "Frauenfußball</w>": 55338,
  "Frauenquote</w>": 44195,
  "Fre": 2713,
  "Fred": 58583,
  "Fred</w>": 14125,
  "Freddie</w>": 19679,
  "Freddy</w>": 48472,
  "Freder": 22649,
  "Frederick</w>": 35909,
  "Fredri": 48994,
  "Free": 22669,
  "Free</w>": 10419,
  "Freedom</w>": 14248,
  "Freeman</w>": 27872,
  "Freen": 59598,
  "Freenet</w>": 58511,
  "Freg": 55131,
  "Frei": 3862,
  "Frei</w>": 32510,
  "Freiburg</w>": 7063,
  "Freiburger</w>": 27723,
  "Freie</w>": 13340,
  "Freien</w>": 10330,
  "Freig": 43581,
  "Freigabe</w>": 32513,
  "Freih": 17335,
  "Freiheit": 31835,
  "Freiheit</w>": 6459,
  "Freiheiten</w>": 43998,
  "Freiheits": 29520,
  "Freiheitsstrafe</w>": 30391,
  "Freil": 22932,
  "Freilassung</w>": 24475,
  "Freilich</w>": 39185,
  "Freir": 38618,
  "Freisp": 57468,
  "Freispruch</w>": 29629,
  "Freist": 22146,
  "Freistaat</w>": 19511,
  "Freistil</w>": 32002,
  "Freisto": 46560,
  "Freistoß</w>": 12142,
  "Freitag": 20611,
  "Freitag</w>": 709,
  "Freitagabend</w>": 7153,
  "Freitagmorgen</w>": 25551,
  "Freitagnachmittag</w>": 24987,
  "Freitags": 46730,
  "Freiwilli": 30199,
  "Freiwillige</w>": 19486,
  "Freiwilligen</w>": 17134,
  "Freizeit": 10198,
  "Freizeit</w>": 15234,
  "Frem": 52394,
  "Fremd": 14327,
  "Fremde</w>": 31675,
  "Fremden": 25831,
  "Fremden</w>": 42683,
  "Fren": 50138,
  "French-": 41326,
  "French</w>": 1721,
  "Frenchman</w>": 33487,
  "Frenzel</w>": 48607,
  "Frequ": 30357,
  "Fres": 25248,
  "Fresh": 48573,
  "Fresh</w>": 32210,
  "Freu": 9262,
  "Freud</w>": 38216,
  "Freude</w>": 3998,
  "Freun": 58623,
  "Freund": 23719,
  "Freund</w>": 4474,
  "Freunde</w>": 3855,
  "Freunden</w>": 8269,
  "Freundes": 48406,
  "Freundes</w>": 45184,
  "Freundeskreis</w>": 30232,
  "Freundin</w>": 6562,
  "Freundinnen</w>": 32693,
  "Freundschaft</w>": 15834,
  "Freundschafts": 31846,
  "Frey": 32479,
  "Frey</w>": 26172,
  "Fri": 6304,
  "Friday</w>": 697,
  "Frie": 15197,
  "Fried": 8290,
  "Frieden": 15786,
  "Frieden</w>": 9076,
  "Friedens": 10831,
  "Friedens</w>": 46550,
[...]
